{
  "version": "1.0",
  "truncation": null,
  "padding": null,
  "added_tokens": [
    {
      "id": 0,
      "content": "<UNK>",
      "single_word": false,
      "lstrip": false,
      "rstrip": false,
      "normalized": false,
      "special": true
    },
    {
      "id": 1,
      "content": "<EOS>",
      "single_word": false,
      "lstrip": false,
      "rstrip": false,
      "normalized": false,
      "special": true
    },
    {
      "id": 2,
      "content": "<BOS>",
      "single_word": false,
      "lstrip": false,
      "rstrip": false,
      "normalized": false,
      "special": true
    },
    {
      "id": 3,
      "content": "<PAD>",
      "single_word": false,
      "lstrip": false,
      "rstrip": false,
      "normalized": false,
      "special": true
    },
    {
      "id": 4,
      "content": "<MASK>",
      "single_word": false,
      "lstrip": false,
      "rstrip": false,
      "normalized": false,
      "special": true
    }
  ],
  "normalizer": null,
  "pre_tokenizer": {
    "type": "Metaspace",
    "replacement": "▁",
    "prepend_scheme": "always",
    "split": true
  },
  "post_processor": null,
  "decoder": {
    "type": "Metaspace",
    "replacement": "▁",
    "prepend_scheme": "always",
    "split": true
  },
  "model": {
    "type": "BPE",
    "dropout": null,
    "unk_token": "<UNK>",
    "continuing_subword_prefix": null,
    "end_of_word_suffix": null,
    "fuse_unk": false,
    "byte_fallback": false,
    "ignore_merges": false,
    "vocab": {
      "<UNK>": 0,
      "<EOS>": 1,
      "<BOS>": 2,
      "<PAD>": 3,
      "<MASK>": 4,
      "\u0003": 5,
      "\u000f": 6,
      "\u0012": 7,
      "\u0016": 8,
      "\u0019": 9,
      "!": 10,
      "\"": 11,
      "#": 12,
      "$": 13,
      "%": 14,
      "&": 15,
      "'": 16,
      "(": 17,
      ")": 18,
      "*": 19,
      "+": 20,
      ",": 21,
      "-": 22,
      ".": 23,
      "/": 24,
      "0": 25,
      "1": 26,
      "2": 27,
      "3": 28,
      "4": 29,
      "5": 30,
      "6": 31,
      "7": 32,
      "8": 33,
      "9": 34,
      ":": 35,
      ";": 36,
      "<": 37,
      "=": 38,
      ">": 39,
      "?": 40,
      "@": 41,
      "A": 42,
      "B": 43,
      "C": 44,
      "D": 45,
      "E": 46,
      "F": 47,
      "G": 48,
      "H": 49,
      "I": 50,
      "J": 51,
      "K": 52,
      "L": 53,
      "M": 54,
      "N": 55,
      "O": 56,
      "P": 57,
      "Q": 58,
      "R": 59,
      "S": 60,
      "T": 61,
      "U": 62,
      "V": 63,
      "W": 64,
      "X": 65,
      "Y": 66,
      "Z": 67,
      "[": 68,
      "\\": 69,
      "]": 70,
      "^": 71,
      "_": 72,
      "`": 73,
      "a": 74,
      "b": 75,
      "c": 76,
      "d": 77,
      "e": 78,
      "f": 79,
      "g": 80,
      "h": 81,
      "i": 82,
      "j": 83,
      "k": 84,
      "l": 85,
      "m": 86,
      "n": 87,
      "o": 88,
      "p": 89,
      "q": 90,
      "r": 91,
      "s": 92,
      "t": 93,
      "u": 94,
      "v": 95,
      "w": 96,
      "x": 97,
      "y": 98,
      "z": 99,
      "{": 100,
      "|": 101,
      "}": 102,
      "~": 103,
      "": 104,
      "": 105,
      "": 106,
      "": 107,
      "": 108,
      "": 109,
      "": 110,
      "": 111,
      "": 112,
      "": 113,
      "": 114,
      "": 115,
      "": 116,
      "¡": 117,
      "¢": 118,
      "£": 119,
      "¤": 120,
      "¥": 121,
      "¦": 122,
      "§": 123,
      "¨": 124,
      "©": 125,
      "ª": 126,
      "«": 127,
      "¬": 128,
      "­": 129,
      "®": 130,
      "¯": 131,
      "°": 132,
      "±": 133,
      "²": 134,
      "³": 135,
      "´": 136,
      "µ": 137,
      "¶": 138,
      "·": 139,
      "¸": 140,
      "¹": 141,
      "º": 142,
      "»": 143,
      "¼": 144,
      "½": 145,
      "¾": 146,
      "¿": 147,
      "À": 148,
      "Á": 149,
      "Â": 150,
      "Ã": 151,
      "Ä": 152,
      "Å": 153,
      "Æ": 154,
      "Ç": 155,
      "È": 156,
      "É": 157,
      "Ê": 158,
      "Ë": 159,
      "Ì": 160,
      "Í": 161,
      "Î": 162,
      "Ï": 163,
      "Ð": 164,
      "Ñ": 165,
      "Ò": 166,
      "Ó": 167,
      "Ô": 168,
      "Õ": 169,
      "Ö": 170,
      "×": 171,
      "Ø": 172,
      "Ù": 173,
      "Ú": 174,
      "Û": 175,
      "Ü": 176,
      "Ý": 177,
      "Þ": 178,
      "ß": 179,
      "à": 180,
      "á": 181,
      "â": 182,
      "ã": 183,
      "ä": 184,
      "å": 185,
      "æ": 186,
      "ç": 187,
      "è": 188,
      "é": 189,
      "ê": 190,
      "ë": 191,
      "ì": 192,
      "í": 193,
      "î": 194,
      "ï": 195,
      "ð": 196,
      "ñ": 197,
      "ò": 198,
      "ó": 199,
      "ô": 200,
      "õ": 201,
      "ö": 202,
      "÷": 203,
      "ø": 204,
      "ù": 205,
      "ú": 206,
      "û": 207,
      "ü": 208,
      "ý": 209,
      "þ": 210,
      "ÿ": 211,
      "Ā": 212,
      "ā": 213,
      "Ă": 214,
      "ă": 215,
      "Ć": 216,
      "ć": 217,
      "Č": 218,
      "č": 219,
      "đ": 220,
      "Ē": 221,
      "ē": 222,
      "Ĕ": 223,
      "ĕ": 224,
      "Ę": 225,
      "ę": 226,
      "ě": 227,
      "ġ": 228,
      "Ī": 229,
      "ī": 230,
      "ĭ": 231,
      "ľ": 232,
      "ł": 233,
      "ń": 234,
      "Ō": 235,
      "ō": 236,
      "Ŏ": 237,
      "ŏ": 238,
      "Œ": 239,
      "œ": 240,
      "Ś": 241,
      "ś": 242,
      "Š": 243,
      "š": 244,
      "Ū": 245,
      "ū": 246,
      "ŭ": 247,
      "Ů": 248,
      "ů": 249,
      "ŷ": 250,
      "ź": 251,
      "Ž": 252,
      "ž": 253,
      "ſ": 254,
      "ƒ": 255,
      "ǣ": 256,
      "ǧ": 257,
      "Ǫ": 258,
      "ǫ": 259,
      "ǹ": 260,
      "ț": 261,
      "Ȝ": 262,
      "ȝ": 263,
      "ȧ": 264,
      "ȳ": 265,
      "ə": 266,
      "ʹ": 267,
      "ˆ": 268,
      "˘": 269,
      "˜": 270,
      "́": 271,
      "̃": 272,
      "̄": 273,
      "̅": 274,
      "̆": 275,
      "̇": 276,
      "̈": 277,
      "̑": 278,
      "̣": 279,
      "̤": 280,
      "̱": 281,
      "̵": 282,
      "̸": 283,
      "͝": 284,
      "͠": 285,
      "΄": 286,
      "Ά": 287,
      "Έ": 288,
      "Ή": 289,
      "Ί": 290,
      "Ό": 291,
      "Ύ": 292,
      "Ώ": 293,
      "ΐ": 294,
      "Α": 295,
      "Β": 296,
      "Γ": 297,
      "Δ": 298,
      "Ε": 299,
      "Ζ": 300,
      "Η": 301,
      "Θ": 302,
      "Ι": 303,
      "Κ": 304,
      "Λ": 305,
      "Μ": 306,
      "Ν": 307,
      "Ξ": 308,
      "Ο": 309,
      "Π": 310,
      "Ρ": 311,
      "Σ": 312,
      "Τ": 313,
      "Υ": 314,
      "Φ": 315,
      "Χ": 316,
      "Ψ": 317,
      "Ω": 318,
      "ά": 319,
      "έ": 320,
      "ή": 321,
      "ί": 322,
      "α": 323,
      "β": 324,
      "γ": 325,
      "δ": 326,
      "ε": 327,
      "ζ": 328,
      "η": 329,
      "θ": 330,
      "ι": 331,
      "κ": 332,
      "λ": 333,
      "μ": 334,
      "ν": 335,
      "ξ": 336,
      "ο": 337,
      "π": 338,
      "ρ": 339,
      "ς": 340,
      "σ": 341,
      "τ": 342,
      "υ": 343,
      "φ": 344,
      "χ": 345,
      "ψ": 346,
      "ω": 347,
      "ϊ": 348,
      "ϋ": 349,
      "ό": 350,
      "ύ": 351,
      "ώ": 352,
      "ϑ": 353,
      "ϕ": 354,
      "ϛ": 355,
      "ϰ": 356,
      "Ϲ": 357,
      "А": 358,
      "Н": 359,
      "Р": 360,
      "С": 361,
      "Т": 362,
      "Ъ": 363,
      "и": 364,
      "ђ": 365,
      "ў": 366,
      "ұ": 367,
      "һ": 368,
      "ִ": 369,
      "ּ": 370,
      "ה": 371,
      "ו": 372,
      "ז": 373,
      "ח": 374,
      "י": 375,
      "ך": 376,
      "ע": 377,
      "פ": 378,
      "צ": 379,
      "ᚠ": 380,
      "ᚢ": 381,
      "ᚦ": 382,
      "ᚭ": 383,
      "ᚲ": 384,
      "ᚳ": 385,
      "ᚴ": 386,
      "ᚼ": 387,
      "ᛁ": 388,
      "ᛅ": 389,
      "ᛎ": 390,
      "ᛏ": 391,
      "ᛐ": 392,
      "ᛘ": 393,
      "ᛚ": 394,
      "ᛦ": 395,
      "ᛯ": 396,
      "ᵉ": 397,
      "ᵐ": 398,
      "ᵒ": 399,
      "ᵗ": 400,
      "ḍ": 401,
      "ḡ": 402,
      "ṅ": 403,
      "ṇ": 404,
      "ṓ": 405,
      "Ṛ": 406,
      "ṛ": 407,
      "ṣ": 408,
      "Ṭ": 409,
      "ṭ": 410,
      "Ạ": 411,
      "ạ": 412,
      "ắ": 413,
      "ẽ": 414,
      "ỏ": 415,
      "ἀ": 416,
      "ἁ": 417,
      "ἂ": 418,
      "ἃ": 419,
      "ἄ": 420,
      "ἅ": 421,
      "ἆ": 422,
      "Ἀ": 423,
      "Ἁ": 424,
      "Ἄ": 425,
      "ἐ": 426,
      "ἑ": 427,
      "ἒ": 428,
      "ἔ": 429,
      "ἕ": 430,
      "Ἐ": 431,
      "Ἑ": 432,
      "Ἔ": 433,
      "Ἕ": 434,
      "ἠ": 435,
      "ἡ": 436,
      "ἢ": 437,
      "ἣ": 438,
      "ἤ": 439,
      "ἥ": 440,
      "ἦ": 441,
      "ἧ": 442,
      "Ἠ": 443,
      "Ἡ": 444,
      "Ἣ": 445,
      "Ἤ": 446,
      "Ἦ": 447,
      "ἰ": 448,
      "ἱ": 449,
      "ἲ": 450,
      "ἴ": 451,
      "ἵ": 452,
      "ἶ": 453,
      "ἷ": 454,
      "Ἰ": 455,
      "Ἱ": 456,
      "Ἴ": 457,
      "Ἵ": 458,
      "ὀ": 459,
      "ὁ": 460,
      "ὂ": 461,
      "ὃ": 462,
      "ὄ": 463,
      "ὅ": 464,
      "Ὀ": 465,
      "Ὁ": 466,
      "Ὂ": 467,
      "Ὄ": 468,
      "Ὅ": 469,
      "ὐ": 470,
      "ὑ": 471,
      "ὓ": 472,
      "ὔ": 473,
      "ὕ": 474,
      "ὖ": 475,
      "ὗ": 476,
      "Ὕ": 477,
      "ὠ": 478,
      "ὡ": 479,
      "ὤ": 480,
      "ὥ": 481,
      "ὦ": 482,
      "ὧ": 483,
      "Ὠ": 484,
      "Ὡ": 485,
      "Ὤ": 486,
      "ὰ": 487,
      "ὲ": 488,
      "ὴ": 489,
      "ὶ": 490,
      "ὸ": 491,
      "ὺ": 492,
      "ὼ": 493,
      "ᾐ": 494,
      "ᾖ": 495,
      "ᾗ": 496,
      "ᾤ": 497,
      "ᾦ": 498,
      "ᾳ": 499,
      "ᾴ": 500,
      "ᾶ": 501,
      "ᾷ": 502,
      "᾽": 503,
      "ῂ": 504,
      "ῃ": 505,
      "ῆ": 506,
      "ῇ": 507,
      "ῖ": 508,
      "ῤ": 509,
      "ῥ": 510,
      "ῦ": 511,
      "ῳ": 512,
      "ῴ": 513,
      "ῶ": 514,
      "ῷ": 515,
      "Ὸ": 516,
      "‎": 517,
      "–": 518,
      "―": 519,
      "‚": 520,
      "‛": 521,
      "„": 522,
      "†": 523,
      "‡": 524,
      "•": 525,
      "…": 526,
      "‰": 527,
      "′": 528,
      "″": 529,
      "‸": 530,
      "⁂": 531,
      "⁄": 532,
      "⁰": 533,
      "⁴": 534,
      "⁵": 535,
      "⁷": 536,
      "⁸": 537,
      "⁹": 538,
      "₀": 539,
      "₁": 540,
      "₂": 541,
      "₃": 542,
      "₄": 543,
      "₇": 544,
      "₉": 545,
      "℅": 546,
      "ℓ": 547,
      "℟": 548,
      "™": 549,
      "℣": 550,
      "⅑": 551,
      "⅓": 552,
      "⅔": 553,
      "⅗": 554,
      "⅘": 555,
      "⅙": 556,
      "⅚": 557,
      "⅛": 558,
      "⅜": 559,
      "⅞": 560,
      "∑": 561,
      "−": 562,
      "√": 563,
      "∞": 564,
      "∫": 565,
      "∴": 566,
      "─": 567,
      "│": 568,
      "┌": 569,
      "┐": 570,
      "└": 571,
      "┘": 572,
      "├": 573,
      "┤": 574,
      "┬": 575,
      "┴": 576,
      "┼": 577,
      "╣": 578,
      "▁": 579,
      "□": 580,
      "▬": 581,
      "△": 582,
      "♭": 583,
      "♯": 584,
      "✠": 585,
      "、": 586,
      "。": 587,
      "《": 588,
      "》": 589,
      "「": 590,
      "」": 591,
      "『": 592,
      "』": 593,
      "・": 594,
      "一": 595,
      "丁": 596,
      "七": 597,
      "丈": 598,
      "三": 599,
      "上": 600,
      "下": 601,
      "不": 602,
      "丑": 603,
      "且": 604,
      "丕": 605,
      "世": 606,
      "丘": 607,
      "丙": 608,
      "丞": 609,
      "丟": 610,
      "並": 611,
      "丫": 612,
      "中": 613,
      "丰": 614,
      "串": 615,
      "丸": 616,
      "丹": 617,
      "主": 618,
      "乃": 619,
      "久": 620,
      "之": 621,
      "乍": 622,
      "乎": 623,
      "乏": 624,
      "乖": 625,
      "乘": 626,
      "乜": 627,
      "九": 628,
      "乞": 629,
      "也": 630,
      "乩": 631,
      "乳": 632,
      "乾": 633,
      "亂": 634,
      "了": 635,
      "予": 636,
      "事": 637,
      "二": 638,
      "于": 639,
      "云": 640,
      "互": 641,
      "五": 642,
      "井": 643,
      "亙": 644,
      "些": 645,
      "亞": 646,
      "亟": 647,
      "亡": 648,
      "亢": 649,
      "交": 650,
      "亥": 651,
      "亦": 652,
      "亨": 653,
      "享": 654,
      "京": 655,
      "亭": 656,
      "亮": 657,
      "亳": 658,
      "人": 659,
      "亻": 660,
      "什": 661,
      "仁": 662,
      "仃": 663,
      "仄": 664,
      "仆": 665,
      "仇": 666,
      "今": 667,
      "介": 668,
      "仍": 669,
      "仔": 670,
      "仕": 671,
      "他": 672,
      "仗": 673,
      "付": 674,
      "仙": 675,
      "仞": 676,
      "代": 677,
      "令": 678,
      "以": 679,
      "仰": 680,
      "仲": 681,
      "件": 682,
      "任": 683,
      "份": 684,
      "企": 685,
      "伉": 686,
      "伊": 687,
      "伍": 688,
      "伎": 689,
      "伏": 690,
      "伐": 691,
      "休": 692,
      "伙": 693,
      "伯": 694,
      "伴": 695,
      "伶": 696,
      "伸": 697,
      "伺": 698,
      "似": 699,
      "伽": 700,
      "佃": 701,
      "但": 702,
      "佇": 703,
      "佈": 704,
      "位": 705,
      "低": 706,
      "住": 707,
      "佐": 708,
      "佑": 709,
      "佔": 710,
      "何": 711,
      "余": 712,
      "佛": 713,
      "作": 714,
      "佞": 715,
      "你": 716,
      "佣": 717,
      "佩": 718,
      "佯": 719,
      "佳": 720,
      "併": 721,
      "佼": 722,
      "使": 723,
      "侃": 724,
      "侄": 725,
      "來": 726,
      "侈": 727,
      "例": 728,
      "侍": 729,
      "侏": 730,
      "侑": 731,
      "侔": 732,
      "侖": 733,
      "侘": 734,
      "供": 735,
      "依": 736,
      "侮": 737,
      "侯": 738,
      "侵": 739,
      "侶": 740,
      "侷": 741,
      "便": 742,
      "係": 743,
      "促": 744,
      "俄": 745,
      "俊": 746,
      "俎": 747,
      "俏": 748,
      "俐": 749,
      "俗": 750,
      "俘": 751,
      "俚": 752,
      "保": 753,
      "俞": 754,
      "俟": 755,
      "俠": 756,
      "信": 757,
      "修": 758,
      "俯": 759,
      "俱": 760,
      "俳": 761,
      "俸": 762,
      "俺": 763,
      "俾": 764,
      "倆": 765,
      "倉": 766,
      "個": 767,
      "倌": 768,
      "倍": 769,
      "倏": 770,
      "們": 771,
      "倒": 772,
      "倔": 773,
      "倖": 774,
      "倘": 775,
      "候": 776,
      "倚": 777,
      "倜": 778,
      "借": 779,
      "倡": 780,
      "倦": 781,
      "倨": 782,
      "倩": 783,
      "倫": 784,
      "倭": 785,
      "值": 786,
      "偃": 787,
      "假": 788,
      "偉": 789,
      "偌": 790,
      "偎": 791,
      "偏": 792,
      "偕": 793,
      "做": 794,
      "停": 795,
      "健": 796,
      "側": 797,
      "偵": 798,
      "偶": 799,
      "偷": 800,
      "偽": 801,
      "傀": 802,
      "傅": 803,
      "傍": 804,
      "傑": 805,
      "傘": 806,
      "備": 807,
      "催": 808,
      "傭": 809,
      "傲": 810,
      "傳": 811,
      "傴": 812,
      "債": 813,
      "傷": 814,
      "傺": 815,
      "傾": 816,
      "僂": 817,
      "僅": 818,
      "僉": 819,
      "像": 820,
      "僕": 821,
      "僚": 822,
      "僥": 823,
      "僦": 824,
      "僧": 825,
      "僬": 826,
      "僭": 827,
      "僮": 828,
      "僱": 829,
      "僵": 830,
      "價": 831,
      "僻": 832,
      "儀": 833,
      "儂": 834,
      "儆": 835,
      "儉": 836,
      "儒": 837,
      "儔": 838,
      "償": 839,
      "儡": 840,
      "優": 841,
      "儲": 842,
      "儷": 843,
      "儻": 844,
      "儼": 845,
      "兀": 846,
      "允": 847,
      "元": 848,
      "兄": 849,
      "充": 850,
      "兆": 851,
      "兇": 852,
      "先": 853,
      "光": 854,
      "克": 855,
      "兌": 856,
      "免": 857,
      "兑": 858,
      "兒": 859,
      "兔": 860,
      "兜": 861,
      "兢": 862,
      "入": 863,
      "內": 864,
      "全": 865,
      "兩": 866,
      "八": 867,
      "公": 868,
      "六": 869,
      "兮": 870,
      "共": 871,
      "兵": 872,
      "其": 873,
      "具": 874,
      "典": 875,
      "兼": 876,
      "冀": 877,
      "冉": 878,
      "冊": 879,
      "再": 880,
      "冑": 881,
      "冒": 882,
      "冕": 883,
      "冗": 884,
      "冠": 885,
      "冢": 886,
      "冤": 887,
      "冥": 888,
      "冬": 889,
      "冰": 890,
      "冶": 891,
      "冷": 892,
      "冽": 893,
      "准": 894,
      "凋": 895,
      "凌": 896,
      "凍": 897,
      "凜": 898,
      "凝": 899,
      "几": 900,
      "凡": 901,
      "凰": 902,
      "凱": 903,
      "凳": 904,
      "凴": 905,
      "凶": 906,
      "出": 907,
      "函": 908,
      "刀": 909,
      "刁": 910,
      "刂": 911,
      "刃": 912,
      "分": 913,
      "切": 914,
      "刊": 915,
      "刎": 916,
      "刑": 917,
      "列": 918,
      "初": 919,
      "判": 920,
      "別": 921,
      "利": 922,
      "刮": 923,
      "到": 924,
      "刳": 925,
      "制": 926,
      "刺": 927,
      "刻": 928,
      "剃": 929,
      "剄": 930,
      "則": 931,
      "削": 932,
      "剋": 933,
      "剌": 934,
      "前": 935,
      "剎": 936,
      "剔": 937,
      "剖": 938,
      "剛": 939,
      "剜": 940,
      "剝": 941,
      "剞": 942,
      "剡": 943,
      "剩": 944,
      "剪": 945,
      "剮": 946,
      "副": 947,
      "割": 948,
      "創": 949,
      "剽": 950,
      "剿": 951,
      "劂": 952,
      "劃": 953,
      "劇": 954,
      "劈": 955,
      "劉": 956,
      "劍": 957,
      "劑": 958,
      "力": 959,
      "功": 960,
      "加": 961,
      "劣": 962,
      "助": 963,
      "努": 964,
      "劫": 965,
      "劾": 966,
      "勁": 967,
      "勃": 968,
      "勇": 969,
      "勉": 970,
      "勒": 971,
      "動": 972,
      "勘": 973,
      "務": 974,
      "勛": 975,
      "勝": 976,
      "勞": 977,
      "募": 978,
      "勢": 979,
      "勤": 980,
      "勵": 981,
      "勸": 982,
      "勺": 983,
      "勻": 984,
      "勾": 985,
      "勿": 986,
      "包": 987,
      "匆": 988,
      "匍": 989,
      "匏": 990,
      "匐": 991,
      "匕": 992,
      "化": 993,
      "北": 994,
      "匙": 995,
      "匝": 996,
      "匡": 997,
      "匣": 998,
      "匪": 999,
      "匯": 1000,
      "匱": 1001,
      "匹": 1002,
      "匾": 1003,
      "匿": 1004,
      "區": 1005,
      "十": 1006,
      "千": 1007,
      "升": 1008,
      "午": 1009,
      "卉": 1010,
      "半": 1011,
      "卑": 1012,
      "卒": 1013,
      "卓": 1014,
      "協": 1015,
      "南": 1016,
      "博": 1017,
      "卜": 1018,
      "卞": 1019,
      "占": 1020,
      "卦": 1021,
      "卮": 1022,
      "卯": 1023,
      "印": 1024,
      "危": 1025,
      "即": 1026,
      "卵": 1027,
      "卷": 1028,
      "卸": 1029,
      "卻": 1030,
      "卿": 1031,
      "厄": 1032,
      "厘": 1033,
      "厚": 1034,
      "厝": 1035,
      "原": 1036,
      "厥": 1037,
      "厭": 1038,
      "厲": 1039,
      "去": 1040,
      "參": 1041,
      "又": 1042,
      "叉": 1043,
      "及": 1044,
      "友": 1045,
      "反": 1046,
      "叔": 1047,
      "取": 1048,
      "受": 1049,
      "叛": 1050,
      "叟": 1051,
      "叢": 1052,
      "口": 1053,
      "古": 1054,
      "句": 1055,
      "另": 1056,
      "叨": 1057,
      "叩": 1058,
      "只": 1059,
      "叫": 1060,
      "召": 1061,
      "叮": 1062,
      "可": 1063,
      "台": 1064,
      "叱": 1065,
      "史": 1066,
      "右": 1067,
      "司": 1068,
      "吁": 1069,
      "吃": 1070,
      "各": 1071,
      "吆": 1072,
      "合": 1073,
      "吉": 1074,
      "吊": 1075,
      "同": 1076,
      "名": 1077,
      "后": 1078,
      "吏": 1079,
      "吐": 1080,
      "向": 1081,
      "君": 1082,
      "吝": 1083,
      "吞": 1084,
      "吟": 1085,
      "吠": 1086,
      "否": 1087,
      "吩": 1088,
      "含": 1089,
      "吮": 1090,
      "吳": 1091,
      "吵": 1092,
      "吶": 1093,
      "吸": 1094,
      "吹": 1095,
      "吻": 1096,
      "吼": 1097,
      "吾": 1098,
      "呀": 1099,
      "呂": 1100,
      "呆": 1101,
      "呈": 1102,
      "告": 1103,
      "呢": 1104,
      "呤": 1105,
      "周": 1106,
      "味": 1107,
      "呵": 1108,
      "呷": 1109,
      "呻": 1110,
      "呼": 1111,
      "命": 1112,
      "咀": 1113,
      "咂": 1114,
      "咄": 1115,
      "咆": 1116,
      "咋": 1117,
      "和": 1118,
      "咎": 1119,
      "咐": 1120,
      "咒": 1121,
      "咤": 1122,
      "咨": 1123,
      "咫": 1124,
      "咬": 1125,
      "咯": 1126,
      "咱": 1127,
      "咳": 1128,
      "咸": 1129,
      "咽": 1130,
      "咿": 1131,
      "哀": 1132,
      "品": 1133,
      "哂": 1134,
      "哄": 1135,
      "哈": 1136,
      "哉": 1137,
      "員": 1138,
      "哥": 1139,
      "哦": 1140,
      "哩": 1141,
      "哪": 1142,
      "哭": 1143,
      "哮": 1144,
      "哲": 1145,
      "哺": 1146,
      "哼": 1147,
      "哽": 1148,
      "唅": 1149,
      "唆": 1150,
      "唇": 1151,
      "唏": 1152,
      "唐": 1153,
      "唔": 1154,
      "唧": 1155,
      "唬": 1156,
      "售": 1157,
      "唯": 1158,
      "唱": 1159,
      "唳": 1160,
      "唷": 1161,
      "唸": 1162,
      "唾": 1163,
      "啄": 1164,
      "商": 1165,
      "問": 1166,
      "啐": 1167,
      "啖": 1168,
      "啜": 1169,
      "啞": 1170,
      "啟": 1171,
      "啥": 1172,
      "啻": 1173,
      "啼": 1174,
      "啾": 1175,
      "喁": 1176,
      "喂": 1177,
      "喃": 1178,
      "善": 1179,
      "喈": 1180,
      "喉": 1181,
      "喊": 1182,
      "喋": 1183,
      "喏": 1184,
      "喔": 1185,
      "喘": 1186,
      "喙": 1187,
      "喚": 1188,
      "喜": 1189,
      "喝": 1190,
      "喟": 1191,
      "喧": 1192,
      "喪": 1193,
      "喬": 1194,
      "單": 1195,
      "喲": 1196,
      "喻": 1197,
      "嗄": 1198,
      "嗅": 1199,
      "嗇": 1200,
      "嗑": 1201,
      "嗔": 1202,
      "嗚": 1203,
      "嗜": 1204,
      "嗟": 1205,
      "嗣": 1206,
      "嗤": 1207,
      "嗷": 1208,
      "嗽": 1209,
      "嘆": 1210,
      "嘈": 1211,
      "嘉": 1212,
      "嘎": 1213,
      "嘔": 1214,
      "嘖": 1215,
      "嘗": 1216,
      "嘩": 1217,
      "嘯": 1218,
      "嘲": 1219,
      "嘴": 1220,
      "嘶": 1221,
      "嘹": 1222,
      "嘻": 1223,
      "噓": 1224,
      "器": 1225,
      "噩": 1226,
      "噪": 1227,
      "噫": 1228,
      "噬": 1229,
      "噴": 1230,
      "嚀": 1231,
      "嚅": 1232,
      "嚇": 1233,
      "嚏": 1234,
      "嚙": 1235,
      "嚦": 1236,
      "嚨": 1237,
      "嚴": 1238,
      "嚶": 1239,
      "嚷": 1240,
      "嚼": 1241,
      "囀": 1242,
      "囁": 1243,
      "囂": 1244,
      "囉": 1245,
      "囊": 1246,
      "囑": 1247,
      "囚": 1248,
      "四": 1249,
      "回": 1250,
      "因": 1251,
      "囤": 1252,
      "困": 1253,
      "囹": 1254,
      "固": 1255,
      "圂": 1256,
      "圃": 1257,
      "圄": 1258,
      "圈": 1259,
      "國": 1260,
      "圍": 1261,
      "園": 1262,
      "圓": 1263,
      "圖": 1264,
      "團": 1265,
      "圜": 1266,
      "土": 1267,
      "在": 1268,
      "圭": 1269,
      "地": 1270,
      "圻": 1271,
      "址": 1272,
      "均": 1273,
      "坊": 1274,
      "坌": 1275,
      "坎": 1276,
      "坐": 1277,
      "坑": 1278,
      "坡": 1279,
      "坤": 1280,
      "坦": 1281,
      "坯": 1282,
      "坳": 1283,
      "坻": 1284,
      "坼": 1285,
      "垂": 1286,
      "垓": 1287,
      "垢": 1288,
      "垣": 1289,
      "埃": 1290,
      "埋": 1291,
      "城": 1292,
      "埒": 1293,
      "域": 1294,
      "執": 1295,
      "培": 1296,
      "基": 1297,
      "堂": 1298,
      "堅": 1299,
      "堆": 1300,
      "堡": 1301,
      "堤": 1302,
      "堪": 1303,
      "堯": 1304,
      "報": 1305,
      "場": 1306,
      "堵": 1307,
      "塊": 1308,
      "塋": 1309,
      "塌": 1310,
      "塑": 1311,
      "塔": 1312,
      "塗": 1313,
      "塘": 1314,
      "塚": 1315,
      "塞": 1316,
      "塢": 1317,
      "填": 1318,
      "塵": 1319,
      "塹": 1320,
      "塾": 1321,
      "墀": 1322,
      "境": 1323,
      "墓": 1324,
      "墜": 1325,
      "增": 1326,
      "墟": 1327,
      "墨": 1328,
      "墩": 1329,
      "墮": 1330,
      "墳": 1331,
      "墾": 1332,
      "壁": 1333,
      "壇": 1334,
      "壑": 1335,
      "壓": 1336,
      "壘": 1337,
      "壙": 1338,
      "壚": 1339,
      "壞": 1340,
      "壟": 1341,
      "壤": 1342,
      "壩": 1343,
      "士": 1344,
      "壬": 1345,
      "壯": 1346,
      "壺": 1347,
      "壽": 1348,
      "夏": 1349,
      "夔": 1350,
      "夕": 1351,
      "外": 1352,
      "夙": 1353,
      "多": 1354,
      "夜": 1355,
      "夠": 1356,
      "夢": 1357,
      "夤": 1358,
      "夥": 1359,
      "大": 1360,
      "天": 1361,
      "太": 1362,
      "夫": 1363,
      "夭": 1364,
      "央": 1365,
      "夯": 1366,
      "失": 1367,
      "夷": 1368,
      "夾": 1369,
      "奇": 1370,
      "奈": 1371,
      "奉": 1372,
      "奎": 1373,
      "奏": 1374,
      "契": 1375,
      "奔": 1376,
      "奕": 1377,
      "套": 1378,
      "奚": 1379,
      "奠": 1380,
      "奢": 1381,
      "奩": 1382,
      "奪": 1383,
      "奮": 1384,
      "女": 1385,
      "奴": 1386,
      "奶": 1387,
      "奸": 1388,
      "她": 1389,
      "好": 1390,
      "妁": 1391,
      "如": 1392,
      "妃": 1393,
      "妄": 1394,
      "妊": 1395,
      "妍": 1396,
      "妒": 1397,
      "妓": 1398,
      "妖": 1399,
      "妗": 1400,
      "妙": 1401,
      "妝": 1402,
      "妣": 1403,
      "妤": 1404,
      "妥": 1405,
      "妨": 1406,
      "妮": 1407,
      "妯": 1408,
      "妹": 1409,
      "妻": 1410,
      "妾": 1411,
      "姆": 1412,
      "姊": 1413,
      "始": 1414,
      "姐": 1415,
      "姑": 1416,
      "姓": 1417,
      "委": 1418,
      "姚": 1419,
      "姜": 1420,
      "姝": 1421,
      "姣": 1422,
      "姤": 1423,
      "姦": 1424,
      "姨": 1425,
      "姪": 1426,
      "姬": 1427,
      "姻": 1428,
      "姿": 1429,
      "威": 1430,
      "娃": 1431,
      "娉": 1432,
      "娌": 1433,
      "娑": 1434,
      "娘": 1435,
      "娛": 1436,
      "娜": 1437,
      "娟": 1438,
      "娠": 1439,
      "娥": 1440,
      "娩": 1441,
      "娬": 1442,
      "娶": 1443,
      "娼": 1444,
      "婁": 1445,
      "婆": 1446,
      "婉": 1447,
      "婕": 1448,
      "婚": 1449,
      "婢": 1450,
      "婦": 1451,
      "婪": 1452,
      "婷": 1453,
      "婿": 1454,
      "媒": 1455,
      "媚": 1456,
      "媛": 1457,
      "媯": 1458,
      "媲": 1459,
      "媳": 1460,
      "媵": 1461,
      "媸": 1462,
      "媼": 1463,
      "媽": 1464,
      "媾": 1465,
      "嫁": 1466,
      "嫂": 1467,
      "嫉": 1468,
      "嫋": 1469,
      "嫌": 1470,
      "嫖": 1471,
      "嫗": 1472,
      "嫠": 1473,
      "嫡": 1474,
      "嫣": 1475,
      "嫦": 1476,
      "嫩": 1477,
      "嬈": 1478,
      "嬉": 1479,
      "嬋": 1480,
      "嬌": 1481,
      "嬖": 1482,
      "嬙": 1483,
      "嬪": 1484,
      "嬰": 1485,
      "嬲": 1486,
      "嬸": 1487,
      "孀": 1488,
      "孌": 1489,
      "子": 1490,
      "孑": 1491,
      "孔": 1492,
      "孕": 1493,
      "字": 1494,
      "存": 1495,
      "孚": 1496,
      "孛": 1497,
      "孜": 1498,
      "孝": 1499,
      "孟": 1500,
      "季": 1501,
      "孤": 1502,
      "孥": 1503,
      "孩": 1504,
      "孫": 1505,
      "孰": 1506,
      "學": 1507,
      "孺": 1508,
      "孽": 1509,
      "宄": 1510,
      "宅": 1511,
      "宇": 1512,
      "守": 1513,
      "安": 1514,
      "宋": 1515,
      "完": 1516,
      "宏": 1517,
      "宗": 1518,
      "官": 1519,
      "宙": 1520,
      "定": 1521,
      "宛": 1522,
      "宜": 1523,
      "客": 1524,
      "宣": 1525,
      "室": 1526,
      "宥": 1527,
      "宦": 1528,
      "宮": 1529,
      "宰": 1530,
      "害": 1531,
      "宴": 1532,
      "宵": 1533,
      "家": 1534,
      "宸": 1535,
      "容": 1536,
      "宿": 1537,
      "寂": 1538,
      "寄": 1539,
      "寅": 1540,
      "密": 1541,
      "寇": 1542,
      "富": 1543,
      "寐": 1544,
      "寒": 1545,
      "寓": 1546,
      "寞": 1547,
      "察": 1548,
      "寡": 1549,
      "寢": 1550,
      "寤": 1551,
      "寥": 1552,
      "實": 1553,
      "寧": 1554,
      "寨": 1555,
      "審": 1556,
      "寫": 1557,
      "寬": 1558,
      "寮": 1559,
      "寰": 1560,
      "寵": 1561,
      "寶": 1562,
      "寸": 1563,
      "寺": 1564,
      "封": 1565,
      "射": 1566,
      "將": 1567,
      "專": 1568,
      "尉": 1569,
      "尊": 1570,
      "尋": 1571,
      "對": 1572,
      "導": 1573,
      "小": 1574,
      "少": 1575,
      "尖": 1576,
      "尚": 1577,
      "尤": 1578,
      "尬": 1579,
      "就": 1580,
      "尷": 1581,
      "尹": 1582,
      "尺": 1583,
      "尼": 1584,
      "尾": 1585,
      "尿": 1586,
      "局": 1587,
      "屁": 1588,
      "居": 1589,
      "屆": 1590,
      "屈": 1591,
      "屋": 1592,
      "屍": 1593,
      "屏": 1594,
      "屐": 1595,
      "屑": 1596,
      "展": 1597,
      "屠": 1598,
      "屢": 1599,
      "屣": 1600,
      "層": 1601,
      "履": 1602,
      "屬": 1603,
      "屯": 1604,
      "山": 1605,
      "岐": 1606,
      "岑": 1607,
      "岡": 1608,
      "岩": 1609,
      "岫": 1610,
      "岳": 1611,
      "岸": 1612,
      "峒": 1613,
      "峙": 1614,
      "峨": 1615,
      "峰": 1616,
      "島": 1617,
      "峻": 1618,
      "峽": 1619,
      "崇": 1620,
      "崎": 1621,
      "崑": 1622,
      "崔": 1623,
      "崖": 1624,
      "崗": 1625,
      "崙": 1626,
      "崢": 1627,
      "崤": 1628,
      "崩": 1629,
      "嵐": 1630,
      "嵩": 1631,
      "嵬": 1632,
      "嶂": 1633,
      "嶇": 1634,
      "嶠": 1635,
      "嶸": 1636,
      "嶺": 1637,
      "嶼": 1638,
      "嶽": 1639,
      "巍": 1640,
      "巒": 1641,
      "巔": 1642,
      "巖": 1643,
      "川": 1644,
      "州": 1645,
      "巡": 1646,
      "巢": 1647,
      "工": 1648,
      "左": 1649,
      "巧": 1650,
      "巨": 1651,
      "巫": 1652,
      "差": 1653,
      "己": 1654,
      "已": 1655,
      "巳": 1656,
      "巴": 1657,
      "巷": 1658,
      "巹": 1659,
      "巽": 1660,
      "巾": 1661,
      "市": 1662,
      "布": 1663,
      "帆": 1664,
      "希": 1665,
      "帔": 1666,
      "帕": 1667,
      "帖": 1668,
      "帙": 1669,
      "帚": 1670,
      "帛": 1671,
      "帝": 1672,
      "帥": 1673,
      "師": 1674,
      "席": 1675,
      "帳": 1676,
      "帶": 1677,
      "帷": 1678,
      "常": 1679,
      "帽": 1680,
      "幃": 1681,
      "幄": 1682,
      "幅": 1683,
      "幌": 1684,
      "幔": 1685,
      "幕": 1686,
      "幡": 1687,
      "幢": 1688,
      "幣": 1689,
      "幫": 1690,
      "干": 1691,
      "平": 1692,
      "年": 1693,
      "幸": 1694,
      "幹": 1695,
      "幻": 1696,
      "幼": 1697,
      "幽": 1698,
      "幾": 1699,
      "庇": 1700,
      "床": 1701,
      "序": 1702,
      "底": 1703,
      "庖": 1704,
      "店": 1705,
      "庚": 1706,
      "府": 1707,
      "庠": 1708,
      "度": 1709,
      "座": 1710,
      "庫": 1711,
      "庭": 1712,
      "庵": 1713,
      "庶": 1714,
      "康": 1715,
      "庸": 1716,
      "廁": 1717,
      "廂": 1718,
      "廄": 1719,
      "廈": 1720,
      "廉": 1721,
      "廊": 1722,
      "廑": 1723,
      "廓": 1724,
      "廖": 1725,
      "廚": 1726,
      "廛": 1727,
      "廝": 1728,
      "廟": 1729,
      "廡": 1730,
      "廢": 1731,
      "廣": 1732,
      "廬": 1733,
      "廳": 1734,
      "延": 1735,
      "廷": 1736,
      "建": 1737,
      "廿": 1738,
      "弄": 1739,
      "弈": 1740,
      "弊": 1741,
      "式": 1742,
      "弒": 1743,
      "弓": 1744,
      "弔": 1745,
      "引": 1746,
      "弗": 1747,
      "弘": 1748,
      "弛": 1749,
      "弟": 1750,
      "弦": 1751,
      "弧": 1752,
      "弩": 1753,
      "弭": 1754,
      "弱": 1755,
      "張": 1756,
      "強": 1757,
      "弼": 1758,
      "彀": 1759,
      "彈": 1760,
      "彌": 1761,
      "彎": 1762,
      "彖": 1763,
      "彗": 1764,
      "彘": 1765,
      "彝": 1766,
      "形": 1767,
      "彩": 1768,
      "彪": 1769,
      "彬": 1770,
      "彭": 1771,
      "彰": 1772,
      "影": 1773,
      "彷": 1774,
      "役": 1775,
      "彼": 1776,
      "彿": 1777,
      "往": 1778,
      "征": 1779,
      "徂": 1780,
      "待": 1781,
      "徇": 1782,
      "很": 1783,
      "徉": 1784,
      "徊": 1785,
      "律": 1786,
      "後": 1787,
      "徐": 1788,
      "徑": 1789,
      "徒": 1790,
      "得": 1791,
      "徘": 1792,
      "徙": 1793,
      "徜": 1794,
      "從": 1795,
      "御": 1796,
      "徨": 1797,
      "復": 1798,
      "循": 1799,
      "微": 1800,
      "徵": 1801,
      "德": 1802,
      "徹": 1803,
      "徼": 1804,
      "徽": 1805,
      "心": 1806,
      "忄": 1807,
      "必": 1808,
      "忌": 1809,
      "忍": 1810,
      "忒": 1811,
      "忖": 1812,
      "志": 1813,
      "忘": 1814,
      "忙": 1815,
      "忝": 1816,
      "忠": 1817,
      "忡": 1818,
      "忤": 1819,
      "忪": 1820,
      "快": 1821,
      "忱": 1822,
      "念": 1823,
      "忸": 1824,
      "忻": 1825,
      "忽": 1826,
      "忿": 1827,
      "怊": 1828,
      "怎": 1829,
      "怏": 1830,
      "怒": 1831,
      "怕": 1832,
      "怖": 1833,
      "怙": 1834,
      "怛": 1835,
      "思": 1836,
      "怠": 1837,
      "怡": 1838,
      "急": 1839,
      "性": 1840,
      "怨": 1841,
      "怩": 1842,
      "怪": 1843,
      "怯": 1844,
      "恁": 1845,
      "恂": 1846,
      "恃": 1847,
      "恆": 1848,
      "恍": 1849,
      "恐": 1850,
      "恒": 1851,
      "恕": 1852,
      "恙": 1853,
      "恚": 1854,
      "恝": 1855,
      "恢": 1856,
      "恣": 1857,
      "恤": 1858,
      "恥": 1859,
      "恨": 1860,
      "恩": 1861,
      "恪": 1862,
      "恬": 1863,
      "恭": 1864,
      "息": 1865,
      "恰": 1866,
      "悃": 1867,
      "悄": 1868,
      "悅": 1869,
      "悉": 1870,
      "悌": 1871,
      "悍": 1872,
      "悒": 1873,
      "悔": 1874,
      "悖": 1875,
      "悚": 1876,
      "悛": 1877,
      "悟": 1878,
      "悠": 1879,
      "患": 1880,
      "悲": 1881,
      "悴": 1882,
      "悵": 1883,
      "悶": 1884,
      "悸": 1885,
      "悼": 1886,
      "悽": 1887,
      "情": 1888,
      "惆": 1889,
      "惇": 1890,
      "惋": 1891,
      "惑": 1892,
      "惕": 1893,
      "惘": 1894,
      "惚": 1895,
      "惜": 1896,
      "惟": 1897,
      "惠": 1898,
      "惡": 1899,
      "惰": 1900,
      "惱": 1901,
      "想": 1902,
      "惶": 1903,
      "惹": 1904,
      "惺": 1905,
      "惻": 1906,
      "愀": 1907,
      "愁": 1908,
      "愆": 1909,
      "愈": 1910,
      "愍": 1911,
      "意": 1912,
      "愕": 1913,
      "愚": 1914,
      "愛": 1915,
      "愜": 1916,
      "感": 1917,
      "愧": 1918,
      "愫": 1919,
      "愴": 1920,
      "愷": 1921,
      "慄": 1922,
      "慇": 1923,
      "慈": 1924,
      "慊": 1925,
      "態": 1926,
      "慌": 1927,
      "慍": 1928,
      "慎": 1929,
      "慕": 1930,
      "慘": 1931,
      "慚": 1932,
      "慝": 1933,
      "慟": 1934,
      "慢": 1935,
      "慣": 1936,
      "慧": 1937,
      "慨": 1938,
      "慮": 1939,
      "慰": 1940,
      "慳": 1941,
      "慵": 1942,
      "慶": 1943,
      "慷": 1944,
      "慼": 1945,
      "慾": 1946,
      "憂": 1947,
      "憊": 1948,
      "憎": 1949,
      "憐": 1950,
      "憑": 1951,
      "憔": 1952,
      "憚": 1953,
      "憤": 1954,
      "憧": 1955,
      "憨": 1956,
      "憩": 1957,
      "憫": 1958,
      "憮": 1959,
      "憲": 1960,
      "憶": 1961,
      "憾": 1962,
      "懃": 1963,
      "懇": 1964,
      "懈": 1965,
      "應": 1966,
      "懊": 1967,
      "懦": 1968,
      "懨": 1969,
      "懲": 1970,
      "懵": 1971,
      "懶": 1972,
      "懷": 1973,
      "懸": 1974,
      "懺": 1975,
      "懼": 1976,
      "懿": 1977,
      "戀": 1978,
      "戈": 1979,
      "戊": 1980,
      "戌": 1981,
      "戍": 1982,
      "戎": 1983,
      "成": 1984,
      "我": 1985,
      "戒": 1986,
      "戕": 1987,
      "或": 1988,
      "戚": 1989,
      "戛": 1990,
      "戟": 1991,
      "戢": 1992,
      "截": 1993,
      "戮": 1994,
      "戰": 1995,
      "戲": 1996,
      "戳": 1997,
      "戴": 1998,
      "戶": 1999,
      "戾": 2000,
      "房": 2001,
      "所": 2002,
      "扁": 2003,
      "扃": 2004,
      "扇": 2005,
      "扉": 2006,
      "手": 2007,
      "扌": 2008,
      "才": 2009,
      "扎": 2010,
      "扑": 2011,
      "扒": 2012,
      "打": 2013,
      "托": 2014,
      "扛": 2015,
      "扣": 2016,
      "扭": 2017,
      "扮": 2018,
      "扯": 2019,
      "扳": 2020,
      "扶": 2021,
      "批": 2022,
      "扼": 2023,
      "找": 2024,
      "承": 2025,
      "技": 2026,
      "抄": 2027,
      "把": 2028,
      "抑": 2029,
      "抓": 2030,
      "投": 2031,
      "抖": 2032,
      "抗": 2033,
      "折": 2034,
      "披": 2035,
      "抬": 2036,
      "抱": 2037,
      "抵": 2038,
      "抹": 2039,
      "押": 2040,
      "抽": 2041,
      "拂": 2042,
      "拆": 2043,
      "拈": 2044,
      "拉": 2045,
      "拊": 2046,
      "拋": 2047,
      "拌": 2048,
      "拍": 2049,
      "拎": 2050,
      "拐": 2051,
      "拒": 2052,
      "拔": 2053,
      "拖": 2054,
      "拗": 2055,
      "拘": 2056,
      "拙": 2057,
      "拚": 2058,
      "招": 2059,
      "拜": 2060,
      "括": 2061,
      "拭": 2062,
      "拯": 2063,
      "拱": 2064,
      "拳": 2065,
      "拴": 2066,
      "拶": 2067,
      "拷": 2068,
      "拼": 2069,
      "拽": 2070,
      "拾": 2071,
      "拿": 2072,
      "持": 2073,
      "指": 2074,
      "挈": 2075,
      "按": 2076,
      "挑": 2077,
      "挖": 2078,
      "挨": 2079,
      "挪": 2080,
      "挫": 2081,
      "振": 2082,
      "挲": 2083,
      "挹": 2084,
      "挺": 2085,
      "挽": 2086,
      "挾": 2087,
      "捆": 2088,
      "捉": 2089,
      "捍": 2090,
      "捎": 2091,
      "捏": 2092,
      "捐": 2093,
      "捕": 2094,
      "捧": 2095,
      "捨": 2096,
      "捫": 2097,
      "捱": 2098,
      "捲": 2099,
      "捶": 2100,
      "捷": 2101,
      "捺": 2102,
      "捻": 2103,
      "掀": 2104,
      "掃": 2105,
      "掄": 2106,
      "掇": 2107,
      "授": 2108,
      "掉": 2109,
      "掌": 2110,
      "排": 2111,
      "掖": 2112,
      "掘": 2113,
      "掙": 2114,
      "掛": 2115,
      "掠": 2116,
      "採": 2117,
      "探": 2118,
      "掣": 2119,
      "接": 2120,
      "控": 2121,
      "推": 2122,
      "掩": 2123,
      "措": 2124,
      "掬": 2125,
      "掾": 2126,
      "揀": 2127,
      "揆": 2128,
      "揉": 2129,
      "描": 2130,
      "提": 2131,
      "插": 2132,
      "揖": 2133,
      "揚": 2134,
      "換": 2135,
      "握": 2136,
      "揣": 2137,
      "揩": 2138,
      "揪": 2139,
      "揭": 2140,
      "揮": 2141,
      "援": 2142,
      "損": 2143,
      "搏": 2144,
      "搔": 2145,
      "搖": 2146,
      "搗": 2147,
      "搜": 2148,
      "搠": 2149,
      "搦": 2150,
      "搧": 2151,
      "搬": 2152,
      "搭": 2153,
      "搶": 2154,
      "搽": 2155,
      "摅": 2156,
      "摒": 2157,
      "摘": 2158,
      "摟": 2159,
      "摧": 2160,
      "摩": 2161,
      "摭": 2162,
      "摯": 2163,
      "摳": 2164,
      "摶": 2165,
      "摸": 2166,
      "摹": 2167,
      "摺": 2168,
      "撇": 2169,
      "撈": 2170,
      "撐": 2171,
      "撒": 2172,
      "撓": 2173,
      "撞": 2174,
      "撤": 2175,
      "撥": 2176,
      "撩": 2177,
      "撫": 2178,
      "撬": 2179,
      "播": 2180,
      "撮": 2181,
      "撰": 2182,
      "撲": 2183,
      "撻": 2184,
      "撼": 2185,
      "撿": 2186,
      "擁": 2187,
      "擂": 2188,
      "擄": 2189,
      "擅": 2190,
      "擇": 2191,
      "擊": 2192,
      "操": 2193,
      "擎": 2194,
      "擒": 2195,
      "擔": 2196,
      "擘": 2197,
      "據": 2198,
      "擠": 2199,
      "擢": 2200,
      "擦": 2201,
      "擬": 2202,
      "擱": 2203,
      "擲": 2204,
      "擴": 2205,
      "擷": 2206,
      "擺": 2207,
      "擾": 2208,
      "攀": 2209,
      "攏": 2210,
      "攔": 2211,
      "攘": 2212,
      "攙": 2213,
      "攛": 2214,
      "攜": 2215,
      "攝": 2216,
      "攢": 2217,
      "攤": 2218,
      "攪": 2219,
      "攬": 2220,
      "支": 2221,
      "收": 2222,
      "攸": 2223,
      "改": 2224,
      "攻": 2225,
      "放": 2226,
      "政": 2227,
      "故": 2228,
      "效": 2229,
      "敏": 2230,
      "救": 2231,
      "敕": 2232,
      "敖": 2233,
      "敗": 2234,
      "敘": 2235,
      "教": 2236,
      "敝": 2237,
      "敞": 2238,
      "敢": 2239,
      "散": 2240,
      "敦": 2241,
      "敬": 2242,
      "敲": 2243,
      "整": 2244,
      "敵": 2245,
      "敷": 2246,
      "數": 2247,
      "斂": 2248,
      "斃": 2249,
      "文": 2250,
      "斌": 2251,
      "斐": 2252,
      "斑": 2253,
      "斗": 2254,
      "料": 2255,
      "斛": 2256,
      "斜": 2257,
      "斟": 2258,
      "斡": 2259,
      "斤": 2260,
      "斥": 2261,
      "斧": 2262,
      "斫": 2263,
      "斬": 2264,
      "斯": 2265,
      "新": 2266,
      "斷": 2267,
      "方": 2268,
      "於": 2269,
      "施": 2270,
      "旁": 2271,
      "旃": 2272,
      "旄": 2273,
      "旅": 2274,
      "旆": 2275,
      "旋": 2276,
      "旌": 2277,
      "旎": 2278,
      "族": 2279,
      "旒": 2280,
      "旖": 2281,
      "旗": 2282,
      "既": 2283,
      "日": 2284,
      "旦": 2285,
      "旨": 2286,
      "早": 2287,
      "旬": 2288,
      "旭": 2289,
      "旰": 2290,
      "旱": 2291,
      "旺": 2292,
      "昂": 2293,
      "昃": 2294,
      "昆": 2295,
      "昇": 2296,
      "昊": 2297,
      "昌": 2298,
      "明": 2299,
      "昏": 2300,
      "易": 2301,
      "昔": 2302,
      "星": 2303,
      "映": 2304,
      "春": 2305,
      "昧": 2306,
      "昨": 2307,
      "昭": 2308,
      "是": 2309,
      "昵": 2310,
      "時": 2311,
      "晃": 2312,
      "晉": 2313,
      "晌": 2314,
      "晏": 2315,
      "晒": 2316,
      "晚": 2317,
      "晝": 2318,
      "晤": 2319,
      "晦": 2320,
      "晨": 2321,
      "普": 2322,
      "景": 2323,
      "晰": 2324,
      "晴": 2325,
      "晶": 2326,
      "晷": 2327,
      "智": 2328,
      "暄": 2329,
      "暇": 2330,
      "暈": 2331,
      "暉": 2332,
      "暑": 2333,
      "暖": 2334,
      "暗": 2335,
      "暝": 2336,
      "暢": 2337,
      "暨": 2338,
      "暫": 2339,
      "暮": 2340,
      "暴": 2341,
      "曆": 2342,
      "曇": 2343,
      "曉": 2344,
      "曙": 2345,
      "曜": 2346,
      "曝": 2347,
      "曠": 2348,
      "曩": 2349,
      "曬": 2350,
      "曰": 2351,
      "曲": 2352,
      "曳": 2353,
      "更": 2354,
      "曷": 2355,
      "書": 2356,
      "曹": 2357,
      "曼": 2358,
      "曾": 2359,
      "替": 2360,
      "最": 2361,
      "會": 2362,
      "月": 2363,
      "有": 2364,
      "朋": 2365,
      "服": 2366,
      "朔": 2367,
      "朕": 2368,
      "朗": 2369,
      "望": 2370,
      "朝": 2371,
      "期": 2372,
      "朦": 2373,
      "朧": 2374,
      "木": 2375,
      "未": 2376,
      "末": 2377,
      "本": 2378,
      "札": 2379,
      "朮": 2380,
      "朱": 2381,
      "朴": 2382,
      "朵": 2383,
      "朽": 2384,
      "杆": 2385,
      "杉": 2386,
      "杌": 2387,
      "李": 2388,
      "杏": 2389,
      "材": 2390,
      "村": 2391,
      "杓": 2392,
      "杖": 2393,
      "杜": 2394,
      "束": 2395,
      "杪": 2396,
      "杭": 2397,
      "杯": 2398,
      "杰": 2399,
      "東": 2400,
      "杳": 2401,
      "杵": 2402,
      "杷": 2403,
      "杼": 2404,
      "松": 2405,
      "板": 2406,
      "枇": 2407,
      "枉": 2408,
      "枋": 2409,
      "析": 2410,
      "枕": 2411,
      "林": 2412,
      "枚": 2413,
      "果": 2414,
      "枝": 2415,
      "枯": 2416,
      "枰": 2417,
      "枳": 2418,
      "架": 2419,
      "枷": 2420,
      "柄": 2421,
      "柏": 2422,
      "某": 2423,
      "柑": 2424,
      "染": 2425,
      "柔": 2426,
      "柘": 2427,
      "查": 2428,
      "柩": 2429,
      "柬": 2430,
      "柯": 2431,
      "柰": 2432,
      "柱": 2433,
      "柳": 2434,
      "柴": 2435,
      "柵": 2436,
      "柿": 2437,
      "栓": 2438,
      "栗": 2439,
      "校": 2440,
      "株": 2441,
      "核": 2442,
      "根": 2443,
      "格": 2444,
      "栽": 2445,
      "桀": 2446,
      "桂": 2447,
      "桃": 2448,
      "桅": 2449,
      "案": 2450,
      "桌": 2451,
      "桎": 2452,
      "桐": 2453,
      "桑": 2454,
      "桓": 2455,
      "桔": 2456,
      "桶": 2457,
      "梁": 2458,
      "梅": 2459,
      "梆": 2460,
      "梏": 2461,
      "梓": 2462,
      "梗": 2463,
      "條": 2464,
      "梟": 2465,
      "梢": 2466,
      "梧": 2467,
      "梨": 2468,
      "梭": 2469,
      "梯": 2470,
      "械": 2471,
      "梳": 2472,
      "梵": 2473,
      "棄": 2474,
      "棉": 2475,
      "棋": 2476,
      "棍": 2477,
      "棒": 2478,
      "棕": 2479,
      "棗": 2480,
      "棘": 2481,
      "棚": 2482,
      "棟": 2483,
      "棠": 2484,
      "棣": 2485,
      "棧": 2486,
      "森": 2487,
      "棱": 2488,
      "棲": 2489,
      "棹": 2490,
      "棺": 2491,
      "椅": 2492,
      "植": 2493,
      "椎": 2494,
      "椒": 2495,
      "椽": 2496,
      "椿": 2497,
      "楊": 2498,
      "楓": 2499,
      "楚": 2500,
      "楫": 2501,
      "業": 2502,
      "楮": 2503,
      "極": 2504,
      "楷": 2505,
      "楹": 2506,
      "楻": 2507,
      "概": 2508,
      "榆": 2509,
      "榔": 2510,
      "榛": 2511,
      "榜": 2512,
      "榭": 2513,
      "榮": 2514,
      "榴": 2515,
      "榷": 2516,
      "榻": 2517,
      "槁": 2518,
      "構": 2519,
      "槍": 2520,
      "槎": 2521,
      "槐": 2522,
      "槔": 2523,
      "槧": 2524,
      "槨": 2525,
      "樁": 2526,
      "樂": 2527,
      "樊": 2528,
      "樑": 2529,
      "樓": 2530,
      "樗": 2531,
      "標": 2532,
      "樞": 2533,
      "模": 2534,
      "樣": 2535,
      "樨": 2536,
      "樵": 2537,
      "樸": 2538,
      "樹": 2539,
      "樽": 2540,
      "橄": 2541,
      "橋": 2542,
      "橐": 2543,
      "橘": 2544,
      "橙": 2545,
      "機": 2546,
      "橫": 2547,
      "檀": 2548,
      "檄": 2549,
      "檐": 2550,
      "檑": 2551,
      "檗": 2552,
      "檜": 2553,
      "檠": 2554,
      "檢": 2555,
      "檣": 2556,
      "檯": 2557,
      "檳": 2558,
      "檻": 2559,
      "櫃": 2560,
      "櫓": 2561,
      "櫛": 2562,
      "櫝": 2563,
      "櫟": 2564,
      "櫱": 2565,
      "櫳": 2566,
      "櫺": 2567,
      "櫻": 2568,
      "欄": 2569,
      "權": 2570,
      "欒": 2571,
      "欖": 2572,
      "欠": 2573,
      "次": 2574,
      "欣": 2575,
      "欲": 2576,
      "欹": 2577,
      "欺": 2578,
      "欽": 2579,
      "款": 2580,
      "歃": 2581,
      "歆": 2582,
      "歇": 2583,
      "歉": 2584,
      "歌": 2585,
      "歎": 2586,
      "歐": 2587,
      "歟": 2588,
      "歡": 2589,
      "止": 2590,
      "正": 2591,
      "此": 2592,
      "步": 2593,
      "武": 2594,
      "歧": 2595,
      "歪": 2596,
      "歲": 2597,
      "歷": 2598,
      "歸": 2599,
      "歹": 2600,
      "死": 2601,
      "歿": 2602,
      "殂": 2603,
      "殃": 2604,
      "殆": 2605,
      "殉": 2606,
      "殊": 2607,
      "殍": 2608,
      "殖": 2609,
      "殘": 2610,
      "殛": 2611,
      "殞": 2612,
      "殪": 2613,
      "殫": 2614,
      "殮": 2615,
      "殯": 2616,
      "殲": 2617,
      "段": 2618,
      "殷": 2619,
      "殺": 2620,
      "殼": 2621,
      "殿": 2622,
      "毀": 2623,
      "毅": 2624,
      "毆": 2625,
      "毋": 2626,
      "母": 2627,
      "每": 2628,
      "毒": 2629,
      "毓": 2630,
      "比": 2631,
      "毛": 2632,
      "毫": 2633,
      "毯": 2634,
      "氅": 2635,
      "氈": 2636,
      "氏": 2637,
      "民": 2638,
      "氛": 2639,
      "氣": 2640,
      "氤": 2641,
      "氳": 2642,
      "水": 2643,
      "氵": 2644,
      "永": 2645,
      "汀": 2646,
      "汁": 2647,
      "求": 2648,
      "汆": 2649,
      "汔": 2650,
      "汗": 2651,
      "汛": 2652,
      "汝": 2653,
      "汞": 2654,
      "江": 2655,
      "池": 2656,
      "污": 2657,
      "汪": 2658,
      "汲": 2659,
      "汴": 2660,
      "汶": 2661,
      "決": 2662,
      "汾": 2663,
      "沁": 2664,
      "沂": 2665,
      "沃": 2666,
      "沈": 2667,
      "沉": 2668,
      "沌": 2669,
      "沐": 2670,
      "沒": 2671,
      "沖": 2672,
      "沙": 2673,
      "沛": 2674,
      "沫": 2675,
      "沮": 2676,
      "沱": 2677,
      "河": 2678,
      "沸": 2679,
      "油": 2680,
      "治": 2681,
      "沼": 2682,
      "沽": 2683,
      "沾": 2684,
      "沿": 2685,
      "況": 2686,
      "泄": 2687,
      "泉": 2688,
      "泊": 2689,
      "泌": 2690,
      "泐": 2691,
      "泓": 2692,
      "法": 2693,
      "泛": 2694,
      "泠": 2695,
      "泡": 2696,
      "波": 2697,
      "泣": 2698,
      "泥": 2699,
      "注": 2700,
      "泮": 2701,
      "泯": 2702,
      "泰": 2703,
      "泱": 2704,
      "洋": 2705,
      "洗": 2706,
      "洙": 2707,
      "洛": 2708,
      "洞": 2709,
      "津": 2710,
      "洩": 2711,
      "洪": 2712,
      "洲": 2713,
      "洵": 2714,
      "洶": 2715,
      "活": 2716,
      "洽": 2717,
      "派": 2718,
      "流": 2719,
      "浙": 2720,
      "浠": 2721,
      "浣": 2722,
      "浦": 2723,
      "浩": 2724,
      "浪": 2725,
      "浮": 2726,
      "浴": 2727,
      "海": 2728,
      "浸": 2729,
      "浹": 2730,
      "浼": 2731,
      "涂": 2732,
      "涅": 2733,
      "涇": 2734,
      "消": 2735,
      "涉": 2736,
      "涌": 2737,
      "涎": 2738,
      "涓": 2739,
      "涕": 2740,
      "涣": 2741,
      "涯": 2742,
      "液": 2743,
      "涵": 2744,
      "涸": 2745,
      "涼": 2746,
      "淄": 2747,
      "淅": 2748,
      "淇": 2749,
      "淋": 2750,
      "淑": 2751,
      "淒": 2752,
      "淘": 2753,
      "淚": 2754,
      "淡": 2755,
      "淥": 2756,
      "淨": 2757,
      "淩": 2758,
      "淪": 2759,
      "淫": 2760,
      "淮": 2761,
      "深": 2762,
      "淳": 2763,
      "淵": 2764,
      "混": 2765,
      "淹": 2766,
      "淺": 2767,
      "添": 2768,
      "清": 2769,
      "渚": 2770,
      "減": 2771,
      "渝": 2772,
      "渠": 2773,
      "渡": 2774,
      "渣": 2775,
      "渤": 2776,
      "渥": 2777,
      "測": 2778,
      "渭": 2779,
      "港": 2780,
      "渴": 2781,
      "游": 2782,
      "渺": 2783,
      "渾": 2784,
      "湃": 2785,
      "湊": 2786,
      "湍": 2787,
      "湖": 2788,
      "湘": 2789,
      "湛": 2790,
      "湧": 2791,
      "湫": 2792,
      "湮": 2793,
      "湯": 2794,
      "源": 2795,
      "準": 2796,
      "溘": 2797,
      "溜": 2798,
      "溝": 2799,
      "溟": 2800,
      "溢": 2801,
      "溥": 2802,
      "溪": 2803,
      "溫": 2804,
      "溶": 2805,
      "溺": 2806,
      "滂": 2807,
      "滄": 2808,
      "滅": 2809,
      "滋": 2810,
      "滌": 2811,
      "滑": 2812,
      "滓": 2813,
      "滔": 2814,
      "滯": 2815,
      "滲": 2816,
      "滴": 2817,
      "滸": 2818,
      "滾": 2819,
      "滿": 2820,
      "漁": 2821,
      "漂": 2822,
      "漆": 2823,
      "漉": 2824,
      "漏": 2825,
      "漓": 2826,
      "演": 2827,
      "漚": 2828,
      "漠": 2829,
      "漢": 2830,
      "漣": 2831,
      "漪": 2832,
      "漫": 2833,
      "漬": 2834,
      "漯": 2835,
      "漱": 2836,
      "漲": 2837,
      "漳": 2838,
      "漸": 2839,
      "漾": 2840,
      "漿": 2841,
      "潑": 2842,
      "潔": 2843,
      "潘": 2844,
      "潛": 2845,
      "潞": 2846,
      "潢": 2847,
      "潤": 2848,
      "潭": 2849,
      "潮": 2850,
      "潯": 2851,
      "潰": 2852,
      "潸": 2853,
      "潺": 2854,
      "澀": 2855,
      "澄": 2856,
      "澆": 2857,
      "澈": 2858,
      "澗": 2859,
      "澠": 2860,
      "澡": 2861,
      "澤": 2862,
      "澶": 2863,
      "澹": 2864,
      "激": 2865,
      "濁": 2866,
      "濃": 2867,
      "濕": 2868,
      "濛": 2869,
      "濟": 2870,
      "濡": 2871,
      "濤": 2872,
      "濫": 2873,
      "濯": 2874,
      "濱": 2875,
      "濺": 2876,
      "瀆": 2877,
      "瀉": 2878,
      "瀑": 2879,
      "瀚": 2880,
      "瀛": 2881,
      "瀝": 2882,
      "瀟": 2883,
      "瀦": 2884,
      "瀰": 2885,
      "瀲": 2886,
      "瀾": 2887,
      "灌": 2888,
      "灑": 2889,
      "灘": 2890,
      "灞": 2891,
      "灣": 2892,
      "灩": 2893,
      "火": 2894,
      "灰": 2895,
      "灶": 2896,
      "灼": 2897,
      "災": 2898,
      "炊": 2899,
      "炎": 2900,
      "炒": 2901,
      "炙": 2902,
      "炫": 2903,
      "炬": 2904,
      "炭": 2905,
      "炮": 2906,
      "炳": 2907,
      "炷": 2908,
      "為": 2909,
      "烈": 2910,
      "烊": 2911,
      "烏": 2912,
      "烘": 2913,
      "烹": 2914,
      "烽": 2915,
      "焉": 2916,
      "焙": 2917,
      "焚": 2918,
      "無": 2919,
      "焦": 2920,
      "焰": 2921,
      "焱": 2922,
      "然": 2923,
      "煉": 2924,
      "煌": 2925,
      "煎": 2926,
      "煙": 2927,
      "煞": 2928,
      "煢": 2929,
      "煤": 2930,
      "煥": 2931,
      "照": 2932,
      "煩": 2933,
      "煮": 2934,
      "煽": 2935,
      "熊": 2936,
      "熏": 2937,
      "熒": 2938,
      "熔": 2939,
      "熙": 2940,
      "熟": 2941,
      "熠": 2942,
      "熬": 2943,
      "熱": 2944,
      "熳": 2945,
      "熾": 2946,
      "燁": 2947,
      "燃": 2948,
      "燄": 2949,
      "燈": 2950,
      "燎": 2951,
      "燒": 2952,
      "燕": 2953,
      "燙": 2954,
      "營": 2955,
      "燥": 2956,
      "燦": 2957,
      "燭": 2958,
      "燴": 2959,
      "燼": 2960,
      "爆": 2961,
      "爍": 2962,
      "爐": 2963,
      "爛": 2964,
      "爨": 2965,
      "爪": 2966,
      "爬": 2967,
      "爭": 2968,
      "爰": 2969,
      "爵": 2970,
      "父": 2971,
      "爹": 2972,
      "爺": 2973,
      "爽": 2974,
      "爾": 2975,
      "牀": 2976,
      "牆": 2977,
      "片": 2978,
      "牌": 2979,
      "牒": 2980,
      "牖": 2981,
      "牘": 2982,
      "牙": 2983,
      "牛": 2984,
      "牝": 2985,
      "牡": 2986,
      "牢": 2987,
      "牧": 2988,
      "物": 2989,
      "牯": 2990,
      "牲": 2991,
      "特": 2992,
      "牽": 2993,
      "牾": 2994,
      "犀": 2995,
      "犁": 2996,
      "犄": 2997,
      "犒": 2998,
      "犬": 2999,
      "犭": 3000,
      "犯": 3001,
      "狀": 3002,
      "狂": 3003,
      "狄": 3004,
      "狎": 3005,
      "狐": 3006,
      "狗": 3007,
      "狙": 3008,
      "狠": 3009,
      "狡": 3010,
      "狩": 3011,
      "狴": 3012,
      "狸": 3013,
      "狼": 3014,
      "猊": 3015,
      "猖": 3016,
      "猗": 3017,
      "猛": 3018,
      "猜": 3019,
      "猥": 3020,
      "猩": 3021,
      "猴": 3022,
      "猶": 3023,
      "猾": 3024,
      "猿": 3025,
      "獄": 3026,
      "獅": 3027,
      "獍": 3028,
      "獎": 3029,
      "獐": 3030,
      "獒": 3031,
      "獨": 3032,
      "獲": 3033,
      "獵": 3034,
      "獸": 3035,
      "獻": 3036,
      "玄": 3037,
      "率": 3038,
      "玉": 3039,
      "王": 3040,
      "玎": 3041,
      "玕": 3042,
      "玖": 3043,
      "玩": 3044,
      "玫": 3045,
      "玲": 3046,
      "玳": 3047,
      "玷": 3048,
      "玻": 3049,
      "珀": 3050,
      "珂": 3051,
      "珊": 3052,
      "珍": 3053,
      "珏": 3054,
      "珙": 3055,
      "珠": 3056,
      "珥": 3057,
      "班": 3058,
      "現": 3059,
      "球": 3060,
      "琅": 3061,
      "理": 3062,
      "琉": 3063,
      "琛": 3064,
      "琢": 3065,
      "琥": 3066,
      "琪": 3067,
      "琰": 3068,
      "琳": 3069,
      "琴": 3070,
      "琵": 3071,
      "琶": 3072,
      "瑁": 3073,
      "瑕": 3074,
      "瑙": 3075,
      "瑚": 3076,
      "瑛": 3077,
      "瑜": 3078,
      "瑞": 3079,
      "瑟": 3080,
      "瑣": 3081,
      "瑤": 3082,
      "瑩": 3083,
      "瑪": 3084,
      "瑯": 3085,
      "瑰": 3086,
      "璀": 3087,
      "璃": 3088,
      "璇": 3089,
      "璉": 3090,
      "璋": 3091,
      "璘": 3092,
      "璞": 3093,
      "璣": 3094,
      "璧": 3095,
      "璨": 3096,
      "環": 3097,
      "瓊": 3098,
      "瓏": 3099,
      "瓜": 3100,
      "瓠": 3101,
      "瓢": 3102,
      "瓣": 3103,
      "瓦": 3104,
      "瓮": 3105,
      "瓶": 3106,
      "甌": 3107,
      "甍": 3108,
      "甑": 3109,
      "甕": 3110,
      "甘": 3111,
      "甚": 3112,
      "甜": 3113,
      "生": 3114,
      "產": 3115,
      "甥": 3116,
      "甦": 3117,
      "用": 3118,
      "甫": 3119,
      "田": 3120,
      "由": 3121,
      "甲": 3122,
      "申": 3123,
      "男": 3124,
      "畋": 3125,
      "界": 3126,
      "畏": 3127,
      "畔": 3128,
      "留": 3129,
      "畜": 3130,
      "畝": 3131,
      "畢": 3132,
      "略": 3133,
      "畦": 3134,
      "番": 3135,
      "畫": 3136,
      "異": 3137,
      "當": 3138,
      "畹": 3139,
      "畿": 3140,
      "疆": 3141,
      "疇": 3142,
      "疊": 3143,
      "疏": 3144,
      "疑": 3145,
      "疫": 3146,
      "疲": 3147,
      "疵": 3148,
      "疼": 3149,
      "疾": 3150,
      "病": 3151,
      "症": 3152,
      "痊": 3153,
      "痍": 3154,
      "痕": 3155,
      "痘": 3156,
      "痛": 3157,
      "痼": 3158,
      "瘋": 3159,
      "瘞": 3160,
      "瘟": 3161,
      "瘠": 3162,
      "瘡": 3163,
      "瘥": 3164,
      "瘦": 3165,
      "瘧": 3166,
      "瘴": 3167,
      "療": 3168,
      "癆": 3169,
      "癒": 3170,
      "癖": 3171,
      "癡": 3172,
      "癢": 3173,
      "癩": 3174,
      "癸": 3175,
      "登": 3176,
      "發": 3177,
      "白": 3178,
      "百": 3179,
      "皂": 3180,
      "的": 3181,
      "皆": 3182,
      "皇": 3183,
      "皎": 3184,
      "皓": 3185,
      "皮": 3186,
      "皺": 3187,
      "皿": 3188,
      "盂": 3189,
      "盆": 3190,
      "盈": 3191,
      "益": 3192,
      "盍": 3193,
      "盎": 3194,
      "盒": 3195,
      "盔": 3196,
      "盛": 3197,
      "盜": 3198,
      "盞": 3199,
      "盟": 3200,
      "盡": 3201,
      "監": 3202,
      "盤": 3203,
      "盥": 3204,
      "盧": 3205,
      "目": 3206,
      "盱": 3207,
      "盲": 3208,
      "直": 3209,
      "相": 3210,
      "盼": 3211,
      "盾": 3212,
      "省": 3213,
      "眇": 3214,
      "眉": 3215,
      "看": 3216,
      "真": 3217,
      "眠": 3218,
      "眥": 3219,
      "眩": 3220,
      "眶": 3221,
      "眷": 3222,
      "眸": 3223,
      "眺": 3224,
      "眼": 3225,
      "眾": 3226,
      "睃": 3227,
      "睆": 3228,
      "睍": 3229,
      "睏": 3230,
      "睚": 3231,
      "睛": 3232,
      "睜": 3233,
      "睡": 3234,
      "睢": 3235,
      "督": 3236,
      "睥": 3237,
      "睦": 3238,
      "睨": 3239,
      "睫": 3240,
      "睬": 3241,
      "睹": 3242,
      "睽": 3243,
      "睿": 3244,
      "瞀": 3245,
      "瞅": 3246,
      "瞇": 3247,
      "瞋": 3248,
      "瞌": 3249,
      "瞎": 3250,
      "瞑": 3251,
      "瞞": 3252,
      "瞟": 3253,
      "瞠": 3254,
      "瞥": 3255,
      "瞧": 3256,
      "瞬": 3257,
      "瞰": 3258,
      "瞳": 3259,
      "瞻": 3260,
      "瞿": 3261,
      "矇": 3262,
      "矍": 3263,
      "矗": 3264,
      "矚": 3265,
      "矛": 3266,
      "矜": 3267,
      "矢": 3268,
      "矣": 3269,
      "知": 3270,
      "矧": 3271,
      "矩": 3272,
      "短": 3273,
      "矮": 3274,
      "矯": 3275,
      "石": 3276,
      "砂": 3277,
      "砌": 3278,
      "砍": 3279,
      "研": 3280,
      "砧": 3281,
      "破": 3282,
      "硃": 3283,
      "硎": 3284,
      "硬": 3285,
      "硯": 3286,
      "碌": 3287,
      "碎": 3288,
      "碑": 3289,
      "碗": 3290,
      "碧": 3291,
      "碩": 3292,
      "碰": 3293,
      "確": 3294,
      "碼": 3295,
      "磋": 3296,
      "磐": 3297,
      "磔": 3298,
      "磕": 3299,
      "磚": 3300,
      "磧": 3301,
      "磨": 3302,
      "磬": 3303,
      "礙": 3304,
      "礪": 3305,
      "礫": 3306,
      "示": 3307,
      "礻": 3308,
      "社": 3309,
      "祀": 3310,
      "祁": 3311,
      "祇": 3312,
      "祈": 3313,
      "祖": 3314,
      "祗": 3315,
      "祛": 3316,
      "祝": 3317,
      "神": 3318,
      "祟": 3319,
      "祠": 3320,
      "祥": 3321,
      "祧": 3322,
      "票": 3323,
      "祭": 3324,
      "祿": 3325,
      "禁": 3326,
      "禍": 3327,
      "福": 3328,
      "禪": 3329,
      "禮": 3330,
      "禱": 3331,
      "禳": 3332,
      "禹": 3333,
      "禽": 3334,
      "禾": 3335,
      "禿": 3336,
      "秀": 3337,
      "私": 3338,
      "秉": 3339,
      "秋": 3340,
      "科": 3341,
      "秘": 3342,
      "租": 3343,
      "秣": 3344,
      "秤": 3345,
      "秦": 3346,
      "秧": 3347,
      "秩": 3348,
      "移": 3349,
      "稀": 3350,
      "稅": 3351,
      "程": 3352,
      "稍": 3353,
      "稔": 3354,
      "稗": 3355,
      "稚": 3356,
      "稟": 3357,
      "稠": 3358,
      "種": 3359,
      "稱": 3360,
      "稷": 3361,
      "稹": 3362,
      "稻": 3363,
      "稼": 3364,
      "稽": 3365,
      "稿": 3366,
      "穀": 3367,
      "穄": 3368,
      "積": 3369,
      "穎": 3370,
      "穠": 3371,
      "穢": 3372,
      "穩": 3373,
      "穴": 3374,
      "究": 3375,
      "穸": 3376,
      "穹": 3377,
      "空": 3378,
      "穿": 3379,
      "窀": 3380,
      "突": 3381,
      "窄": 3382,
      "窈": 3383,
      "窒": 3384,
      "窕": 3385,
      "窗": 3386,
      "窘": 3387,
      "窟": 3388,
      "窠": 3389,
      "窩": 3390,
      "窬": 3391,
      "窮": 3392,
      "窯": 3393,
      "窺": 3394,
      "竄": 3395,
      "竅": 3396,
      "竇": 3397,
      "竊": 3398,
      "立": 3399,
      "站": 3400,
      "竟": 3401,
      "章": 3402,
      "童": 3403,
      "竦": 3404,
      "竭": 3405,
      "端": 3406,
      "競": 3407,
      "竹": 3408,
      "竺": 3409,
      "竿": 3410,
      "笄": 3411,
      "笑": 3412,
      "笙": 3413,
      "笛": 3414,
      "笞": 3415,
      "笠": 3416,
      "笥": 3417,
      "符": 3418,
      "第": 3419,
      "笳": 3420,
      "筆": 3421,
      "等": 3422,
      "筋": 3423,
      "筌": 3424,
      "筍": 3425,
      "筐": 3426,
      "筑": 3427,
      "筒": 3428,
      "答": 3429,
      "策": 3430,
      "筠": 3431,
      "筮": 3432,
      "筲": 3433,
      "筵": 3434,
      "箋": 3435,
      "箏": 3436,
      "箔": 3437,
      "箕": 3438,
      "算": 3439,
      "箜": 3440,
      "管": 3441,
      "箭": 3442,
      "箱": 3443,
      "箴": 3444,
      "箸": 3445,
      "節": 3446,
      "範": 3447,
      "篆": 3448,
      "篇": 3449,
      "築": 3450,
      "篋": 3451,
      "篌": 3452,
      "篙": 3453,
      "篤": 3454,
      "篦": 3455,
      "篩": 3456,
      "篪": 3457,
      "篳": 3458,
      "篷": 3459,
      "篾": 3460,
      "簇": 3461,
      "簟": 3462,
      "簡": 3463,
      "簣": 3464,
      "簧": 3465,
      "簪": 3466,
      "簫": 3467,
      "簷": 3468,
      "簽": 3469,
      "簾": 3470,
      "簿": 3471,
      "籃": 3472,
      "籌": 3473,
      "籍": 3474,
      "籟": 3475,
      "籠": 3476,
      "籤": 3477,
      "籬": 3478,
      "米": 3479,
      "粉": 3480,
      "粒": 3481,
      "粕": 3482,
      "粗": 3483,
      "粘": 3484,
      "粟": 3485,
      "粱": 3486,
      "粲": 3487,
      "粵": 3488,
      "粽": 3489,
      "精": 3490,
      "糊": 3491,
      "糕": 3492,
      "糖": 3493,
      "糜": 3494,
      "糞": 3495,
      "糟": 3496,
      "糠": 3497,
      "糧": 3498,
      "糴": 3499,
      "糾": 3500,
      "紀": 3501,
      "紂": 3502,
      "約": 3503,
      "紅": 3504,
      "紆": 3505,
      "紇": 3506,
      "紈": 3507,
      "紋": 3508,
      "納": 3509,
      "紐": 3510,
      "純": 3511,
      "紗": 3512,
      "紙": 3513,
      "級": 3514,
      "紛": 3515,
      "紜": 3516,
      "紟": 3517,
      "素": 3518,
      "紡": 3519,
      "索": 3520,
      "紫": 3521,
      "紮": 3522,
      "累": 3523,
      "細": 3524,
      "紲": 3525,
      "紳": 3526,
      "紹": 3527,
      "紿": 3528,
      "終": 3529,
      "組": 3530,
      "絆": 3531,
      "結": 3532,
      "絕": 3533,
      "絞": 3534,
      "絡": 3535,
      "絢": 3536,
      "給": 3537,
      "絨": 3538,
      "絮": 3539,
      "統": 3540,
      "絲": 3541,
      "絳": 3542,
      "絹": 3543,
      "綃": 3544,
      "經": 3545,
      "綜": 3546,
      "綠": 3547,
      "綢": 3548,
      "綣": 3549,
      "維": 3550,
      "綰": 3551,
      "綱": 3552,
      "網": 3553,
      "綴": 3554,
      "綵": 3555,
      "綸": 3556,
      "綺": 3557,
      "綻": 3558,
      "綽": 3559,
      "綾": 3560,
      "綿": 3561,
      "緇": 3562,
      "緊": 3563,
      "緋": 3564,
      "緒": 3565,
      "緘": 3566,
      "線": 3567,
      "緝": 3568,
      "緞": 3569,
      "締": 3570,
      "緣": 3571,
      "編": 3572,
      "緩": 3573,
      "緬": 3574,
      "緯": 3575,
      "緲": 3576,
      "練": 3577,
      "緺": 3578,
      "緻": 3579,
      "縈": 3580,
      "縉": 3581,
      "縊": 3582,
      "縐": 3583,
      "縑": 3584,
      "縛": 3585,
      "縞": 3586,
      "縣": 3587,
      "縧": 3588,
      "縫": 3589,
      "縮": 3590,
      "縱": 3591,
      "縲": 3592,
      "縵": 3593,
      "縷": 3594,
      "縹": 3595,
      "縻": 3596,
      "總": 3597,
      "績": 3598,
      "繁": 3599,
      "繆": 3600,
      "織": 3601,
      "繕": 3602,
      "繚": 3603,
      "繞": 3604,
      "繡": 3605,
      "繩": 3606,
      "繪": 3607,
      "繫": 3608,
      "繭": 3609,
      "繳": 3610,
      "繹": 3611,
      "繼": 3612,
      "繽": 3613,
      "繾": 3614,
      "纊": 3615,
      "續": 3616,
      "纍": 3617,
      "纏": 3618,
      "纓": 3619,
      "纔": 3620,
      "纖": 3621,
      "纜": 3622,
      "纟": 3623,
      "缸": 3624,
      "缺": 3625,
      "缽": 3626,
      "罄": 3627,
      "罅": 3628,
      "罌": 3629,
      "罐": 3630,
      "罔": 3631,
      "罕": 3632,
      "罘": 3633,
      "罟": 3634,
      "罩": 3635,
      "罪": 3636,
      "置": 3637,
      "罰": 3638,
      "署": 3639,
      "罵": 3640,
      "罷": 3641,
      "罹": 3642,
      "羅": 3643,
      "羈": 3644,
      "羊": 3645,
      "羋": 3646,
      "羌": 3647,
      "美": 3648,
      "羞": 3649,
      "群": 3650,
      "羨": 3651,
      "義": 3652,
      "羯": 3653,
      "羲": 3654,
      "羶": 3655,
      "羸": 3656,
      "羹": 3657,
      "羽": 3658,
      "翁": 3659,
      "翅": 3660,
      "翌": 3661,
      "翎": 3662,
      "習": 3663,
      "翔": 3664,
      "翕": 3665,
      "翠": 3666,
      "翡": 3667,
      "翦": 3668,
      "翩": 3669,
      "翮": 3670,
      "翰": 3671,
      "翱": 3672,
      "翳": 3673,
      "翹": 3674,
      "翻": 3675,
      "翼": 3676,
      "耀": 3677,
      "老": 3678,
      "考": 3679,
      "耄": 3680,
      "者": 3681,
      "耆": 3682,
      "而": 3683,
      "耍": 3684,
      "耐": 3685,
      "耒": 3686,
      "耕": 3687,
      "耗": 3688,
      "耙": 3689,
      "耜": 3690,
      "耦": 3691,
      "耳": 3692,
      "耶": 3693,
      "耽": 3694,
      "耿": 3695,
      "聆": 3696,
      "聊": 3697,
      "聒": 3698,
      "聖": 3699,
      "聘": 3700,
      "聚": 3701,
      "聞": 3702,
      "聯": 3703,
      "聰": 3704,
      "聲": 3705,
      "聳": 3706,
      "職": 3707,
      "聽": 3708,
      "聾": 3709,
      "聿": 3710,
      "肄": 3711,
      "肅": 3712,
      "肆": 3713,
      "肇": 3714,
      "肉": 3715,
      "肋": 3716,
      "肌": 3717,
      "肓": 3718,
      "肖": 3719,
      "肘": 3720,
      "肚": 3721,
      "肝": 3722,
      "股": 3723,
      "肢": 3724,
      "肥": 3725,
      "肩": 3726,
      "肯": 3727,
      "肱": 3728,
      "育": 3729,
      "肴": 3730,
      "肺": 3731,
      "胃": 3732,
      "背": 3733,
      "胎": 3734,
      "胖": 3735,
      "胞": 3736,
      "胡": 3737,
      "胥": 3738,
      "胭": 3739,
      "胯": 3740,
      "胸": 3741,
      "胼": 3742,
      "能": 3743,
      "脂": 3744,
      "脅": 3745,
      "脆": 3746,
      "脈": 3747,
      "脊": 3748,
      "脖": 3749,
      "脛": 3750,
      "脣": 3751,
      "脫": 3752,
      "脯": 3753,
      "腆": 3754,
      "腐": 3755,
      "腑": 3756,
      "腔": 3757,
      "腕": 3758,
      "腥": 3759,
      "腦": 3760,
      "腫": 3761,
      "腮": 3762,
      "腰": 3763,
      "腳": 3764,
      "腴": 3765,
      "腸": 3766,
      "腹": 3767,
      "腼": 3768,
      "腿": 3769,
      "膏": 3770,
      "膚": 3771,
      "膝": 3772,
      "膠": 3773,
      "膩": 3774,
      "膳": 3775,
      "膺": 3776,
      "膻": 3777,
      "膽": 3778,
      "膾": 3779,
      "膿": 3780,
      "臂": 3781,
      "臆": 3782,
      "臉": 3783,
      "臍": 3784,
      "臘": 3785,
      "臚": 3786,
      "臞": 3787,
      "臟": 3788,
      "臣": 3789,
      "臥": 3790,
      "臧": 3791,
      "臨": 3792,
      "自": 3793,
      "臬": 3794,
      "臭": 3795,
      "臯": 3796,
      "至": 3797,
      "致": 3798,
      "臺": 3799,
      "臻": 3800,
      "臼": 3801,
      "臾": 3802,
      "舁": 3803,
      "舂": 3804,
      "舅": 3805,
      "與": 3806,
      "興": 3807,
      "舉": 3808,
      "舊": 3809,
      "舌": 3810,
      "舍": 3811,
      "舐": 3812,
      "舒": 3813,
      "舔": 3814,
      "舖": 3815,
      "舛": 3816,
      "舜": 3817,
      "舞": 3818,
      "舟": 3819,
      "航": 3820,
      "舫": 3821,
      "般": 3822,
      "船": 3823,
      "艇": 3824,
      "艙": 3825,
      "艤": 3826,
      "艮": 3827,
      "良": 3828,
      "艱": 3829,
      "色": 3830,
      "艴": 3831,
      "艷": 3832,
      "艾": 3833,
      "芊": 3834,
      "芋": 3835,
      "芍": 3836,
      "芎": 3837,
      "芒": 3838,
      "芙": 3839,
      "芝": 3840,
      "芟": 3841,
      "芥": 3842,
      "芨": 3843,
      "芬": 3844,
      "芭": 3845,
      "芰": 3846,
      "花": 3847,
      "芳": 3848,
      "芷": 3849,
      "芸": 3850,
      "芹": 3851,
      "芻": 3852,
      "芽": 3853,
      "苑": 3854,
      "苒": 3855,
      "苔": 3856,
      "苗": 3857,
      "苛": 3858,
      "苞": 3859,
      "苟": 3860,
      "若": 3861,
      "苦": 3862,
      "苧": 3863,
      "英": 3864,
      "茁": 3865,
      "茂": 3866,
      "范": 3867,
      "茅": 3868,
      "茉": 3869,
      "茗": 3870,
      "茨": 3871,
      "茫": 3872,
      "茲": 3873,
      "茵": 3874,
      "茶": 3875,
      "茸": 3876,
      "茹": 3877,
      "荀": 3878,
      "草": 3879,
      "荊": 3880,
      "荐": 3881,
      "荒": 3882,
      "荔": 3883,
      "荳": 3884,
      "荷": 3885,
      "荻": 3886,
      "荼": 3887,
      "莉": 3888,
      "莊": 3889,
      "莎": 3890,
      "莖": 3891,
      "莢": 3892,
      "莪": 3893,
      "莫": 3894,
      "莽": 3895,
      "菁": 3896,
      "菊": 3897,
      "菜": 3898,
      "菡": 3899,
      "菩": 3900,
      "華": 3901,
      "菰": 3902,
      "菱": 3903,
      "菲": 3904,
      "菴": 3905,
      "萃": 3906,
      "萄": 3907,
      "萆": 3908,
      "萇": 3909,
      "萊": 3910,
      "萋": 3911,
      "萌": 3912,
      "萍": 3913,
      "萎": 3914,
      "萏": 3915,
      "萬": 3916,
      "萱": 3917,
      "萸": 3918,
      "萼": 3919,
      "落": 3920,
      "葆": 3921,
      "葉": 3922,
      "著": 3923,
      "葛": 3924,
      "葡": 3925,
      "董": 3926,
      "葦": 3927,
      "葩": 3928,
      "葫": 3929,
      "葬": 3930,
      "葭": 3931,
      "葳": 3932,
      "葵": 3933,
      "葷": 3934,
      "蒂": 3935,
      "蒙": 3936,
      "蒲": 3937,
      "蒸": 3938,
      "蒹": 3939,
      "蒼": 3940,
      "蒿": 3941,
      "蓁": 3942,
      "蓄": 3943,
      "蓉": 3944,
      "蓋": 3945,
      "蓑": 3946,
      "蓬": 3947,
      "蓮": 3948,
      "蓼": 3949,
      "蔑": 3950,
      "蔓": 3951,
      "蔗": 3952,
      "蔚": 3953,
      "蔡": 3954,
      "蔣": 3955,
      "蔥": 3956,
      "蔬": 3957,
      "蔭": 3958,
      "蔻": 3959,
      "蔽": 3960,
      "蕃": 3961,
      "蕉": 3962,
      "蕊": 3963,
      "蕕": 3964,
      "蕖": 3965,
      "蕙": 3966,
      "蕞": 3967,
      "蕤": 3968,
      "蕨": 3969,
      "蕩": 3970,
      "蕪": 3971,
      "蕭": 3972,
      "薄": 3973,
      "薇": 3974,
      "薑": 3975,
      "薔": 3976,
      "薛": 3977,
      "薜": 3978,
      "薦": 3979,
      "薨": 3980,
      "薩": 3981,
      "薪": 3982,
      "薰": 3983,
      "薺": 3984,
      "藉": 3985,
      "藍": 3986,
      "藏": 3987,
      "藐": 3988,
      "藕": 3989,
      "藜": 3990,
      "藝": 3991,
      "藤": 3992,
      "藥": 3993,
      "藩": 3994,
      "藪": 3995,
      "藹": 3996,
      "藻": 3997,
      "蘆": 3998,
      "蘇": 3999,
      "蘊": 4000,
      "蘋": 4001,
      "蘩": 4002,
      "蘭": 4003,
      "蘸": 4004,
      "蘼": 4005,
      "蘿": 4006,
      "虎": 4007,
      "虐": 4008,
      "虔": 4009,
      "處": 4010,
      "虛": 4011,
      "虜": 4012,
      "虞": 4013,
      "號": 4014,
      "虢": 4015,
      "虧": 4016,
      "虯": 4017,
      "虱": 4018,
      "虹": 4019,
      "蚊": 4020,
      "蚌": 4021,
      "蚓": 4022,
      "蚤": 4023,
      "蚨": 4024,
      "蚯": 4025,
      "蛆": 4026,
      "蛇": 4027,
      "蛉": 4028,
      "蛋": 4029,
      "蛙": 4030,
      "蛛": 4031,
      "蛟": 4032,
      "蛤": 4033,
      "蛩": 4034,
      "蛺": 4035,
      "蛻": 4036,
      "蛾": 4037,
      "蜀": 4038,
      "蜂": 4039,
      "蜇": 4040,
      "蜉": 4041,
      "蜍": 4042,
      "蜒": 4043,
      "蜓": 4044,
      "蜘": 4045,
      "蜚": 4046,
      "蜜": 4047,
      "蜺": 4048,
      "蜻": 4049,
      "蝕": 4050,
      "蝗": 4051,
      "蝟": 4052,
      "蝣": 4053,
      "蝦": 4054,
      "蝨": 4055,
      "蝮": 4056,
      "蝴": 4057,
      "蝶": 4058,
      "蝸": 4059,
      "螄": 4060,
      "融": 4061,
      "螞": 4062,
      "螢": 4063,
      "螺": 4064,
      "螻": 4065,
      "蟀": 4066,
      "蟄": 4067,
      "蟆": 4068,
      "蟋": 4069,
      "蟠": 4070,
      "蟬": 4071,
      "蟲": 4072,
      "蟹": 4073,
      "蟻": 4074,
      "蟾": 4075,
      "蠅": 4076,
      "蠍": 4077,
      "蠖": 4078,
      "蠟": 4079,
      "蠡": 4080,
      "蠢": 4081,
      "蠱": 4082,
      "蠶": 4083,
      "蠹": 4084,
      "蠻": 4085,
      "血": 4086,
      "行": 4087,
      "衍": 4088,
      "術": 4089,
      "街": 4090,
      "衙": 4091,
      "衛": 4092,
      "衝": 4093,
      "衡": 4094,
      "衢": 4095,
      "衣": 4096,
      "表": 4097,
      "衫": 4098,
      "衰": 4099,
      "衲": 4100,
      "衷": 4101,
      "衽": 4102,
      "衾": 4103,
      "衿": 4104,
      "袁": 4105,
      "袂": 4106,
      "袈": 4107,
      "袋": 4108,
      "袍": 4109,
      "袒": 4110,
      "袖": 4111,
      "袞": 4112,
      "被": 4113,
      "袱": 4114,
      "裁": 4115,
      "裂": 4116,
      "裉": 4117,
      "裊": 4118,
      "裎": 4119,
      "裏": 4120,
      "裔": 4121,
      "裕": 4122,
      "裘": 4123,
      "裙": 4124,
      "補": 4125,
      "裝": 4126,
      "裟": 4127,
      "裡": 4128,
      "裰": 4129,
      "裱": 4130,
      "裳": 4131,
      "裴": 4132,
      "裸": 4133,
      "裹": 4134,
      "裼": 4135,
      "製": 4136,
      "裾": 4137,
      "複": 4138,
      "褐": 4139,
      "褒": 4140,
      "褓": 4141,
      "褙": 4142,
      "褚": 4143,
      "褥": 4144,
      "褪": 4145,
      "褰": 4146,
      "褲": 4147,
      "褻": 4148,
      "襁": 4149,
      "襄": 4150,
      "襏": 4151,
      "襖": 4152,
      "襟": 4153,
      "襠": 4154,
      "襪": 4155,
      "襫": 4156,
      "襯": 4157,
      "襲": 4158,
      "西": 4159,
      "要": 4160,
      "覃": 4161,
      "覆": 4162,
      "見": 4163,
      "規": 4164,
      "覓": 4165,
      "視": 4166,
      "覘": 4167,
      "親": 4168,
      "覬": 4169,
      "覲": 4170,
      "覷": 4171,
      "覺": 4172,
      "覽": 4173,
      "覿": 4174,
      "觀": 4175,
      "角": 4176,
      "觚": 4177,
      "解": 4178,
      "觥": 4179,
      "觫": 4180,
      "觳": 4181,
      "觴": 4182,
      "觸": 4183,
      "言": 4184,
      "訂": 4185,
      "訃": 4186,
      "計": 4187,
      "訊": 4188,
      "討": 4189,
      "訓": 4190,
      "訕": 4191,
      "訖": 4192,
      "記": 4193,
      "訛": 4194,
      "訝": 4195,
      "訟": 4196,
      "訣": 4197,
      "訪": 4198,
      "設": 4199,
      "許": 4200,
      "訴": 4201,
      "訶": 4202,
      "訾": 4203,
      "詆": 4204,
      "詈": 4205,
      "詎": 4206,
      "詐": 4207,
      "詔": 4208,
      "評": 4209,
      "詛": 4210,
      "詞": 4211,
      "詠": 4212,
      "詢": 4213,
      "詣": 4214,
      "試": 4215,
      "詩": 4216,
      "詫": 4217,
      "詭": 4218,
      "詰": 4219,
      "話": 4220,
      "該": 4221,
      "詳": 4222,
      "詼": 4223,
      "誅": 4224,
      "誇": 4225,
      "誌": 4226,
      "認": 4227,
      "誑": 4228,
      "誓": 4229,
      "誕": 4230,
      "誘": 4231,
      "誚": 4232,
      "語": 4233,
      "誠": 4234,
      "誡": 4235,
      "誣": 4236,
      "誤": 4237,
      "誥": 4238,
      "誦": 4239,
      "誨": 4240,
      "說": 4241,
      "誰": 4242,
      "課": 4243,
      "誼": 4244,
      "調": 4245,
      "諂": 4246,
      "諄": 4247,
      "談": 4248,
      "諉": 4249,
      "請": 4250,
      "諍": 4251,
      "諒": 4252,
      "論": 4253,
      "諗": 4254,
      "諛": 4255,
      "諢": 4256,
      "諦": 4257,
      "諧": 4258,
      "諫": 4259,
      "諭": 4260,
      "諱": 4261,
      "諳": 4262,
      "諷": 4263,
      "諸": 4264,
      "諺": 4265,
      "諼": 4266,
      "諾": 4267,
      "謀": 4268,
      "謁": 4269,
      "謂": 4270,
      "謊": 4271,
      "謎": 4272,
      "謔": 4273,
      "謗": 4274,
      "謙": 4275,
      "講": 4276,
      "謝": 4277,
      "謨": 4278,
      "謫": 4279,
      "謬": 4280,
      "謳": 4281,
      "謹": 4282,
      "謾": 4283,
      "證": 4284,
      "譏": 4285,
      "識": 4286,
      "譙": 4287,
      "譚": 4288,
      "譜": 4289,
      "警": 4290,
      "譬": 4291,
      "議": 4292,
      "譴": 4293,
      "護": 4294,
      "譽": 4295,
      "譾": 4296,
      "讀": 4297,
      "變": 4298,
      "讒": 4299,
      "讓": 4300,
      "讖": 4301,
      "讜": 4302,
      "谷": 4303,
      "豁": 4304,
      "豆": 4305,
      "豈": 4306,
      "豎": 4307,
      "豐": 4308,
      "豔": 4309,
      "豕": 4310,
      "豚": 4311,
      "象": 4312,
      "豢": 4313,
      "豪": 4314,
      "豫": 4315,
      "豬": 4316,
      "豳": 4317,
      "豹": 4318,
      "豺": 4319,
      "貂": 4320,
      "貅": 4321,
      "貌": 4322,
      "貓": 4323,
      "貔": 4324,
      "貝": 4325,
      "貞": 4326,
      "負": 4327,
      "財": 4328,
      "貢": 4329,
      "貧": 4330,
      "貨": 4331,
      "販": 4332,
      "貪": 4333,
      "貫": 4334,
      "責": 4335,
      "貯": 4336,
      "貲": 4337,
      "貳": 4338,
      "貴": 4339,
      "貶": 4340,
      "買": 4341,
      "貸": 4342,
      "貺": 4343,
      "費": 4344,
      "貼": 4345,
      "貽": 4346,
      "貿": 4347,
      "賀": 4348,
      "賂": 4349,
      "賃": 4350,
      "賄": 4351,
      "資": 4352,
      "賈": 4353,
      "賊": 4354,
      "賑": 4355,
      "賒": 4356,
      "賓": 4357,
      "賜": 4358,
      "賞": 4359,
      "賠": 4360,
      "賡": 4361,
      "賢": 4362,
      "賣": 4363,
      "賤": 4364,
      "賦": 4365,
      "質": 4366,
      "賬": 4367,
      "賭": 4368,
      "賴": 4369,
      "賺": 4370,
      "賽": 4371,
      "贄": 4372,
      "贅": 4373,
      "贈": 4374,
      "贊": 4375,
      "贍": 4376,
      "贏": 4377,
      "贐": 4378,
      "贑": 4379,
      "贓": 4380,
      "贖": 4381,
      "赤": 4382,
      "赦": 4383,
      "赧": 4384,
      "赫": 4385,
      "赭": 4386,
      "走": 4387,
      "赳": 4388,
      "赴": 4389,
      "起": 4390,
      "趁": 4391,
      "趄": 4392,
      "超": 4393,
      "越": 4394,
      "趑": 4395,
      "趕": 4396,
      "趙": 4397,
      "趟": 4398,
      "趣": 4399,
      "趨": 4400,
      "足": 4401,
      "趴": 4402,
      "趾": 4403,
      "趿": 4404,
      "跋": 4405,
      "跌": 4406,
      "跎": 4407,
      "跑": 4408,
      "跖": 4409,
      "跛": 4410,
      "距": 4411,
      "跟": 4412,
      "跡": 4413,
      "跣": 4414,
      "跤": 4415,
      "跨": 4416,
      "跪": 4417,
      "跬": 4418,
      "路": 4419,
      "跳": 4420,
      "跽": 4421,
      "踏": 4422,
      "踐": 4423,
      "踝": 4424,
      "踞": 4425,
      "踟": 4426,
      "踢": 4427,
      "踱": 4428,
      "踴": 4429,
      "踵": 4430,
      "踽": 4431,
      "蹀": 4432,
      "蹄": 4433,
      "蹇": 4434,
      "蹈": 4435,
      "蹉": 4436,
      "蹊": 4437,
      "蹌": 4438,
      "蹙": 4439,
      "蹟": 4440,
      "蹤": 4441,
      "蹬": 4442,
      "蹭": 4443,
      "蹲": 4444,
      "蹴": 4445,
      "蹺": 4446,
      "躁": 4447,
      "躅": 4448,
      "躇": 4449,
      "躊": 4450,
      "躍": 4451,
      "躑": 4452,
      "躕": 4453,
      "躚": 4454,
      "躞": 4455,
      "躡": 4456,
      "身": 4457,
      "躬": 4458,
      "躲": 4459,
      "躺": 4460,
      "軀": 4461,
      "車": 4462,
      "軋": 4463,
      "軌": 4464,
      "軍": 4465,
      "軒": 4466,
      "軔": 4467,
      "軟": 4468,
      "軫": 4469,
      "軱": 4470,
      "軸": 4471,
      "軺": 4472,
      "軻": 4473,
      "較": 4474,
      "輅": 4475,
      "載": 4476,
      "輊": 4477,
      "輒": 4478,
      "輓": 4479,
      "輔": 4480,
      "輕": 4481,
      "輜": 4482,
      "輝": 4483,
      "輟": 4484,
      "輦": 4485,
      "輩": 4486,
      "輪": 4487,
      "輳": 4488,
      "輴": 4489,
      "輸": 4490,
      "輻": 4491,
      "輾": 4492,
      "輿": 4493,
      "轄": 4494,
      "轅": 4495,
      "轆": 4496,
      "轉": 4497,
      "轍": 4498,
      "轎": 4499,
      "轟": 4500,
      "轡": 4501,
      "轤": 4502,
      "辛": 4503,
      "辜": 4504,
      "辟": 4505,
      "辣": 4506,
      "辦": 4507,
      "辨": 4508,
      "辭": 4509,
      "辯": 4510,
      "辰": 4511,
      "辱": 4512,
      "農": 4513,
      "迂": 4514,
      "迄": 4515,
      "迅": 4516,
      "迍": 4517,
      "迎": 4518,
      "近": 4519,
      "迓": 4520,
      "返": 4521,
      "迢": 4522,
      "迤": 4523,
      "迥": 4524,
      "迦": 4525,
      "迨": 4526,
      "迪": 4527,
      "迫": 4528,
      "迭": 4529,
      "述": 4530,
      "迴": 4531,
      "迷": 4532,
      "迸": 4533,
      "追": 4534,
      "退": 4535,
      "送": 4536,
      "逃": 4537,
      "逅": 4538,
      "逆": 4539,
      "逋": 4540,
      "逍": 4541,
      "透": 4542,
      "逐": 4543,
      "逑": 4544,
      "途": 4545,
      "逕": 4546,
      "逖": 4547,
      "逗": 4548,
      "這": 4549,
      "通": 4550,
      "逝": 4551,
      "逞": 4552,
      "速": 4553,
      "造": 4554,
      "逡": 4555,
      "逢": 4556,
      "連": 4557,
      "逭": 4558,
      "逮": 4559,
      "週": 4560,
      "進": 4561,
      "逶": 4562,
      "逸": 4563,
      "逼": 4564,
      "逾": 4565,
      "遁": 4566,
      "遂": 4567,
      "遄": 4568,
      "遇": 4569,
      "遊": 4570,
      "運": 4571,
      "遍": 4572,
      "過": 4573,
      "遏": 4574,
      "遐": 4575,
      "遑": 4576,
      "遒": 4577,
      "道": 4578,
      "達": 4579,
      "違": 4580,
      "遘": 4581,
      "遙": 4582,
      "遜": 4583,
      "遞": 4584,
      "遠": 4585,
      "遣": 4586,
      "遨": 4587,
      "適": 4588,
      "遭": 4589,
      "遮": 4590,
      "遲": 4591,
      "遴": 4592,
      "遵": 4593,
      "遶": 4594,
      "遷": 4595,
      "選": 4596,
      "遺": 4597,
      "遼": 4598,
      "遽": 4599,
      "避": 4600,
      "邀": 4601,
      "邁": 4602,
      "邂": 4603,
      "還": 4604,
      "邅": 4605,
      "邇": 4606,
      "邊": 4607,
      "邐": 4608,
      "邑": 4609,
      "邕": 4610,
      "邙": 4611,
      "邢": 4612,
      "那": 4613,
      "邦": 4614,
      "邪": 4615,
      "邯": 4616,
      "邱": 4617,
      "邵": 4618,
      "邸": 4619,
      "郁": 4620,
      "郊": 4621,
      "郎": 4622,
      "郝": 4623,
      "郡": 4624,
      "郢": 4625,
      "部": 4626,
      "郭": 4627,
      "郵": 4628,
      "都": 4629,
      "鄂": 4630,
      "鄉": 4631,
      "鄒": 4632,
      "鄙": 4633,
      "鄧": 4634,
      "鄭": 4635,
      "鄰": 4636,
      "鄲": 4637,
      "鄴": 4638,
      "酉": 4639,
      "酊": 4640,
      "酋": 4641,
      "酌": 4642,
      "配": 4643,
      "酒": 4644,
      "酗": 4645,
      "酡": 4646,
      "酢": 4647,
      "酣": 4648,
      "酥": 4649,
      "酩": 4650,
      "酪": 4651,
      "酬": 4652,
      "酲": 4653,
      "酷": 4654,
      "酸": 4655,
      "酹": 4656,
      "醇": 4657,
      "醉": 4658,
      "醋": 4659,
      "醍": 4660,
      "醐": 4661,
      "醑": 4662,
      "醒": 4663,
      "醜": 4664,
      "醞": 4665,
      "醪": 4666,
      "醫": 4667,
      "醮": 4668,
      "醴": 4669,
      "醺": 4670,
      "釀": 4671,
      "釁": 4672,
      "采": 4673,
      "釋": 4674,
      "里": 4675,
      "重": 4676,
      "野": 4677,
      "量": 4678,
      "釐": 4679,
      "金": 4680,
      "釘": 4681,
      "針": 4682,
      "釣": 4683,
      "釦": 4684,
      "釧": 4685,
      "釵": 4686,
      "鈍": 4687,
      "鈔": 4688,
      "鈕": 4689,
      "鈞": 4690,
      "鈴": 4691,
      "鈸": 4692,
      "鈿": 4693,
      "鉅": 4694,
      "鉛": 4695,
      "鉞": 4696,
      "鉤": 4697,
      "鉦": 4698,
      "鉺": 4699,
      "銀": 4700,
      "銅": 4701,
      "銑": 4702,
      "銖": 4703,
      "銘": 4704,
      "銜": 4705,
      "銳": 4706,
      "銷": 4707,
      "鋒": 4708,
      "鋤": 4709,
      "鋪": 4710,
      "鋼": 4711,
      "錄": 4712,
      "錐": 4713,
      "錙": 4714,
      "錚": 4715,
      "錠": 4716,
      "錢": 4717,
      "錦": 4718,
      "錨": 4719,
      "錫": 4720,
      "錮": 4721,
      "錯": 4722,
      "鍋": 4723,
      "鍬": 4724,
      "鍵": 4725,
      "鍾": 4726,
      "鎖": 4727,
      "鎦": 4728,
      "鎧": 4729,
      "鎮": 4730,
      "鏃": 4731,
      "鏖": 4732,
      "鏗": 4733,
      "鏘": 4734,
      "鏜": 4735,
      "鏡": 4736,
      "鏤": 4737,
      "鏹": 4738,
      "鏽": 4739,
      "鐃": 4740,
      "鐘": 4741,
      "鐙": 4742,
      "鐫": 4743,
      "鐮": 4744,
      "鐲": 4745,
      "鐵": 4746,
      "鐸": 4747,
      "鑄": 4748,
      "鑊": 4749,
      "鑑": 4750,
      "鑒": 4751,
      "鑠": 4752,
      "鑰": 4753,
      "鑼": 4754,
      "鑽": 4755,
      "鑾": 4756,
      "鑿": 4757,
      "钅": 4758,
      "長": 4759,
      "門": 4760,
      "閃": 4761,
      "閉": 4762,
      "開": 4763,
      "閑": 4764,
      "閒": 4765,
      "間": 4766,
      "閔": 4767,
      "閘": 4768,
      "閣": 4769,
      "閨": 4770,
      "閩": 4771,
      "閫": 4772,
      "閬": 4773,
      "閭": 4774,
      "閱": 4775,
      "閶": 4776,
      "閹": 4777,
      "閻": 4778,
      "闇": 4779,
      "闈": 4780,
      "闊": 4781,
      "闋": 4782,
      "闌": 4783,
      "闍": 4784,
      "闐": 4785,
      "闔": 4786,
      "闕": 4787,
      "闖": 4788,
      "關": 4789,
      "闢": 4790,
      "闥": 4791,
      "阜": 4792,
      "阡": 4793,
      "阮": 4794,
      "阱": 4795,
      "防": 4796,
      "阻": 4797,
      "阿": 4798,
      "陀": 4799,
      "陂": 4800,
      "附": 4801,
      "陋": 4802,
      "陌": 4803,
      "降": 4804,
      "限": 4805,
      "陛": 4806,
      "陝": 4807,
      "陞": 4808,
      "陟": 4809,
      "陡": 4810,
      "院": 4811,
      "陣": 4812,
      "除": 4813,
      "陪": 4814,
      "陰": 4815,
      "陳": 4816,
      "陵": 4817,
      "陶": 4818,
      "陷": 4819,
      "陸": 4820,
      "陽": 4821,
      "隅": 4822,
      "隆": 4823,
      "隈": 4824,
      "隊": 4825,
      "隋": 4826,
      "隍": 4827,
      "階": 4828,
      "隔": 4829,
      "隘": 4830,
      "隙": 4831,
      "際": 4832,
      "障": 4833,
      "隨": 4834,
      "險": 4835,
      "隰": 4836,
      "隱": 4837,
      "隳": 4838,
      "隴": 4839,
      "隸": 4840,
      "隻": 4841,
      "雀": 4842,
      "雁": 4843,
      "雄": 4844,
      "雅": 4845,
      "集": 4846,
      "雉": 4847,
      "雋": 4848,
      "雌": 4849,
      "雍": 4850,
      "雎": 4851,
      "雕": 4852,
      "雖": 4853,
      "雙": 4854,
      "雛": 4855,
      "雜": 4856,
      "雞": 4857,
      "離": 4858,
      "難": 4859,
      "雨": 4860,
      "雪": 4861,
      "雲": 4862,
      "零": 4863,
      "雷": 4864,
      "電": 4865,
      "需": 4866,
      "霄": 4867,
      "震": 4868,
      "霍": 4869,
      "霎": 4870,
      "霏": 4871,
      "霓": 4872,
      "霜": 4873,
      "霞": 4874,
      "霧": 4875,
      "霰": 4876,
      "露": 4877,
      "霹": 4878,
      "霽": 4879,
      "霾": 4880,
      "靂": 4881,
      "靄": 4882,
      "靈": 4883,
      "青": 4884,
      "靖": 4885,
      "靚": 4886,
      "靜": 4887,
      "非": 4888,
      "靠": 4889,
      "靡": 4890,
      "面": 4891,
      "革": 4892,
      "靳": 4893,
      "靴": 4894,
      "鞋": 4895,
      "鞍": 4896,
      "鞏": 4897,
      "鞠": 4898,
      "鞦": 4899,
      "鞭": 4900,
      "韁": 4901,
      "韆": 4902,
      "韋": 4903,
      "韓": 4904,
      "韙": 4905,
      "韜": 4906,
      "韞": 4907,
      "音": 4908,
      "韶": 4909,
      "韻": 4910,
      "響": 4911,
      "頁": 4912,
      "頂": 4913,
      "頃": 4914,
      "項": 4915,
      "順": 4916,
      "須": 4917,
      "頊": 4918,
      "頌": 4919,
      "頏": 4920,
      "預": 4921,
      "頑": 4922,
      "頒": 4923,
      "頓": 4924,
      "頗": 4925,
      "領": 4926,
      "頡": 4927,
      "頤": 4928,
      "頭": 4929,
      "頰": 4930,
      "頷": 4931,
      "頸": 4932,
      "頹": 4933,
      "頻": 4934,
      "顆": 4935,
      "題": 4936,
      "額": 4937,
      "顏": 4938,
      "顓": 4939,
      "願": 4940,
      "顙": 4941,
      "顛": 4942,
      "類": 4943,
      "顧": 4944,
      "顫": 4945,
      "顯": 4946,
      "顰": 4947,
      "顱": 4948,
      "風": 4949,
      "颯": 4950,
      "颺": 4951,
      "飄": 4952,
      "飛": 4953,
      "食": 4954,
      "飢": 4955,
      "飭": 4956,
      "飯": 4957,
      "飲": 4958,
      "飼": 4959,
      "飽": 4960,
      "飾": 4961,
      "餅": 4962,
      "餉": 4963,
      "養": 4964,
      "餌": 4965,
      "餐": 4966,
      "餒": 4967,
      "餓": 4968,
      "餘": 4969,
      "餚": 4970,
      "餞": 4971,
      "館": 4972,
      "饅": 4973,
      "饈": 4974,
      "饋": 4975,
      "饌": 4976,
      "饑": 4977,
      "饒": 4978,
      "饕": 4979,
      "饗": 4980,
      "饞": 4981,
      "饣": 4982,
      "馀": 4983,
      "首": 4984,
      "馗": 4985,
      "香": 4986,
      "馥": 4987,
      "馨": 4988,
      "馬": 4989,
      "馭": 4990,
      "馮": 4991,
      "馱": 4992,
      "馳": 4993,
      "馴": 4994,
      "駐": 4995,
      "駑": 4996,
      "駒": 4997,
      "駕": 4998,
      "駘": 4999,
      "駝": 5000,
      "駟": 5001,
      "駢": 5002,
      "駭": 5003,
      "駿": 5004,
      "騁": 5005,
      "騎": 5006,
      "騏": 5007,
      "騙": 5008,
      "騭": 5009,
      "騰": 5010,
      "騷": 5011,
      "驀": 5012,
      "驂": 5013,
      "驄": 5014,
      "驅": 5015,
      "驕": 5016,
      "驗": 5017,
      "驚": 5018,
      "驛": 5019,
      "驟": 5020,
      "驢": 5021,
      "驤": 5022,
      "驥": 5023,
      "驪": 5024,
      "骨": 5025,
      "骯": 5026,
      "骰": 5027,
      "骷": 5028,
      "骸": 5029,
      "髏": 5030,
      "髒": 5031,
      "髓": 5032,
      "體": 5033,
      "高": 5034,
      "髦": 5035,
      "髫": 5036,
      "髮": 5037,
      "髯": 5038,
      "髻": 5039,
      "鬆": 5040,
      "鬍": 5041,
      "鬚": 5042,
      "鬟": 5043,
      "鬢": 5044,
      "鬥": 5045,
      "鬧": 5046,
      "鬨": 5047,
      "鬱": 5048,
      "鬻": 5049,
      "鬼": 5050,
      "魁": 5051,
      "魂": 5052,
      "魄": 5053,
      "魅": 5054,
      "魏": 5055,
      "魑": 5056,
      "魔": 5057,
      "魚": 5058,
      "魯": 5059,
      "鮑": 5060,
      "鮒": 5061,
      "鮫": 5062,
      "鮮": 5063,
      "鮹": 5064,
      "鯀": 5065,
      "鯁": 5066,
      "鯉": 5067,
      "鯗": 5068,
      "鯤": 5069,
      "鯨": 5070,
      "鰍": 5071,
      "鰥": 5072,
      "鰲": 5073,
      "鱉": 5074,
      "鱗": 5075,
      "鳥": 5076,
      "鳩": 5077,
      "鳳": 5078,
      "鳴": 5079,
      "鳶": 5080,
      "鴇": 5081,
      "鴉": 5082,
      "鴛": 5083,
      "鴟": 5084,
      "鴣": 5085,
      "鴦": 5086,
      "鴨": 5087,
      "鴻": 5088,
      "鴿": 5089,
      "鵑": 5090,
      "鵒": 5091,
      "鵝": 5092,
      "鵠": 5093,
      "鵡": 5094,
      "鵬": 5095,
      "鵲": 5096,
      "鶉": 5097,
      "鶊": 5098,
      "鶚": 5099,
      "鶬": 5100,
      "鶯": 5101,
      "鶴": 5102,
      "鶼": 5103,
      "鷓": 5104,
      "鷗": 5105,
      "鷙": 5106,
      "鷥": 5107,
      "鷦": 5108,
      "鷯": 5109,
      "鷸": 5110,
      "鷹": 5111,
      "鷺": 5112,
      "鸚": 5113,
      "鸛": 5114,
      "鸝": 5115,
      "鸞": 5116,
      "鹽": 5117,
      "鹿": 5118,
      "麋": 5119,
      "麒": 5120,
      "麓": 5121,
      "麗": 5122,
      "麝": 5123,
      "麟": 5124,
      "麥": 5125,
      "麴": 5126,
      "麵": 5127,
      "麻": 5128,
      "麼": 5129,
      "麾": 5130,
      "黃": 5131,
      "黌": 5132,
      "黍": 5133,
      "黎": 5134,
      "黏": 5135,
      "黑": 5136,
      "默": 5137,
      "黛": 5138,
      "黜": 5139,
      "黝": 5140,
      "點": 5141,
      "黧": 5142,
      "黨": 5143,
      "黯": 5144,
      "黹": 5145,
      "鼇": 5146,
      "鼎": 5147,
      "鼓": 5148,
      "鼕": 5149,
      "鼙": 5150,
      "鼠": 5151,
      "鼯": 5152,
      "鼻": 5153,
      "鼾": 5154,
      "齊": 5155,
      "齋": 5156,
      "齎": 5157,
      "齏": 5158,
      "齒": 5159,
      "齟": 5160,
      "齡": 5161,
      "齧": 5162,
      "齪": 5163,
      "齬": 5164,
      "齷": 5165,
      "龍": 5166,
      "龐": 5167,
      "龔": 5168,
      "龕": 5169,
      "龜": 5170,
      "！": 5171,
      "（": 5172,
      "）": 5173,
      "，": 5174,
      "－": 5175,
      "．": 5176,
      "：": 5177,
      "；": 5178,
      "？": 5179,
      "▁t": 5180,
      "he": 5181,
      "▁a": 5182,
      "in": 5183,
      "▁the": 5184,
      "▁o": 5185,
      "re": 5186,
      "▁s": 5187,
      "▁w": 5188,
      "er": 5189,
      "nd": 5190,
      "on": 5191,
      "at": 5192,
      "en": 5193,
      "▁b": 5194,
      "is": 5195,
      "it": 5196,
      "▁c": 5197,
      "▁of": 5198,
      "es": 5199,
      "ed": 5200,
      "ou": 5201,
      "▁m": 5202,
      "▁h": 5203,
      "▁f": 5204,
      "▁p": 5205,
      "an": 5206,
      "ar": 5207,
      "or": 5208,
      "▁d": 5209,
      "▁and": 5210,
      "▁to": 5211,
      "ing": 5212,
      "as": 5213,
      "▁in": 5214,
      "ll": 5215,
      "▁l": 5216,
      "▁th": 5217,
      "▁n": 5218,
      "ic": 5219,
      "om": 5220,
      "al": 5221,
      "▁e": 5222,
      "ion": 5223,
      "le": 5224,
      "▁I": 5225,
      "▁he": 5226,
      "▁g": 5227,
      "ad": 5228,
      "ent": 5229,
      "▁be": 5230,
      "ot": 5231,
      "st": 5232,
      "ut": 5233,
      "ve": 5234,
      "▁T": 5235,
      "ow": 5236,
      "im": 5237,
      "▁re": 5238,
      "se": 5239,
      "ce": 5240,
      "id": 5241,
      "ly": 5242,
      "▁wh": 5243,
      "ur": 5244,
      "ir": 5245,
      "▁A": 5246,
      "▁u": 5247,
      "▁on": 5248,
      "ld": 5249,
      "▁S": 5250,
      "ver": 5251,
      "ig": 5252,
      "ro": 5253,
      "et": 5254,
      "▁that": 5255,
      "▁was": 5256,
      "s,": 5257,
      "▁y": 5258,
      "ith": 5259,
      "▁for": 5260,
      "ay": 5261,
      "ct": 5262,
      "▁it": 5263,
      "am": 5264,
      "▁\"": 5265,
      "ch": 5266,
      "▁with": 5267,
      "▁de": 5268,
      "▁C": 5269,
      "▁as": 5270,
      "▁is": 5271,
      "▁M": 5272,
      "▁we": 5273,
      "▁1": 5274,
      "▁st": 5275,
      "ra": 5276,
      "▁his": 5277,
      "il": 5278,
      "est": 5279,
      "and": 5280,
      "▁The": 5281,
      "qu": 5282,
      "▁(": 5283,
      "her": 5284,
      "e,": 5285,
      "ri": 5286,
      "▁an": 5287,
      "ter": 5288,
      "▁B": 5289,
      "ill": 5290,
      "▁se": 5291,
      "ht": 5292,
      "ation": 5293,
      "▁at": 5294,
      "▁P": 5295,
      "▁not": 5296,
      "▁H": 5297,
      "ain": 5298,
      "all": 5299,
      "--": 5300,
      "ul": 5301,
      "▁by": 5302,
      "▁ha": 5303,
      "th": 5304,
      "▁you": 5305,
      "▁had": 5306,
      "▁su": 5307,
      "ich": 5308,
      "▁k": 5309,
      "▁v": 5310,
      "if": 5311,
      "pe": 5312,
      "oo": 5313,
      "00": 5314,
      "▁con": 5315,
      "▁r": 5316,
      "em": 5317,
      "ore": 5318,
      "▁fr": 5319,
      "os": 5320,
      "▁sh": 5321,
      "▁N": 5322,
      "▁or": 5323,
      "ac": 5324,
      "▁W": 5325,
      "ould": 5326,
      "us": 5327,
      "red": 5328,
      "▁which": 5329,
      "ol": 5330,
      "ab": 5331,
      "res": 5332,
      "ant": 5333,
      "ge": 5334,
      "▁G": 5335,
      "s.": 5336,
      "▁L": 5337,
      "ight": 5338,
      "nt": 5339,
      "▁E": 5340,
      "ak": 5341,
      "▁D": 5342,
      "▁ex": 5343,
      "▁2": 5344,
      "▁from": 5345,
      "▁F": 5346,
      "▁com": 5347,
      "ie": 5348,
      "▁him": 5349,
      "▁so": 5350,
      "ist": 5351,
      "'s": 5352,
      "ess": 5353,
      "ard": 5354,
      "▁me": 5355,
      "▁_": 5356,
      "▁her": 5357,
      "our": 5358,
      "▁ne": 5359,
      "▁but": 5360,
      "art": 5361,
      "un": 5362,
      "▁have": 5363,
      "um": 5364,
      "▁qu": 5365,
      "pp": 5366,
      "▁sa": 5367,
      "▁R": 5368,
      "▁all": 5369,
      "ate": 5370,
      "ast": 5371,
      "el": 5372,
      "ort": 5373,
      "es,": 5374,
      "▁are": 5375,
      "ust": 5376,
      "▁le": 5377,
      "▁this": 5378,
      "oug": 5379,
      "▁they": 5380,
      "▁were": 5381,
      "ous": 5382,
      "y,": 5383,
      "ong": 5384,
      "▁al": 5385,
      "▁ch": 5386,
      "▁whe": 5387,
      "▁O": 5388,
      "ive": 5389,
      "ers": 5390,
      "▁pro": 5391,
      "iv": 5392,
      "op": 5393,
      "▁my": 5394,
      "▁up": 5395,
      "▁who": 5396,
      "ap": 5397,
      "ound": 5398,
      "ag": 5399,
      "▁their": 5400,
      ".\"": 5401,
      "out": 5402,
      "▁man": 5403,
      "ome": 5404,
      "▁un": 5405,
      "▁them": 5406,
      "a,": 5407,
      "▁no": 5408,
      "▁do": 5409,
      "▁ab": 5410,
      "ame": 5411,
      "ed,": 5412,
      "▁en": 5413,
      "▁one": 5414,
      "ood": 5415,
      "▁she": 5416,
      "▁int": 5417,
      "od": 5418,
      "▁pl": 5419,
      "ind": 5420,
      "ment": 5421,
      "ure": 5422,
      "▁J": 5423,
      "very": 5424,
      "ther": 5425,
      "ci": 5426,
      "▁j": 5427,
      "ell": 5428,
      "ost": 5429,
      "▁est": 5430,
      "reat": 5431,
      "ud": 5432,
      "==": 5433,
      "▁ar": 5434,
      "ck": 5435,
      "ity": 5436,
      "▁la": 5437,
      "▁said": 5438,
      "ect": 5439,
      "sel": 5440,
      "ke": 5441,
      "▁wor": 5442,
      "pt": 5443,
      "▁been": 5444,
      "ff": 5445,
      "ber": 5446,
      "ish": 5447,
      "ran": 5448,
      "ry": 5449,
      "own": 5450,
      "ough": 5451,
      "av": 5452,
      "▁there": 5453,
      "ear": 5454,
      "▁U": 5455,
      "ies": 5456,
      "cc": 5457,
      "▁3": 5458,
      "one": 5459,
      "ount": 5460,
      "▁out": 5461,
      "▁would": 5462,
      "▁He": 5463,
      "ond": 5464,
      "▁other": 5465,
      "ass": 5466,
      "▁ag": 5467,
      "▁kn": 5468,
      "itt": 5469,
      "ine": 5470,
      "hed": 5471,
      "▁pr": 5472,
      "au": 5473,
      "ian": 5474,
      "ack": 5475,
      "▁go": 5476,
      "▁when": 5477,
      "▁sp": 5478,
      "▁will": 5479,
      "ose": 5480,
      "ep": 5481,
      "▁ad": 5482,
      "able": 5483,
      "ire": 5484,
      "ace": 5485,
      "e.": 5486,
      "▁im": 5487,
      "pl": 5488,
      "ia": 5489,
      "▁part": 5490,
      "ence": 5491,
      "ru": 5492,
      "▁tw": 5493,
      "▁K": 5494,
      "end": 5495,
      "▁Th": 5496,
      "▁per": 5497,
      "▁tim": 5498,
      "ary": 5499,
      "are": 5500,
      "▁cl": 5501,
      "▁fe": 5502,
      "▁more": 5503,
      "▁ro": 5504,
      "ing,": 5505,
      "▁some": 5506,
      "▁dis": 5507,
      "ven": 5508,
      "▁li": 5509,
      "▁(2": 5510,
      "ide": 5511,
      "▁-": 5512,
      "land": 5513,
      "▁It": 5514,
      "▁gr": 5515,
      "ance": 5516,
      "ord": 5517,
      "▁est.": 5518,
      "▁am": 5519,
      "▁In": 5520,
      "▁into": 5521,
      "▁des": 5522,
      "▁[": 5523,
      "▁has": 5524,
      "o,": 5525,
      "bl": 5526,
      "ake": 5527,
      "ree": 5528,
      "ite": 5529,
      "▁V": 5530,
      "ook": 5531,
      "__": 5532,
      "er,": 5533,
      "ren": 5534,
      "▁over": 5535,
      "self": 5536,
      "ally": 5537,
      "ove": 5538,
      "ble": 5539,
      "▁can": 5540,
      "▁br": 5541,
      "▁than": 5542,
      "ade": 5543,
      "way": 5544,
      "▁any": 5545,
      "▁und": 5546,
      "▁if": 5547,
      "ed.": 5548,
      "▁its": 5549,
      "ert": 5550,
      "▁4": 5551,
      "ction": 5552,
      "99": 5553,
      "oll": 5554,
      "▁great": 5555,
      "fter": 5556,
      ",\"": 5557,
      "ach": 5558,
      "urn": 5559,
      "▁us": 5560,
      "cl": 5561,
      "▁(200": 5562,
      "fore": 5563,
      "▁bl": 5564,
      "▁could": 5565,
      "▁(1": 5566,
      "▁very": 5567,
      "ile": 5568,
      "▁Ch": 5569,
      "ang": 5570,
      "ated": 5571,
      "▁year": 5572,
      "▁cont": 5573,
      "▁St": 5574,
      "▁fl": 5575,
      "int": 5576,
      "▁po": 5577,
      "▁est.)": 5578,
      "ice": 5579,
      "per": 5580,
      "iz": 5581,
      "ered": 5582,
      "ress": 5583,
      "ip": 5584,
      "▁our": 5585,
      "wn": 5586,
      "▁pre": 5587,
      "▁about": 5588,
      "▁res": 5589,
      "ale": 5590,
      "ng": 5591,
      "..": 5592,
      "erv": 5593,
      "▁pe": 5594,
      "ult": 5595,
      "▁que": 5596,
      "▁off": 5597,
      "ign": 5598,
      "▁\"I": 5599,
      "es.": 5600,
      "age": 5601,
      "▁two": 5602,
      "▁what": 5603,
      "▁only": 5604,
      "▁day": 5605,
      "▁comm": 5606,
      "▁upon": 5607,
      "▁And": 5608,
      "ath": 5609,
      "s:": 5610,
      "ark": 5611,
      "ought": 5612,
      "▁comp": 5613,
      "▁ra": 5614,
      "ue": 5615,
      "other": 5616,
      "orn": 5617,
      "ition": 5618,
      "uch": 5619,
      "▁your": 5620,
      "▁5": 5621,
      "▁then": 5622,
      "og": 5623,
      "oy": 5624,
      "▁again": 5625,
      "ied": 5626,
      "▁after": 5627,
      "▁long": 5628,
      "),": 5629,
      "ick": 5630,
      "ild": 5631,
      "?\"": 5632,
      "ittle": 5633,
      "ward": 5634,
      "▁now": 5635,
      "'t": 5636,
      "▁did": 5637,
      "▁ind": 5638,
      "▁should": 5639,
      "▁rem": 5640,
      "====": 5641,
      "man": 5642,
      "▁But": 5643,
      "▁spe": 5644,
      "▁like": 5645,
      "ull": 5646,
      "▁thr": 5647,
      "ne": 5648,
      "▁co": 5649,
      "▁under": 5650,
      "▁fir": 5651,
      "▁these": 5652,
      "ft": 5653,
      "▁fa": 5654,
      "we": 5655,
      "▁hand": 5656,
      "▁little": 5657,
      "▁made": 5658,
      "hing": 5659,
      "▁cons": 5660,
      "hen": 5661,
      "▁6": 5662,
      "▁form": 5663,
      "ious": 5664,
      "ug": 5665,
      "▁may": 5666,
      "▁18": 5667,
      "en,": 5668,
      "▁tr": 5669,
      "ph": 5670,
      "▁time": 5671,
      "▁where": 5672,
      "▁Y": 5673,
      "ater": 5674,
      "port": 5675,
      "▁count": 5676,
      "ather": 5677,
      "ink": 5678,
      "▁sm": 5679,
      "ens": 5680,
      "on,": 5681,
      "ric": 5682,
      "▁acc": 5683,
      "▁see": 5684,
      "iss": 5685,
      "ons": 5686,
      "▁before": 5687,
      "▁know": 5688,
      "ave": 5689,
      "oc": 5690,
      "▁sc": 5691,
      "▁pres": 5692,
      "▁bet": 5693,
      "000": 5694,
      "ful": 5695,
      "y.": 5696,
      "▁ob": 5697,
      "▁down": 5698,
      "▁first": 5699,
      "▁bec": 5700,
      "▁'": 5701,
      "ere": 5702,
      "▁good": 5703,
      "▁such": 5704,
      "▁ent": 5705,
      "▁att": 5706,
      "_,": 5707,
      "▁too": 5708,
      "ont": 5709,
      "oss": 5710,
      "▁much": 5711,
      "▁how": 5712,
      "▁most": 5713,
      "▁say": 5714,
      "ew": 5715,
      "▁app": 5716,
      "▁look": 5717,
      "▁sl": 5718,
      "rit": 5719,
      "ical": 5720,
      "ly,": 5721,
      "ces": 5722,
      "ings": 5723,
      "te": 5724,
      "ial": 5725,
      "ans": 5726,
      "▁ap": 5727,
      "ener": 5728,
      "▁must": 5729,
      "so": 5730,
      "du": 5731,
      "ait": 5732,
      "▁200": 5733,
      "oth": 5734,
      "iff": 5735,
      "▁Mr": 5736,
      "che": 5737,
      "▁7": 5738,
      "▁every": 5739,
      "igh": 5740,
      "▁tra": 5741,
      "▁well": 5742,
      "▁dist": 5743,
      "!\"": 5744,
      "▁being": 5745,
      "▁pass": 5746,
      "ved": 5747,
      "ier": 5748,
      "----": 5749,
      "▁even": 5750,
      "▁found": 5751,
      "ower": 5752,
      ",000": 5753,
      "ced": 5754,
      "und": 5755,
      "▁those": 5756,
      "orm": 5757,
      "s;": 5758,
      "▁through": 5759,
      "▁el": 5760,
      "▁\"T": 5761,
      "▁car": 5762,
      "▁way": 5763,
      "ouse": 5764,
      "ix": 5765,
      "▁ear": 5766,
      "ise": 5767,
      "▁old": 5768,
      "▁em": 5769,
      "hat": 5770,
      "▁ret": 5771,
      "▁own": 5772,
      "▁men": 5773,
      "ib": 5774,
      "ince": 5775,
      "▁Se": 5776,
      "▁back": 5777,
      "ople": 5778,
      "vern": 5779,
      "▁came": 5780,
      "▁bel": 5781,
      "▁km": 5782,
      "ote": 5783,
      "▁As": 5784,
      "▁head": 5785,
      "outh": 5786,
      "▁call": 5787,
      "ions": 5788,
      "ject": 5789,
      "old": 5790,
      "▁last": 5791,
      "▁8": 5792,
      "▁op": 5793,
      "▁This": 5794,
      "▁et": 5795,
      "▁rep": 5796,
      "ock": 5797,
      "▁nat": 5798,
      "▁gl": 5799,
      "ily": 5800,
      "▁ter": 5801,
      "▁never": 5802,
      "▁9": 5803,
      "▁sub": 5804,
      "▁many": 5805,
      "ory": 5806,
      "ing.": 5807,
      "▁might": 5808,
      "▁19": 5809,
      "____": 5810,
      "ations": 5811,
      "▁beg": 5812,
      "ular": 5813,
      "▁Ind": 5814,
      "▁\"W": 5815,
      "▁same": 5816,
      "▁rec": 5817,
      "▁work": 5818,
      "▁Is": 5819,
      "▁sur": 5820,
      "ty": 5821,
      "ail": 5822,
      "▁ele": 5823,
      "ict": 5824,
      "vent": 5825,
      "ern": 5826,
      "▁seem": 5827,
      "ving": 5828,
      "act": 5829,
      "▁himself": 5830,
      "les": 5831,
      "▁years": 5832,
      "ion,": 5833,
      "pect": 5834,
      "ident": 5835,
      "ER": 5836,
      "▁reg": 5837,
      "▁(199": 5838,
      "ared": 5839,
      "▁lif": 5840,
      "amp": 5841,
      "ors": 5842,
      "ause": 5843,
      "arm": 5844,
      "▁te": 5845,
      "%,": 5846,
      "▁end": 5847,
      "▁imp": 5848,
      "▁lar": 5849,
      "▁es": 5850,
      "ollow": 5851,
      "ished": 5852,
      "▁mar": 5853,
      "._": 5854,
      "▁ey": 5855,
      "▁without": 5856,
      "rib": 5857,
      "led": 5858,
      "tern": 5859,
      "▁inf": 5860,
      "▁They": 5861,
      "▁par": 5862,
      "ank": 5863,
      "aint": 5864,
      "air": 5865,
      "▁appe": 5866,
      "▁$": 5867,
      "row": 5868,
      "ief": 5869,
      "ible": 5870,
      "illion": 5871,
      "▁diff": 5872,
      "li": 5873,
      "o.": 5874,
      "ried": 5875,
      "▁sec": 5876,
      "▁ac": 5877,
      "▁ke": 5878,
      "▁place": 5879,
      "vers": 5880,
      "a.": 5881,
      "▁went": 5882,
      "▁here": 5883,
      "ates": 5884,
      "ver,": 5885,
      "▁make": 5886,
      "▁arm": 5887,
      "ient": 5888,
      "ase": 5889,
      "▁De": 5890,
      "▁ext": 5891,
      "▁land": 5892,
      "▁Am": 5893,
      "▁rel": 5894,
      "▁come": 5895,
      "oot": 5896,
      "▁0": 5897,
      "▁cap": 5898,
      "ational": 5899,
      "▁people": 5900,
      "▁also": 5901,
      "▁At": 5902,
      "▁just": 5903,
      "▁let": 5904,
      "▁three": 5905,
      "ubl": 5906,
      "up": 5907,
      "▁supp": 5908,
      "sh": 5909,
      "read": 5910,
      "▁15": 5911,
      "omet": 5912,
      "▁thought": 5913,
      "▁shall": 5914,
      "▁ord": 5915,
      "att": 5916,
      "▁set": 5917,
      "▁serv": 5918,
      "ob": 5919,
      "ia,": 5920,
      "▁word": 5921,
      "▁follow": 5922,
      "ros": 5923,
      "▁still": 5924,
      "▁pers": 5925,
      "ited": 5926,
      "▁cour": 5927,
      "▁inst": 5928,
      "orth": 5929,
      "▁exp": 5930,
      "▁think": 5931,
      "▁gener": 5932,
      "▁ref": 5933,
      "▁Mr.": 5934,
      "▁ri": 5935,
      "ween": 5936,
      "atter": 5937,
      "▁She": 5938,
      "▁tak": 5939,
      "an,": 5940,
      "ret": 5941,
      "ures": 5942,
      "▁We": 5943,
      "ird": 5944,
      "cess": 5945,
      "xt": 5946,
      "pend": 5947,
      "ah": 5948,
      "▁Mar": 5949,
      "i,": 5950,
      "▁away": 5951,
      "▁point": 5952,
      "▁Eng": 5953,
      "▁10": 5954,
      "eg": 5955,
      "▁*": 5956,
      "ual": 5957,
      "ness": 5958,
      "▁while": 5959,
      "▁near": 5960,
      "▁between": 5961,
      "alk": 5962,
      "▁min": 5963,
      "▁Un": 5964,
      "▁gra": 5965,
      "▁turn": 5966,
      "ott": 5967,
      "▁occ": 5968,
      "▁NA": 5969,
      "▁del": 5970,
      "▁small": 5971,
      "ertain": 5972,
      "▁mon": 5973,
      "▁new": 5974,
      "▁country": 5975,
      "the": 5976,
      "er.": 5977,
      "riend": 5978,
      "ope": 5979,
      "▁There": 5980,
      "▁get": 5981,
      "aw": 5982,
      "▁z": 5983,
      "▁right": 5984,
      "▁ass": 5985,
      "ined": 5986,
      "omm": 5987,
      "▁left": 5988,
      "▁fore": 5989,
      "▁Ar": 5990,
      "or,": 5991,
      "vel": 5992,
      "az": 5993,
      "▁|": 5994,
      "get": 5995,
      "▁tot": 5996,
      "▁lo": 5997,
      "▁it,": 5998,
      "▁take": 5999,
      "▁poss": 6000,
      "ation,": 6001,
      "oun": 6002,
      "▁night": 6003,
      "▁pur": 6004,
      "ution": 6005,
      "cept": 6006,
      "ither": 6007,
      "ened": 6008,
      "▁each": 6009,
      "vernment": 6010,
      "▁read": 6011,
      "▁bu": 6012,
      "▁Al": 6013,
      "▁water": 6014,
      "▁bo": 6015,
      "========": 6016,
      "▁An": 6017,
      "▁saw": 6018,
      "▁pop": 6019,
      "▁another": 6020,
      "▁friend": 6021,
      "ves": 6022,
      "▁mil": 6023,
      "▁him,": 6024,
      "▁conf": 6025,
      "▁inc": 6026,
      "ement": 6027,
      "▁house": 6028,
      "ung": 6029,
      "▁cr": 6030,
      "▁produ": 6031,
      "▁giv": 6032,
      "▁war": 6033,
      "▁\"A": 6034,
      "▁don": 6035,
      "ative": 6036,
      "▁l'": 6037,
      "▁put": 6038,
      "▁against": 6039,
      "anc": 6040,
      "▁ask": 6041,
      ").": 6042,
      "▁act": 6043,
      "le,": 6044,
      "▁rest": 6045,
      "ublic": 6046,
      "▁à": 6047,
      "▁sw": 6048,
      "▁child": 6049,
      "pr": 6050,
      "▁col": 6051,
      "ulation": 6052,
      "aut": 6053,
      "HE": 6054,
      "▁took": 6055,
      "ural": 6056,
      "▁world": 6057,
      "▁young": 6058,
      "▁present": 6059,
      "▁somet": 6060,
      "ub": 6061,
      "▁total": 6062,
      "ways": 6063,
      "▁though": 6064,
      ".,": 6065,
      "▁far": 6066,
      "here": 6067,
      "▁num": 6068,
      "ij": 6069,
      "▁wr": 6070,
      "▁it.": 6071,
      "ustr": 6072,
      "oman": 6073,
      "aj": 6074,
      "ific": 6075,
      "▁few": 6076,
      "▁return": 6077,
      "▁met": 6078,
      "ained": 6079,
      "▁12": 6080,
      "▁tre": 6081,
      "▁So": 6082,
      "con": 6083,
      "▁.": 6084,
      "less": 6085,
      "rew": 6086,
      "▁char": 6087,
      "▁les": 6088,
      "h,": 6089,
      "▁cent": 6090,
      "▁gu": 6091,
      "▁find": 6092,
      "▁che": 6093,
      "▁When": 6094,
      "▁On": 6095,
      "ool": 6096,
      "▁death": 6097,
      "▁Q": 6098,
      "rans": 6099,
      "▁once": 6100,
      "me": 6101,
      "ense": 6102,
      "▁unt": 6103,
      "uring": 6104,
      "▁inter": 6105,
      "10": 6106,
      "iet": 6107,
      "▁among": 6108,
      "▁20": 6109,
      "▁17": 6110,
      "emale": 6111,
      "_.": 6112,
      "al,": 6113,
      "▁yet": 6114,
      "t,": 6115,
      "ged": 6116,
      "▁For": 6117,
      "▁large": 6118,
      "▁1,": 6119,
      "-b": 6120,
      "▁name": 6121,
      "▁light": 6122,
      "ines": 6123,
      "alf": 6124,
      "▁sy": 6125,
      "▁eff": 6126,
      "ross": 6127,
      "ly.": 6128,
      "▁disc": 6129,
      "▁hor": 6130,
      "▁\"Y": 6131,
      "▁bro": 6132,
      "ien": 6133,
      "▁Wh": 6134,
      "▁Then": 6135,
      "▁Pr": 6136,
      "▁16": 6137,
      "▁add": 6138,
      "▁sent": 6139,
      "▁def": 6140,
      "▁having": 6141,
      "ON": 6142,
      "▁d'": 6143,
      "▁high": 6144,
      "ired": 6145,
      "▁both": 6146,
      "cted": 6147,
      "most": 6148,
      "▁mo": 6149,
      "eng": 6150,
      "▁called": 6151,
      "que": 6152,
      "▁four": 6153,
      "ange": 6154,
      "▁cur": 6155,
      "▁ins": 6156,
      "io": 6157,
      "ived": 6158,
      "ars": 6159,
      "ched": 6160,
      "▁ever": 6161,
      "AN": 6162,
      "▁give": 6163,
      "n't": 6164,
      "den": 6165,
      "▁ple": 6166,
      "▁contin": 6167,
      "ins": 6168,
      "▁and,": 6169,
      "▁rate": 6170,
      "▁Island": 6171,
      "▁aff": 6172,
      "▁tell": 6173,
      "ison": 6174,
      "▁kind": 6175,
      "▁199": 6176,
      "▁me,": 6177,
      "▁sk": 6178,
      "ity,": 6179,
      "ities": 6180,
      "▁Fran": 6181,
      "▁=": 6182,
      "rop": 6183,
      "aug": 6184,
      "▁ser": 6185,
      "▁cor": 6186,
      "lish": 6187,
      "inn": 6188,
      "uss": 6189,
      "oment": 6190,
      "▁power": 6191,
      "▁vo": 6192,
      "'d": 6193,
      "▁str": 6194,
      "▁soon": 6195,
      "▁him.": 6196,
      "osed": 6197,
      "unt": 6198,
      "▁want": 6199,
      "▁wind": 6200,
      "▁fam": 6201,
      "▁certain": 6202,
      "▁wat": 6203,
      "▁du": 6204,
      "ister": 6205,
      "▁short": 6206,
      "O,": 6207,
      "▁ver": 6208,
      "▁happ": 6209,
      ");": 6210,
      "▁moment": 6211,
      "▁held": 6212,
      "▁dra": 6213,
      "as,": 6214,
      "▁Le": 6215,
      "in,": 6216,
      "▁dep": 6217,
      "▁seen": 6218,
      "i.": 6219,
      "IN": 6220,
      "▁inde": 6221,
      "▁use": 6222,
      "▁art": 6223,
      "▁always": 6224,
      "osition": 6225,
      "▁1.": 6226,
      "sw": 6227,
      "▁di": 6228,
      "▁adv": 6229,
      "uth": 6230,
      "ers,": 6231,
      "ES": 6232,
      "aster": 6233,
      "ains": 6234,
      "▁face": 6235,
      "▁son": 6236,
      "▁mind": 6237,
      "▁To": 6238,
      "▁cond": 6239,
      "▁dire": 6240,
      "▁because": 6241,
      "▁nothing": 6242,
      "its": 6243,
      "▁heart": 6244,
      "ised": 6245,
      "ield": 6246,
      "▁life": 6247,
      "▁fell": 6248,
      "▁--": 6249,
      "gg": 6250,
      "▁whole": 6251,
      "ple": 6252,
      "▁11": 6253,
      "ten": 6254,
      "▁whom": 6255,
      "us,": 6256,
      "ating": 6257,
      "ay,": 6258,
      "ever,": 6259,
      "ason": 6260,
      "ute": 6261,
      "▁THE": 6262,
      "AR": 6263,
      "ody": 6264,
      "▁run": 6265,
      "▁dou": 6266,
      "▁cle": 6267,
      "▁feet": 6268,
      "aking": 6269,
      "bt": 6270,
      "▁mem": 6271,
      "▁half": 6272,
      "▁bre": 6273,
      "ies,": 6274,
      "▁const": 6275,
      "-f": 6276,
      "als": 6277,
      "eric": 6278,
      "▁é": 6279,
      "clud": 6280,
      "ues": 6281,
      "▁white": 6282,
      "▁Sp": 6283,
      "▁heard": 6284,
      "ux": 6285,
      "min": 6286,
      "▁dec": 6287,
      "▁New": 6288,
      "▁less": 6289,
      "ime": 6290,
      "ene": 6291,
      "▁hum": 6292,
      "wards": 6293,
      "ow,": 6294,
      "oh": 6295,
      "▁thing": 6296,
      "▁die": 6297,
      "▁det": 6298,
      "▁them,": 6299,
      "is,": 6300,
      "▁If": 6301,
      "▁Z": 6302,
      "▁14": 6303,
      "ey": 6304,
      "ok": 6305,
      "▁fin": 6306,
      "▁law": 6307,
      "s)": 6308,
      "ured": 6309,
      "se,": 6310,
      "▁sil": 6311,
      "▁show": 6312,
      "-t": 6313,
      "itary": 6314,
      "▁13": 6315,
      "▁black": 6316,
      "ceed": 6317,
      "▁full": 6318,
      "▁chief": 6319,
      "elt": 6320,
      "ering": 6321,
      "▁side": 6322,
      "▁round": 6323,
      "▁gave": 6324,
      "▁inv": 6325,
      "ek": 6326,
      "▁sim": 6327,
      "▁His": 6328,
      "oud": 6329,
      "ec": 6330,
      "▁prov": 6331,
      "▁var": 6332,
      "atic": 6333,
      "▁said,": 6334,
      "▁seemed": 6335,
      "▁told": 6336,
      "▁av": 6337,
      "▁ste": 6338,
      "▁pol": 6339,
      "▁hour": 6340,
      "resent": 6341,
      "▁feel": 6342,
      "ream": 6343,
      "▁hard": 6344,
      "not": 6345,
      "▁grow": 6346,
      "▁ev": 6347,
      "▁sat": 6348,
      "▁king": 6349,
      "▁open": 6350,
      "▁\"H": 6351,
      "▁vis": 6352,
      "▁got": 6353,
      "▁person": 6354,
      "▁stand": 6355,
      "nes": 6356,
      "▁father": 6357,
      "ually": 6358,
      "▁sign": 6359,
      "pped": 6360,
      "▁anim": 6361,
      "▁age": 6362,
      "▁love": 6363,
      "▁male": 6364,
      "ives": 6365,
      "▁obs": 6366,
      "▁trans": 6367,
      "-d": 6368,
      "...": 6369,
      "riv": 6370,
      "ce,": 6371,
      "▁best": 6372,
      "▁suff": 6373,
      "▁care": 6374,
      "▁Sh": 6375,
      "ion.": 6376,
      "▁ce": 6377,
      "▁Con": 6378,
      "conom": 6379,
      "cy": 6380,
      "mber": 6381,
      "▁prop": 6382,
      "▁plac": 6383,
      "une": 6384,
      "▁dem": 6385,
      "▁er": 6386,
      "cial": 6387,
      "ting": 6388,
      "rench": 6389,
      "▁rece": 6390,
      "▁ground": 6391,
      "▁population": 6392,
      "▁fact": 6393,
      "▁wood": 6394,
      "▁brought": 6395,
      "▁&": 6396,
      "veral": 6397,
      "▁beh": 6398,
      "en.": 6399,
      "iew": 6400,
      "▁You": 6401,
      "▁above": 6402,
      "▁I'": 6403,
      "▁ve": 6404,
      "ar,": 6405,
      "▁looked": 6406,
      "▁fall": 6407,
      "rist": 6408,
      "ably": 6409,
      "▁until": 6410,
      "▁South": 6411,
      "II": 6412,
      "▁Gu": 6413,
      "1.": 6414,
      "▁answ": 6415,
      "▁eyes": 6416,
      "ament": 6417,
      "med": 6418,
      "▁pleas": 6419,
      "ov": 6420,
      "oint": 6421,
      "▁p.": 6422,
      "▁opp": 6423,
      "▁US": 6424,
      "▁almost": 6425,
      "▁English": 6426,
      "ation.": 6427,
      "▁morn": 6428,
      "▁Ger": 6429,
      "▁tem": 6430,
      "ants": 6431,
      "▁Americ": 6432,
      "ure,": 6433,
      "▁million": 6434,
      "arn": 6435,
      "▁since": 6436,
      ".--": 6437,
      "erest": 6438,
      "▁taken": 6439,
      "▁government": 6440,
      "________": 6441,
      "▁however,": 6442,
      "▁mount": 6443,
      "ider": 6444,
      "irl": 6445,
      "ps": 6446,
      "alt": 6447,
      "-c": 6448,
      "ais": 6449,
      "-m": 6450,
      "▁\"The": 6451,
      "▁lead": 6452,
      "ches": 6453,
      "▁\"N": 6454,
      "▁perf": 6455,
      "-s": 6456,
      "thing": 6457,
      "rom": 6458,
      "ax": 6459,
      "ract": 6460,
      "▁themsel": 6461,
      "th,": 6462,
      "ation:": 6463,
      "amb": 6464,
      "ately": 6465,
      "▁better": 6466,
      "▁room": 6467,
      "▁import": 6468,
      "▁los": 6469,
      "▁beaut": 6470,
      "▁dark": 6471,
      "▁bus": 6472,
      "▁along": 6473,
      "▁billion": 6474,
      "▁quite": 6475,
      "ape": 6476,
      "▁por": 6477,
      "S.": 6478,
      "hes": 6479,
      "ann": 6480,
      "▁going": 6481,
      "▁number": 6482,
      "▁sun": 6483,
      "▁them.": 6484,
      "▁belie": 6485,
      "aim": 6486,
      "EN": 6487,
      "▁note": 6488,
      "▁equ": 6489,
      "▁cas": 6490,
      "▁ph": 6491,
      "▁keep": 6492,
      "▁lad": 6493,
      "▁mod": 6494,
      "▁Be": 6495,
      "▁leg": 6496,
      "▁sing": 6497,
      "▁began": 6498,
      "oul": 6499,
      "▁red": 6500,
      "par": 6501,
      "▁used": 6502,
      "ate,": 6503,
      "▁second": 6504,
      "▁during": 6505,
      "▁given": 6506,
      "uc": 6507,
      "▁does": 6508,
      "▁div": 6509,
      "overed": 6510,
      "ik": 6511,
      "ached": 6512,
      "▁All": 6513,
      "undred": 6514,
      "ex": 6515,
      "eren": 6516,
      "▁eas": 6517,
      "▁French": 6518,
      "▁Af": 6519,
      "▁interest": 6520,
      "▁matter": 6521,
      "irth": 6522,
      "14": 6523,
      "irc": 6524,
      "▁fur": 6525,
      "ention": 6526,
      "▁whose": 6527,
      "▁offic": 6528,
      "ued": 6529,
      "▁knew": 6530,
      "▁God": 6531,
      "▁tru": 6532,
      "▁Eur": 6533,
      "▁several": 6534,
      "▁King": 6535,
      "▁gent": 6536,
      "let": 6537,
      "▁six": 6538,
      "▁general": 6539,
      "▁heav": 6540,
      "of": 6541,
      "▁\"S": 6542,
      "▁Par": 6543,
      "▁Cl": 6544,
      "ided": 6545,
      "2.": 6546,
      "▁hundred": 6547,
      "ner": 6548,
      "ages": 6549,
      "▁fire": 6550,
      "▁hel": 6551,
      "ling": 6552,
      "sem": 6553,
      "▁enough": 6554,
      "ger": 6555,
      "▁rate:": 6556,
      "▁dr": 6557,
      "▁prom": 6558,
      "▁gre": 6559,
      "▁German": 6560,
      "▁2,": 6561,
      "ats": 6562,
      "▁next": 6563,
      "▁toget": 6564,
      "▁together": 6565,
      "▁door": 6566,
      "▁done": 6567,
      "▁common": 6568,
      "▁lay": 6569,
      "▁Indian": 6570,
      "▁X": 6571,
      "hern": 6572,
      "▁quest": 6573,
      "▁low": 6574,
      "▁mis": 6575,
      "▁state": 6576,
      "▁thou": 6577,
      "ef": 6578,
      "ude": 6579,
      "erent": 6580,
      "▁ship": 6581,
      "tain": 6582,
      "▁nor": 6583,
      "OR": 6584,
      "at,": 6585,
      "▁strong": 6586,
      "▁Sir": 6587,
      "▁bird": 6588,
      "ices": 6589,
      "▁don't": 6590,
      "-w": 6591,
      "ife": 6592,
      "▁five": 6593,
      "▁sch": 6594,
      "▁stru": 6595,
      "▁bar": 6596,
      "gr": 6597,
      "▁\"B": 6598,
      "▁UN": 6599,
      "▁live": 6600,
      "▁(19": 6601,
      "ized": 6602,
      "▁children": 6603,
      "--------": 6604,
      "▁hab": 6605,
      "▁sn": 6606,
      "▁sle": 6607,
      "▁ed": 6608,
      "▁necess": 6609,
      "▁il": 6610,
      "▁close": 6611,
      "hap": 6612,
      "▁ill": 6613,
      "▁party": 6614,
      "▁appear": 6615,
      "▁home": 6616,
      "ones": 6617,
      "▁prin": 6618,
      "▁kill": 6619,
      "▁den": 6620,
      "▁known": 6621,
      "▁real": 6622,
      "ides": 6623,
      "ía": 6624,
      "▁things": 6625,
      "-h": 6626,
      "▁fre": 6627,
      "▁often": 6628,
      "▁desc": 6629,
      "3.": 6630,
      "▁order": 6631,
      "s.\"": 6632,
      "▁Ex": 6633,
      "▁thus": 6634,
      "▁dev": 6635,
      "▁represent": 6636,
      "▁till": 6637,
      "ility": 6638,
      "re,": 6639,
      "5.": 6640,
      "▁myself": 6641,
      "▁mother": 6642,
      "omp": 6643,
      "▁hands": 6644,
      "▁Go": 6645,
      "▁Ge": 6646,
      "▁partic": 6647,
      "▁air": 6648,
      "▁\"O": 6649,
      "▁That": 6650,
      "ork": 6651,
      "imes": 6652,
      "▁mer": 6653,
      "full": 6654,
      "▁something": 6655,
      "stem": 6656,
      "▁ir": 6657,
      "▁expl": 6658,
      "▁subject": 6659,
      "ence,": 6660,
      "▁town": 6661,
      "▁What": 6662,
      "The": 6663,
      "▁rather": 6664,
      "ance,": 6665,
      "▁port": 6666,
      "▁account": 6667,
      "aid": 6668,
      "▁effect": 6669,
      "▁der": 6670,
      "2,": 6671,
      "▁sum": 6672,
      "ina": 6673,
      "ember": 6674,
      "▁hon": 6675,
      "▁dead": 6676,
      "llustr": 6677,
      "▁ten": 6678,
      "quent": 6679,
      "▁that,": 6680,
      "▁asked": 6681,
      "▁Rep": 6682,
      "be": 6683,
      "AT": 6684,
      "▁[I": 6685,
      "▁within": 6686,
      "ital": 6687,
      "▁stran": 6688,
      "▁result": 6689,
      "bers": 6690,
      "▁vol": 6691,
      "▁girl": 6692,
      "▁Brit": 6693,
      "▁repl": 6694,
      "▁mean": 6695,
      "ales": 6696,
      "▁none": 6697,
      "▁mark": 6698,
      "▁total:": 6699,
      "aus": 6700,
      "(s)": 6701,
      "men": 6702,
      "ys": 6703,
      "▁island": 6704,
      "▁turned": 6705,
      "ism": 6706,
      "ral": 6707,
      "▁need": 6708,
      "▁charact": 6709,
      "▁bur": 6710,
      "ery": 6711,
      "ice,": 6712,
      "ries": 6713,
      "ry,": 6714,
      "DP": 6715,
      "1,": 6716,
      "▁express": 6717,
      "uff": 6718,
      "▁river": 6719,
      "▁adm": 6720,
      "gy": 6721,
      "▁circ": 6722,
      "▁West": 6723,
      "▁deep": 6724,
      "uck": 6725,
      "ters": 6726,
      "▁fort": 6727,
      "▁spir": 6728,
      "de": 6729,
      "use": 6730,
      "▁Part": 6731,
      "▁Em": 6732,
      "▁dest": 6733,
      "▁stood": 6734,
      "▁Ph": 6735,
      "urch": 6736,
      "ments": 6737,
      "6.": 6738,
      "3,": 6739,
      "▁succ": 6740,
      "▁days": 6741,
      "ased": 6742,
      "▁[Illustr": 6743,
      "ev": 6744,
      "AL": 6745,
      "ying": 6746,
      "a:": 6747,
      "ission": 6748,
      "▁hold": 6749,
      "-p": 6750,
      "et,": 6751,
      "▁system": 6752,
      "▁bra": 6753,
      "▁cannot": 6754,
      "▁qui": 6755,
      "7,": 6756,
      "▁became": 6757,
      "stand": 6758,
      "enty": 6759,
      "AP": 6760,
      "ows": 6761,
      "▁wom": 6762,
      "▁tri": 6763,
      "▁wild": 6764,
      "▁30": 6765,
      "▁ide": 6766,
      "4.": 6767,
      "ole": 6768,
      "▁Her": 6769,
      "ash": 6770,
      "▁Christ": 6771,
      "▁passed": 6772,
      "▁nam": 6773,
      "ision": 6774,
      "▁either": 6775,
      "▁requ": 6776,
      "▁National": 6777,
      "7.": 6778,
      "▁disp": 6779,
      "▁\"You": 6780,
      "▁Ad": 6781,
      "ize": 6782,
      "▁felt": 6783,
      "TER": 6784,
      "▁different": 6785,
      "▁aw": 6786,
      "agn": 6787,
      "▁consider": 6788,
      "▁themselves": 6789,
      "▁val": 6790,
      "▁With": 6791,
      "ohn": 6792,
      "▁birth": 6793,
      "▁compan": 6794,
      "ended": 6795,
      "▁you,": 6796,
      "▁mid": 6797,
      "8.": 6798,
      "ior": 6799,
      "raph": 6800,
      "on.": 6801,
      "▁fear": 6802,
      "▁course": 6803,
      "▁walk": 6804,
      "▁gold": 6805,
      "▁Comm": 6806,
      "▁hear": 6807,
      "▁sound": 6808,
      "ted": 6809,
      "▁earth": 6810,
      "5,": 6811,
      "▁Qu": 6812,
      "▁cut": 6813,
      "▁esc": 6814,
      "▁boy": 6815,
      "▁object": 6816,
      "▁\"M": 6817,
      "▁i": 6818,
      "▁female": 6819,
      "iment": 6820,
      "▁sus": 6821,
      "▁Car": 6822,
      "fort": 6823,
      "▁liv": 6824,
      "▁possess": 6825,
      "▁CH": 6826,
      "▁abs": 6827,
      "▁pat": 6828,
      "▁expect": 6829,
      "▁food": 6830,
      "▁OF": 6831,
      "▁wall": 6832,
      "▁deg": 6833,
      "/1": 6834,
      "];": 6835,
      "oke": 6836,
      "▁appro": 6837,
      "▁Col": 6838,
      "IS": 6839,
      "▁bran": 6840,
      "▁enc": 6841,
      "▁poor": 6842,
      "cip": 6843,
      "iness": 6844,
      "▁observ": 6845,
      "▁speak": 6846,
      "▁Or": 6847,
      "ection": 6848,
      "▁includ": 6849,
      "eb": 6850,
      "ousand": 6851,
      "ploy": 6852,
      "▁(_": 6853,
      "▁Br": 6854,
      "▁therefore": 6855,
      "▁loc": 6856,
      "▁England": 6857,
      "▁sit": 6858,
      "▁bes": 6859,
      "▁North": 6860,
      "to": 6861,
      "▁wond": 6862,
      "iful": 6863,
      "go": 6864,
      "4,": 6865,
      "▁help": 6866,
      "▁conc": 6867,
      "▁Europe": 6868,
      "▁Afric": 6869,
      "▁coll": 6870,
      "▁least": 6871,
      "▁ru": 6872,
      "rent": 6873,
      "▁doubt": 6874,
      "▁play": 6875,
      "▁alread": 6876,
      "▁0.": 6877,
      "uit": 6878,
      "▁itself": 6879,
      "▁election": 6880,
      "▁Man": 6881,
      "▁une": 6882,
      "note": 6883,
      "▁prob": 6884,
      "▁La": 6885,
      "ge,": 6886,
      "▁reason": 6887,
      "▁woman": 6888,
      "▁time,": 6889,
      "▁cal": 6890,
      "▁prof": 6891,
      "arch": 6892,
      "-l": 6893,
      "8,": 6894,
      "age,": 6895,
      "▁Sc": 6896,
      "ine,": 6897,
      "▁except": 6898,
      "▁fig": 6899,
      "ant,": 6900,
      "▁thousand": 6901,
      "▁leng": 6902,
      "================": 6903,
      "▁dom": 6904,
      "▁brother": 6905,
      "▁foot": 6906,
      "oup": 6907,
      "ment,": 6908,
      "ption": 6909,
      "▁pas": 6910,
      "▁lim": 6911,
      "▁pal": 6912,
      "app": 6913,
      "▁How": 6914,
      "ai": 6915,
      "▁past": 6916,
      "▁[F": 6917,
      "gan": 6918,
      "▁Pro": 6919,
      "▁John": 6920,
      "▁sud": 6921,
      "▁dog": 6922,
      "ell,": 6923,
      "icult": 6924,
      "▁vill": 6925,
      "▁north": 6926,
      "▁auth": 6927,
      "6,": 6928,
      "inal": 6929,
      "▁speci": 6930,
      "▁sol": 6931,
      "ity.": 6932,
      "▁United": 6933,
      "▁behind": 6934,
      "▁command": 6935,
      "▁term": 6936,
      "▁me.": 6937,
      "▁hig": 6938,
      "▁occas": 6939,
      "lect": 6940,
      "▁means": 6941,
      "▁cu": 6942,
      "▁thy": 6943,
      "ide,": 6944,
      "omb": 6945,
      "▁One": 6946,
      "urs": 6947,
      "▁natural": 6948,
      "▁wait": 6949,
      "▁las": 6950,
      "▁dri": 6951,
      "▁fav": 6952,
      "ever": 6953,
      "▁respect": 6954,
      "▁stra": 6955,
      "angu": 6956,
      "co": 6957,
      "one,": 6958,
      "▁camp": 6959,
      "▁towards": 6960,
      "▁prot": 6961,
      "ts": 6962,
      "▁Per": 6963,
      "empt": 6964,
      "▁sure": 6965,
      "9.": 6966,
      "▁bound": 6967,
      "reek": 6968,
      "iod": 6969,
      "▁difficult": 6970,
      "50": 6971,
      "▁master": 6972,
      "owed": 6973,
      "▁body": 6974,
      "▁econom": 6975,
      "t.": 6976,
      "utes": 6977,
      "▁enem": 6978,
      "/1,000": 6979,
      "▁already": 6980,
      "▁public": 6981,
      "▁sort": 6982,
      "▁je": 6983,
      "os,": 6984,
      "▁start": 6985,
      "▁regard": 6986,
      "cember": 6987,
      "▁GDP": 6988,
      "▁au": 6989,
      "▁meet": 6990,
      "▁rock": 6991,
      "ain,": 6992,
      "▁talk": 6993,
      "▁Lord": 6994,
      "▁2.": 6995,
      "▁view": 6996,
      "▁following": 6997,
      "▁force": 6998,
      "c.": 6999,
      "▁others": 7000,
      "ight,": 7001,
      "▁leave": 7002,
      "ee": 7003,
      "▁hist": 7004,
      "haps": 7005,
      "ship": 7006,
      "ad,": 7007,
      "▁gentle": 7008,
      "erm": 7009,
      "▁m:": 7010,
      "▁jud": 7011,
      "▁No": 7012,
      "▁case": 7013,
      "female": 7014,
      "▁decl": 7015,
      "ording": 7016,
      "▁leav": 7017,
      "arent": 7018,
      "▁Bl": 7019,
      "▁lost": 7020,
      "▁trou": 7021,
      "▁south": 7022,
      "ent,": 7023,
      "iter": 7024,
      "▁da": 7025,
      "▁purp": 7026,
      "▁lab": 7027,
      "▁sudden": 7028,
      "▁Nat": 7029,
      "▁El": 7030,
      "▁ut": 7031,
      "cil": 7032,
      "-1": 7033,
      "ternational": 7034,
      "oura": 7035,
      "hter": 7036,
      "▁mone": 7037,
      "és": 7038,
      "▁van": 7039,
      "▁cross": 7040,
      "r.": 7041,
      "▁Cap": 7042,
      "▁These": 7043,
      "olog": 7044,
      "▁human": 7045,
      "▁her,": 7046,
      "eth": 7047,
      "▁swe": 7048,
      "ring": 7049,
      "ustri": 7050,
      "▁stri": 7051,
      "▁become": 7052,
      "▁fish": 7053,
      "'ll": 7054,
      "▁Mil": 7055,
      "▁hill": 7056,
      "▁By": 7057,
      "cul": 7058,
      "iar": 7059,
      "els": 7060,
      "▁sold": 7061,
      "52": 7062,
      "itution": 7063,
      "▁believe": 7064,
      "velop": 7065,
      "day": 7066,
      "ional": 7067,
      "akes": 7068,
      "▁My": 7069,
      "9,": 7070,
      "▁Jan": 7071,
      "▁En": 7072,
      "▁si": 7073,
      "/female": 7074,
      "▁\"It": 7075,
      "▁(2001": 7076,
      "▁possible": 7077,
      "ootnote": 7078,
      "though": 7079,
      "pper": 7080,
      "▁estab": 7081,
      "medi": 7082,
      "▁bring": 7083,
      "▁laug": 7084,
      "▁words": 7085,
      "▁After": 7086,
      "▁spirit": 7087,
      "▁morning": 7088,
      "▁emb": 7089,
      "▁man,": 7090,
      "leph": 7091,
      "▁Republic": 7092,
      "▁clear": 7093,
      "▁3,": 7094,
      "▁Te": 7095,
      "▁pour": 7096,
      "▁Ab": 7097,
      "▁particular": 7098,
      "▁front": 7099,
      "....": 7100,
      "itted": 7101,
      "▁Party": 7102,
      "▁December": 7103,
      "fully": 7104,
      "▁fair": 7105,
      "▁mus": 7106,
      "▁summ": 7107,
      "▁Miss": 7108,
      "▁author": 7109,
      "ograph": 7110,
      "▁around": 7111,
      "▁pret": 7112,
      "--_": 7113,
      "0.": 7114,
      "ricult": 7115,
      "▁whether": 7116,
      "ald": 7117,
      "ober": 7118,
      "▁cab": 7119,
      "▁stud": 7120,
      "iled": 7121,
      "▁success": 7122,
      "▁exist": 7123,
      "▁pie": 7124,
      "▁\"D": 7125,
      "▁learn": 7126,
      "2)": 7127,
      "▁vi": 7128,
      "▁infl": 7129,
      "▁bear": 7130,
      "▁born": 7131,
      "dle": 7132,
      "▁M.": 7133,
      "▁kept": 7134,
      "▁former": 7135,
      "ium": 7136,
      "IT": 7137,
      "enn": 7138,
      "▁Pe": 7139,
      "▁ann": 7140,
      "arb": 7141,
      "attle": 7142,
      "ressed": 7143,
      "▁exc": 7144,
      "ze": 7145,
      "▁France": 7146,
      "▁ris": 7147,
      "▁dang": 7148,
      "▁eng": 7149,
      "▁cast": 7150,
      "▁book": 7151,
      "▁line": 7152,
      "▁Ant": 7153,
      "peci": 7154,
      "es;": 7155,
      "cent": 7156,
      "▁letter": 7157,
      "amm": 7158,
      "cient": 7159,
      "▁qu'": 7160,
      "▁nearly": 7161,
      "atch": 7162,
      "▁remark": 7163,
      "▁remain": 7164,
      "▁British": 7165,
      "▁grand": 7166,
      "▁horse": 7167,
      "reme": 7168,
      "ances": 7169,
      "aught": 7170,
      "▁west": 7171,
      "ado": 7172,
      "▁May": 7173,
      "▁tro": 7174,
      "US": 7175,
      "ified": 7176,
      "unic": 7177,
      "▁treat": 7178,
      "ilt": 7179,
      "▁twenty": 7180,
      "▁[Illustration:": 7181,
      "▁(s": 7182,
      "▁[Footnote": 7183,
      "▁occup": 7184,
      "ning": 7185,
      "▁appeared": 7186,
      "ets": 7187,
      "▁bank": 7188,
      "▁(2003": 7189,
      "▁making": 7190,
      "rab": 7191,
      "43": 7192,
      "▁orig": 7193,
      "▁Ag": 7194,
      "▁is,": 7195,
      "▁Fl": 7196,
      "▁list": 7197,
      "▁Gr": 7198,
      "▁times": 7199,
      "IC": 7200,
      "▁blood": 7201,
      "▁Ju": 7202,
      "▁forest": 7203,
      "▁nature": 7204,
      "▁pap": 7205,
      "▁stat": 7206,
      "▁dans": 7207,
      "ump": 7208,
      "▁beautiful": 7209,
      "il,": 7210,
      "or.": 7211,
      "▁sometimes": 7212,
      "▁Can": 7213,
      "▁writ": 7214,
      "▁22": 7215,
      "able,": 7216,
      "▁animal": 7217,
      "▁(2006": 7218,
      "▁month": 7219,
      "▁herself": 7220,
      "▁Cour": 7221,
      "▁carried": 7222,
      "▁free": 7223,
      "▁sett": 7224,
      "▁compar": 7225,
      "urd": 7226,
      "▁which,": 7227,
      "▁condition": 7228,
      "oe": 7229,
      "▁super": 7230,
      "▁_v": 7231,
      "▁«": 7232,
      "▁Mrs.": 7233,
      "▁pet": 7234,
      "▁hope": 7235,
      "▁unc": 7236,
      "ken": 7237,
      "ected": 7238,
      "▁mere": 7239,
      ".]": 7240,
      "▁\"What": 7241,
      "▁Pl": 7242,
      "ron": 7243,
      "ous,": 7244,
      "af": 7245,
      "▁god": 7246,
      "ents": 7247,
      "▁coast": 7248,
      "imate": 7249,
      "ivil": 7250,
      "over": 7251,
      "cend": 7252,
      "▁ty": 7253,
      "lf": 7254,
      "▁service": 7255,
      "▁wish": 7256,
      "▁jour": 7257,
      "itude": 7258,
      "▁nar": 7259,
      "ks": 7260,
      "▁received": 7261,
      "▁position": 7262,
      "▁able": 7263,
      "ead": 7264,
      "rying": 7265,
      "▁build": 7266,
      "erence": 7267,
      "wh": 7268,
      "▁move": 7269,
      ".S.": 7270,
      "▁Russ": 7271,
      "▁Government": 7272,
      "▁mad": 7273,
      "▁sea": 7274,
      "▁early": 7275,
      "▁miles": 7276,
      "AD": 7277,
      "▁24": 7278,
      "▁character": 7279,
      "▁squ": 7280,
      "isc": 7281,
      "▁rev": 7282,
      "▁gone": 7283,
      "ruction": 7284,
      "▁anything": 7285,
      "▁inform": 7286,
      "▁question": 7287,
      "cean": 7288,
      "▁growth": 7289,
      "▁Dem": 7290,
      "inct": 7291,
      "ards": 7292,
      "ocr": 7293,
      "aved": 7294,
      "br": 7295,
      "▁fine": 7296,
      "▁Islands": 7297,
      "it,": 7298,
      "ius": 7299,
      "▁tou": 7300,
      "ils": 7301,
      "ivers": 7302,
      "i>": 7303,
      "▁hair": 7304,
      "▁Ital": 7305,
      "Wh": 7306,
      "dom": 7307,
      "▁then,": 7308,
      "▁fif": 7309,
      "aughter": 7310,
      "▁Sw": 7311,
      "▁23": 7312,
      "ush": 7313,
      "▁med": 7314,
      "ustom": 7315,
      "rodu": 7316,
      "urg": 7317,
      "ught": 7318,
      "▁hast": 7319,
      "ony": 7320,
      "▁president": 7321,
      "▁returned": 7322,
      "▁corn": 7323,
      "orrow": 7324,
      "AS": 7325,
      "A,": 7326,
      "▁latter": 7327,
      "▁fill": 7328,
      "▁reached": 7329,
      "hest": 7330,
      "oon": 7331,
      "lled": 7332,
      "▁incre": 7333,
      "▁bed": 7334,
      "▁pay": 7335,
      "▁military": 7336,
      "▁soul": 7337,
      "▁St.": 7338,
      "▁priv": 7339,
      "▁Of": 7340,
      "ome,": 7341,
      "les,": 7342,
      "▁hur": 7343,
      "eder": 7344,
      "▁road": 7345,
      "▁eight": 7346,
      "▁understand": 7347,
      "▁alone": 7348,
      "▁immedi": 7349,
      "▁members": 7350,
      "▁mot": 7351,
      "▁Port": 7352,
      "ists": 7353,
      "▁Char": 7354,
      "▁obl": 7355,
      "ary,": 7356,
      "▁perfect": 7357,
      "ask": 7358,
      "▁Tur": 7359,
      "s/1,000": 7360,
      "ctor": 7361,
      "▁CHAP": 7362,
      "idence": 7363,
      "▁pract": 7364,
      "▁desp": 7365,
      "▁creat": 7366,
      "▁sleep": 7367,
      "▁looking": 7368,
      "▁proceed": 7369,
      "▁25": 7370,
      "▁fac": 7371,
      "ining": 7372,
      ".'": 7373,
      "ch,": 7374,
      "isf": 7375,
      "ane": 7376,
      "▁Pres": 7377,
      "▁sq": 7378,
      "▁jo": 7379,
      "gar": 7380,
      "▁slight": 7381,
      "▁period": 7382,
      "▁plain": 7383,
      "▁field": 7384,
      "ox": 7385,
      "val": 7386,
      "▁comple": 7387,
      "▁cried": 7388,
      "▁step": 7389,
      "ored": 7390,
      "▁sight": 7391,
      "itical": 7392,
      "▁exper": 7393,
      "▁San": 7394,
      "ointed": 7395,
      "RE": 7396,
      "▁entire": 7397,
      "that": 7398,
      "▁draw": 7399,
      "▁_v._": 7400,
      "na": 7401,
      "1]": 7402,
      "▁bene": 7403,
      "▁ant": 7404,
      "▁length": 7405,
      "▁21": 7406,
      "▁excl": 7407,
      "hab": 7408,
      "▁across": 7409,
      "ID": 7410,
      "▁sac": 7411,
      "ians": 7412,
      "resh": 7413,
      "▁From": 7414,
      "▁dear": 7415,
      "ipp": 7416,
      "7)": 7417,
      "▁broad": 7418,
      "▁attempt": 7419,
      "▁led": 7420,
      "▁followed": 7421,
      "▁employ": 7422,
      "▁4.": 7423,
      "▁Mad": 7424,
      "▁peace": 7425,
      "▁s'": 7426,
      "▁sal": 7427,
      "▁quar": 7428,
      "▁Will": 7429,
      "▁chang": 7430,
      "ges": 7431,
      "49": 7432,
      "▁sir": 7433,
      "▁cold": 7434,
      "▁bod": 7435,
      "▁quick": 7436,
      "▁trib": 7437,
      "▁hors": 7438,
      "▁Pet": 7439,
      "▁further": 7440,
      "in'": 7441,
      "▁States": 7442,
      "▁bad": 7443,
      "▁cre": 7444,
      "▁her.": 7445,
      "icient": 7446,
      "▁cause": 7447,
      "▁replied": 7448,
      "▁attack": 7449,
      "ón": 7450,
      "▁3.": 7451,
      "▁Not": 7452,
      "ers.": 7453,
      "▁Nor": 7454,
      "89": 7455,
      "▁family": 7456,
      "▁centur": 7457,
      "(s)/female": 7458,
      "▁saf": 7459,
      "▁male(s)/female": 7460,
      "▁AN": 7461,
      "ed;": 7462,
      "ogn": 7463,
      "▁acqu": 7464,
      "▁win": 7465,
      "0,": 7466,
      "yr": 7467,
      "iqu": 7468,
      "IL": 7469,
      "▁American": 7470,
      "▁claim": 7471,
      "igr": 7472,
      "▁bit": 7473,
      "▁big": 7474,
      "▁maj": 7475,
      "▁imag": 7476,
      "gu": 7477,
      "▁dé": 7478,
      "EL": 7479,
      "▁post": 7480,
      "▁seems": 7481,
      "alth": 7482,
      "pid": 7483,
      "▁day,": 7484,
      "▁answered": 7485,
      "istr": 7486,
      "▁CHAPTER": 7487,
      "oly": 7488,
      "for": 7489,
      "▁necessary": 7490,
      "5)": 7491,
      "▁arri": 7492,
      "▁Some": 7493,
      "ies.": 7494,
      "vere": 7495,
      "in.": 7496,
      "ature": 7497,
      "▁school": 7498,
      "▁placed": 7499,
      "▁ét": 7500,
      "ios": 7501,
      "ada": 7502,
      "▁Mal": 7503,
      "el,": 7504,
      "▁was,": 7505,
      "▁main": 7506,
      "▁direct": 7507,
      "▁purpose": 7508,
      "▁true": 7509,
      "▁coming": 7510,
      "▁really": 7511,
      "p.": 7512,
      "ience": 7513,
      "▁pri": 7514,
      "▁develop": 7515,
      "64": 7516,
      "▁mountain": 7517,
      "pond": 7518,
      "▁visit": 7519,
      "rem": 7520,
      "▁rid": 7521,
      "▁langu": 7522,
      "uary": 7523,
      "ighb": 7524,
      "▁Min": 7525,
      "▁distance": 7526,
      "ouncil": 7527,
      "erous": 7528,
      "▁caus": 7529,
      "▁U.S.": 7530,
      "▁Was": 7531,
      "▁voice": 7532,
      "umb": 7533,
      "▁(20": 7534,
      "▁product": 7535,
      "C,": 7536,
      "▁fight": 7537,
      "▁Saint": 7538,
      "▁Que": 7539,
      "▁according": 7540,
      "▁Pol": 7541,
      "irt": 7542,
      "▁yell": 7543,
      "▁secret": 7544,
      "ports": 7545,
      "rel": 7546,
      "▁Don": 7547,
      "ator": 7548,
      "▁neighb": 7549,
      "OM": 7550,
      "reng": 7551,
      "▁\"C": 7552,
      "▁mouth": 7553,
      "▁fle": 7554,
      "▁dro": 7555,
      "U,": 7556,
      "arp": 7557,
      "IV": 7558,
      "where": 7559,
      "rid": 7560,
      "▁stre": 7561,
      "band": 7562,
      "▁else": 7563,
      "y;": 7564,
      "estic": 7565,
      "▁hus": 7566,
      "ING": 7567,
      "itting": 7568,
      "▁scar": 7569,
      "▁Roman": 7570,
      "y's": 7571,
      "▁taking": 7572,
      "▁foreign": 7573,
      "▁civil": 7574,
      "--the": 7575,
      "▁mist": 7576,
      "yl": 7577,
      "▁Cong": 7578,
      "04": 7579,
      "▁action": 7580,
      "inary": 7581,
      "▁_S": 7582,
      "▁conv": 7583,
      "reg": 7584,
      "▁26": 7585,
      "▁hand,": 7586,
      "▁pict": 7587,
      "▁exam": 7588,
      "ination": 7589,
      "ster": 7590,
      "I.": 7591,
      "iam": 7592,
      "▁Land": 7593,
      "▁perhaps": 7594,
      "▁circum": 7595,
      "▁surpr": 7596,
      "▁direction": 7597,
      "▁dut": 7598,
      "▁later": 7599,
      "▁Air": 7600,
      "s,\"": 7601,
      "▁strange": 7602,
      "▁manner": 7603,
      "▁Bel": 7604,
      "inc": 7605,
      "▁band": 7606,
      "nder": 7607,
      "▁ran": 7608,
      "▁wonder": 7609,
      "▁generally": 7610,
      "▁top": 7611,
      "▁bey": 7612,
      "rif": 7613,
      "aff": 7614,
      "▁Re": 7615,
      "▁wife": 7616,
      "ching": 7617,
      "uf": 7618,
      "▁agricult": 7619,
      "▁af": 7620,
      "▁various": 7621,
      "uted": 7622,
      "▁conn": 7623,
      "▁agre": 7624,
      "ilar": 7625,
      "**": 7626,
      "▁imm": 7627,
      "▁fut": 7628,
      "▁o'": 7629,
      "▁vict": 7630,
      "▁meas": 7631,
      "▁says": 7632,
      "▁beyond": 7633,
      "▁Aug": 7634,
      "pecially": 7635,
      "▁tend": 7636,
      "▁dream": 7637,
      "▁opin": 7638,
      "▁thick": 7639,
      "▁satisf": 7640,
      "▁ge": 7641,
      "cious": 7642,
      "▁streng": 7643,
      "▁fast": 7644,
      "a;": 7645,
      "▁reach": 7646,
      "▁plus": 7647,
      "isl": 7648,
      "ett": 7649,
      "▁Lond": 7650,
      "lo": 7651,
      "▁belong": 7652,
      "▁occasion": 7653,
      "oured": 7654,
      "cell": 7655,
      "20": 7656,
      "outhern": 7657,
      "ador": 7658,
      "▁worth": 7659,
      "▁President": 7660,
      "▁city": 7661,
      "▁ye": 7662,
      "▁forward": 7663,
      "a_": 7664,
      "▁local": 7665,
      "gypt": 7666,
      "▁repe": 7667,
      "▁below": 7668,
      "urb": 7669,
      "▁laid": 7670,
      "▁trad": 7671,
      "ham": 7672,
      "▁entered": 7673,
      "▁thir": 7674,
      "▁27": 7675,
      "▁Geor": 7676,
      "▁viol": 7677,
      "▁probably": 7678,
      "ixed": 7679,
      "▁conse": 7680,
      "▁\"And": 7681,
      "▁women": 7682,
      "▁Im": 7683,
      "▁support": 7684,
      "ounded": 7685,
      "-n": 7686,
      "▁kWh": 7687,
      "ure.": 7688,
      "▁expend": 7689,
      "ompan": 7690,
      "▁frequent": 7691,
      "▁Co": 7692,
      "▁relig": 7693,
      "eneral": 7694,
      "▁money": 7695,
      "▁alt": 7696,
      "▁continued": 7697,
      "▁bord": 7698,
      "ot,": 7699,
      "▁us,": 7700,
      "▁species": 7701,
      "what": 7702,
      "▁Mont": 7703,
      "ard,": 7704,
      "▁say,": 7705,
      "▁neg": 7706,
      "▁branch": 7707,
      "ille": 7708,
      "ether": 7709,
      "ton": 7710,
      "▁note:": 7711,
      "-g": 7712,
      "▁pen": 7713,
      "▁men,": 7714,
      "▁5.": 7715,
      "▁break": 7716,
      "▁longer": 7717,
      "._,": 7718,
      "▁this,": 7719,
      "▁again,": 7720,
      "31": 7721,
      "▁up,": 7722,
      "▁important": 7723,
      "▁situ": 7724,
      "emb": 7725,
      "▁n'": 7726,
      "▁although": 7727,
      "▁aut": 7728,
      "head": 7729,
      "▁production": 7730,
      "iously": 7731,
      "▁week": 7732,
      "▁28": 7733,
      "ingu": 7734,
      "▁ma": 7735,
      "▁influ": 7736,
      "ire,": 7737,
      "▁form:": 7738,
      "▁depart": 7739,
      "▁daughter": 7740,
      "AM": 7741,
      "▁gun": 7742,
      "▁State": 7743,
      "k,": 7744,
      "▁Ocean": 7745,
      "LE": 7746,
      "▁Now": 7747,
      "▁cra": 7748,
      "▁covered": 7749,
      "ames": 7750,
      "▁Ne": 7751,
      "▁vote": 7752,
      "▁court": 7753,
      "▁greater": 7754,
      "at.": 7755,
      "▁territ": 7756,
      "▁husband": 7757,
      "like": 7758,
      "erc": 7759,
      "▁international": 7760,
      "▁IC": 7761,
      "▁oblig": 7762,
      "ging": 7763,
      "▁Egypt": 7764,
      "▁third": 7765,
      "aba": 7766,
      "▁green": 7767,
      "erve": 7768,
      "▁why": 7769,
      "▁I'm": 7770,
      "enc": 7771,
      "orthern": 7772,
      "antic": 7773,
      "ates,": 7774,
      "▁years:": 7775,
      "▁\"But": 7776,
      "▁Oct": 7777,
      "le.": 7778,
      "ots": 7779,
      "▁separ": 7780,
      "▁demand": 7781,
      "uct": 7782,
      "▁mort": 7783,
      "u,": 7784,
      "▁proper": 7785,
      "▁bott": 7786,
      "▁describ": 7787,
      "ui": 7788,
      "▁quiet": 7789,
      "▁sense": 7790,
      "▁hop": 7791,
      "▁Court": 7792,
      "▁late": 7793,
      "▁slow": 7794,
      "▁mention": 7795,
      "▁hy": 7796,
      "▁shad": 7797,
      "ando": 7798,
      "▁flo": 7799,
      "ette": 7800,
      "▁Tr": 7801,
      "▁lie": 7802,
      "used": 7803,
      "iver": 7804,
      "ice.": 7805,
      "▁mal": 7806,
      "▁ready": 7807,
      "▁\"L": 7808,
      "▁living": 7809,
      "▁Greek": 7810,
      "▁convent": 7811,
      "▁prison": 7812,
      "▁Arab": 7813,
      "▁Ed": 7814,
      "▁pain": 7815,
      "▁IN": 7816,
      "UR": 7817,
      "▁idea": 7818,
      "▁send": 7819,
      "▁thee": 7820,
      "ivid": 7821,
      "▁Phil": 7822,
      "icial": 7823,
      "uel": 7824,
      "ocratic": 7825,
      "▁pu": 7826,
      "▁especially": 7827,
      "▁\"G": 7828,
      "ness,": 7829,
      "ode": 7830,
      "--\"": 7831,
      "▁rapid": 7832,
      "'re": 7833,
      "▁expendit": 7834,
      "70": 7835,
      "▁(m": 7836,
      "-y": 7837,
      "ét": 7838,
      "8)": 7839,
      "hy": 7840,
      "▁station": 7841,
      "▁soft": 7842,
      "ality": 7843,
      "ston": 7844,
      "ers:": 7845,
      "30": 7846,
      "est,": 7847,
      "uous": 7848,
      "▁parts": 7849,
      ".\"--_": 7850,
      "▁Count": 7851,
      "▁lower": 7852,
      "▁pow": 7853,
      "ports:": 7854,
      "lephone": 7855,
      "ustral": 7856,
      "ION": 7857,
      "60": 7858,
      "antly": 7859,
      "ame,": 7860,
      "▁consum": 7861,
      "▁highest": 7862,
      "▁mu": 7863,
      "ras": 7864,
      "=,": 7865,
      "▁recogn": 7866,
      "ance.": 7867,
      "▁inhab": 7868,
      "▁contr": 7869,
      "▁accept": 7870,
      "▁resol": 7871,
      "▁elected": 7872,
      "ois": 7873,
      "aient": 7874,
      "▁remained": 7875,
      "▁Ma": 7876,
      "▁capital": 7877,
      "iers": 7878,
      "ment.": 7879,
      "▁Const": 7880,
      "▁(2004": 7881,
      "▁:": 7882,
      "bled": 7883,
      "ter,": 7884,
      "▁shore": 7885,
      "▁single": 7886,
      "▁degre": 7887,
      "▁group": 7888,
      "▁sand": 7889,
      "▁circumst": 7890,
      "▁gard": 7891,
      "ires": 7892,
      "mb": 7893,
      "face": 7894,
      "▁appointed": 7895,
      "80": 7896,
      "▁wit": 7897,
      "ED": 7898,
      "ays": 7899,
      "________________": 7900,
      "▁forth": 7901,
      "erb": 7902,
      "oes": 7903,
      "▁ang": 7904,
      "ence.": 7905,
      "▁comb": 7906,
      "▁31": 7907,
      "▁Je": 7908,
      "▁rich": 7909,
      "bert": 7910,
      "▁prev": 7911,
      "ana": 7912,
      "rang": 7913,
      "▁complete": 7914,
      "inning": 7915,
      "▁lord": 7916,
      "▁2010": 7917,
      "▁(since": 7918,
      "▁male:": 7919,
      "omin": 7920,
      "ha": 7921,
      "▁out,": 7922,
      "▁August": 7923,
      "▁eat": 7924,
      "bly": 7925,
      "▁troop": 7926,
      "▁Military": 7927,
      "son": 7928,
      "▁tail": 7929,
      "▁change": 7930,
      "▁stream": 7931,
      "▁ell": 7932,
      "▁expenditures": 7933,
      "▁there,": 7934,
      "▁Sm": 7935,
      "▁now,": 7936,
      "▁class": 7937,
      "▁deaths/1,000": 7938,
      "al.": 7939,
      "▁self": 7940,
      "▁female:": 7941,
      "itten": 7942,
      "▁(2000": 7943,
      "▁bas": 7944,
      "▁ought": 7945,
      "CT": 7946,
      "hood": 7947,
      "an.": 7948,
      "▁concern": 7949,
      "ization": 7950,
      "on't": 7951,
      "ite,": 7952,
      "body": 7953,
      "ushed": 7954,
      "rible": 7955,
      "▁prep": 7956,
      "▁all,": 7957,
      "▁one,": 7958,
      "▁Li": 7959,
      "▁gen": 7960,
      "ise,": 7961,
      "▁neither": 7962,
      "▁killed": 7963,
      "▁ancient": 7964,
      "▁event": 7965,
      "▁govern": 7966,
      "gin": 7967,
      "▁blue": 7968,
      "fl": 7969,
      "inet": 7970,
      "ia.": 7971,
      "▁rose": 7972,
      "▁arms": 7973,
      "ternal": 7974,
      "▁purs": 7975,
      "▁evening": 7976,
      "owing": 7977,
      "ciet": 7978,
      "aged": 7979,
      "▁una": 7980,
      "rict": 7981,
      "▁domestic": 7982,
      "ledge": 7983,
      "▁independ": 7984,
      "▁sufficient": 7985,
      "ising": 7986,
      "er's": 7987,
      "▁Sept": 7988,
      "▁compl": 7989,
      "▁East": 7990,
      "Ar": 7991,
      "▁conce": 7992,
      "▁York": 7993,
      "▁House": 7994,
      "▁29": 7995,
      "▁_C": 7996,
      "▁Maj": 7997,
      "▁wide": 7998,
      "cho": 7999,
      "▁colour": 8000,
      "ally,": 8001,
      "▁Austral": 8002,
      "5%": 8003,
      "▁S.": 8004,
      "ue,": 8005,
      "▁sin": 8006,
      "▁narrow": 8007,
      "off": 8008,
      "▁glad": 8009,
      "arr": 8010,
      "▁feeling": 8011,
      "ening": 8012,
      ",000,000": 8013,
      "▁cit": 8014,
      "uge": 8015,
      "▁6.": 8016,
      "ney": 8017,
      "▁January": 8018,
      "able.": 8019,
      "▁organ": 8020,
      "▁NA%": 8021,
      "ently": 8022,
      "der": 8023,
      "3]": 8024,
      "roy": 8025,
      "▁sens": 8026,
      "▁Here": 8027,
      "▁fresh": 8028,
      "por": 8029,
      "40": 8030,
      "▁of,": 8031,
      "oose": 8032,
      "▁princip": 8033,
      "▁enj": 8034,
      "▁fellow": 8035,
      "OL": 8036,
      "but": 8037,
      "ift": 8038,
      "oir": 8039,
      "▁occur": 8040,
      "rand": 8041,
      "asing": 8042,
      "▁toward": 8043,
      "vell": 8044,
      "▁church": 8045,
      "▁See": 8046,
      "ae": 8047,
      "▁burn": 8048,
      "▁aid": 8049,
      "▁doll": 8050,
      "▁perm": 8051,
      "str": 8052,
      "▁breat": 8053,
      "room": 8054,
      "ée": 8055,
      "▁warm": 8056,
      "by": 8057,
      "▁suc": 8058,
      "▁Du": 8059,
      "age.": 8060,
      "▁crow": 8061,
      "ari": 8062,
      "ara": 8063,
      "itive": 8064,
      "▁story": 8065,
      "wo": 8066,
      "▁sweet": 8067,
      "▁October": 8068,
      "ton,": 8069,
      "▁similar": 8070,
      "▁appl": 8071,
      "▁effort": 8072,
      "▁faith": 8073,
      "iant": 8074,
      "▁Christian": 8075,
      "▁Apr": 8076,
      "én": 8077,
      "▁capt": 8078,
      "▁Sch": 8079,
      "▁host": 8080,
      "ory,": 8081,
      "▁00": 8082,
      "▁forg": 8083,
      "ovember": 8084,
      "ations,": 8085,
      "ions,": 8086,
      "▁gas": 8087,
      "▁hung": 8088,
      "▁tod": 8089,
      "▁formed": 8090,
      "▁minutes": 8091,
      "um,": 8092,
      "▁mor": 8093,
      "alley": 8094,
      "yn": 8095,
      "aring": 8096,
      "▁sto": 8097,
      "▁stay": 8098,
      "vir": 8099,
      "▁March": 8100,
      "▁brown": 8101,
      "▁Great": 8102,
      "▁gri": 8103,
      "land,": 8104,
      "▁eye": 8105,
      "with": 8106,
      "anced": 8107,
      "▁seven": 8108,
      "▁life,": 8109,
      "▁said.": 8110,
      "▁too,": 8111,
      "▁mass": 8112,
      "▁mater": 8113,
      "▁\"P": 8114,
      "▁hunt": 8115,
      "▁(f": 8116,
      "▁it's": 8117,
      "▁assist": 8118,
      "▁custom": 8119,
      "#_": 8120,
      "side": 8121,
      "▁immediately": 8122,
      "▁capit": 8123,
      "hel": 8124,
      "▁who,": 8125,
      "bass": 8126,
      "▁prevent": 8127,
      "▁_#_": 8128,
      "▁enter": 8129,
      "▁sad": 8130,
      "▁economic": 8131,
      "ide.": 8132,
      "ante": 8133,
      "▁pray": 8134,
      "ument": 8135,
      "▁A.": 8136,
      "▁depend": 8137,
      "▁popular": 8138,
      "▁remember": 8139,
      "idered": 8140,
      "ated,": 8141,
      "lem": 8142,
      "▁truth": 8143,
      "▁he,": 8144,
      "▁process": 8145,
      "▁Cal": 8146,
      "▁Pop": 8147,
      "▁delight": 8148,
      "▁\"Yes,": 8149,
      "teen": 8150,
      "ror": 8151,
      "▁Elect": 8152,
      "▁business": 8153,
      "▁\"the": 8154,
      "▁_A": 8155,
      "imb": 8156,
      "ama": 8157,
      "ique": 8158,
      "▁_s": 8159,
      "▁heavy": 8160,
      "▁mag": 8161,
      "rest": 8162,
      "liament": 8163,
      "▁opened": 8164,
      "▁suddenly": 8165,
      "▁tried": 8166,
      "ested": 8167,
      "▁Do": 8168,
      "▁Mor": 8169,
      "ume": 8170,
      "12": 8171,
      "▁I'll": 8172,
      "▁an'": 8173,
      "▁oper": 8174,
      "ricity": 8175,
      "▁native": 8176,
      "88": 8177,
      "▁ves": 8178,
      "▁yellow": 8179,
      "pic": 8180,
      "▁deal": 8181,
      "▁iss": 8182,
      "▁friends": 8183,
      "▁fat": 8184,
      "▁rain": 8185,
      "cher": 8186,
      "ley": 8187,
      "▁Me": 8188,
      "▁AND": 8189,
      "▁design": 8190,
      "tt": 8191,
      "kn": 8192,
      "gress": 8193,
      "cri": 8194,
      "▁habit": 8195,
      "▁sugg": 8196,
      "▁_P": 8197,
      "ás": 8198,
      "ways:": 8199,
      "▁hours": 8200,
      "ico": 8201,
      "▁July": 8202,
      "fer": 8203,
      "well": 8204,
      "▁ré": 8205,
      "obs": 8206,
      "▁plant": 8207,
      "▁reven": 8208,
      "▁anx": 8209,
      "▁hot": 8210,
      "ortun": 8211,
      "▁intell": 8212,
      "▁east": 8213,
      "▁sav": 8214,
      "▁tear": 8215,
      "▁succeed": 8216,
      "▁desert": 8217,
      "▁(1999": 8218,
      "▁indeed": 8219,
      "▁sister": 8220,
      "▁spoke": 8221,
      "▁night,": 8222,
      "▁tout": 8223,
      "▁non": 8224,
      "lev": 8225,
      "▁died": 8226,
      "▁services": 8227,
      "▁FA": 8228,
      "▁mach": 8229,
      "▁countries": 8230,
      "▁Washing": 8231,
      "▁imposs": 8232,
      "ady": 8233,
      "▁scarce": 8234,
      "▁everything": 8235,
      "▁neck": 8236,
      "▁{": 8237,
      "▁egg": 8238,
      "--and": 8239,
      "▁November": 8240,
      "▁enjoy": 8241,
      "▁convers": 8242,
      "▁General": 8243,
      "▁100": 8244,
      "▁bell": 8245,
      "ie,": 8246,
      "▁Gre": 8247,
      "▁major": 8248,
      "▁affair": 8249,
      "▁again.": 8250,
      "rig": 8251,
      "tre": 8252,
      "aul": 8253,
      "king": 8254,
      "▁Econom": 8255,
      "▁on,": 8256,
      "▁Span": 8257,
      "▁land:": 8258,
      "▁surface": 8259,
      "▁window": 8260,
      "▁struck": 8261,
      "):": 8262,
      "▁joy": 8263,
      "rill": 8264,
      "▁bright": 8265,
      "▁way,": 8266,
      "ministr": 8267,
      "▁makes": 8268,
      "▁exact": 8269,
      "▁so,": 8270,
      "▁paint": 8271,
      "ray": 8272,
      "elle": 8273,
      "▁determ": 8274,
      "▁Ter": 8275,
      "▁pun": 8276,
      "▁battle": 8277,
      "▁fit": 8278,
      "▁Inde": 8279,
      "▁inn": 8280,
      "▁arch": 8281,
      "▁political": 8282,
      "ère": 8283,
      "▁plan": 8284,
      "▁time.": 8285,
      "hod": 8286,
      "▁minister": 8287,
      "ua": 8288,
      "▁Ap": 8289,
      "▁Democratic": 8290,
      "▁comes": 8291,
      "▁Bur": 8292,
      "▁spec": 8293,
      "▁\"Th": 8294,
      "</": 8295,
      "▁press": 8296,
      "▁guard": 8297,
      "▁water,": 8298,
      "▁á": 8299,
      "▁vessel": 8300,
      "AC": 8301,
      "man,": 8302,
      "▁Let": 8303,
      "▁weak": 8304,
      "▁prim": 8305,
      "▁Des": 8306,
      "▁ave": 8307,
      "▁32": 8308,
      "▁extra": 8309,
      "▁cru": 8310,
      "atever": 8311,
      "amer": 8312,
      "▁population:": 8313,
      "▁15-": 8314,
      "▁Mac": 8315,
      "▁&c.": 8316,
      "▁farm": 8317,
      "▁individ": 8318,
      "rupt": 8319,
      "▁Hen": 8320,
      "▁exec": 8321,
      "aries": 8322,
      "▁due": 8323,
      "▁June": 8324,
      "▁caught": 8325,
      "▁including": 8326,
      "▁\"He": 8327,
      "▁Pal": 8328,
      "▁suppose": 8329,
      "▁country,": 8330,
      "▁indust": 8331,
      "viron": 8332,
      "▁Natural": 8333,
      "▁distingu": 8334,
      "▁you.": 8335,
      "▁Prot": 8336,
      "amber": 8337,
      "▁himself,": 8338,
      "▁\"That": 8339,
      "▁Jack": 8340,
      "▁carry": 8341,
      "▁gall": 8342,
      "▁lived": 8343,
      "▁impro": 8344,
      "▁not,": 8345,
      "▁<": 8346,
      "ur,": 8347,
      "▁inqu": 8348,
      "-S": 8349,
      "▁vous": 8350,
      "wise": 8351,
      "▁birds": 8352,
      "lished": 8353,
      "▁Cent": 8354,
      "▁4,": 8355,
      "▁hero": 8356,
      "▁drink": 8357,
      "▁surr": 8358,
      "▁middle": 8359,
      "▁inhabit": 8360,
      "▁upper": 8361,
      "▁como": 8362,
      "acy": 8363,
      "▁mann": 8364,
      "ples": 8365,
      "zz": 8366,
      "▁cat": 8367,
      "▁Council": 8368,
      "▁perman": 8369,
      "▁stone": 8370,
      "▁usual": 8371,
      "▁\"F": 8372,
      "▁certainly": 8373,
      "▁hous": 8374,
      "rag": 8375,
      "▁Bar": 8376,
      "bre": 8377,
      "▁chair": 8378,
      "▁introdu": 8379,
      "istic": 8380,
      "RO": 8381,
      "ls": 8382,
      "▁September": 8383,
      "▁answer": 8384,
      "▁pretty": 8385,
      "▁Lou": 8386,
      "▁comparison": 8387,
      "▁arrived": 8388,
      "▁army": 8389,
      "aux": 8390,
      "IG": 8391,
      "as.": 8392,
      "▁considered": 8393,
      "bb": 8394,
      "athe": 8395,
      "▁para": 8396,
      "▁persons": 8397,
      "▁cult": 8398,
      "▁pot": 8399,
      "ency": 8400,
      "aud": 8401,
      "▁knowledge": 8402,
      "▁Sl": 8403,
      "▁artic": 8404,
      "▁fun": 8405,
      "▁dry": 8406,
      "▁tree": 8407,
      "▁Their": 8408,
      "▁nous": 8409,
      "▁People": 8410,
      "▁`": 8411,
      "▁colon": 8412,
      "▁oil": 8413,
      "▁arriv": 8414,
      "anz": 8415,
      "▁famil": 8416,
      "▁percent": 8417,
      "▁sail": 8418,
      "▁cloud": 8419,
      "ata": 8420,
      "▁seeing": 8421,
      "▁European": 8422,
      "▁equal": 8423,
      "▁easily": 8424,
      "▁house,": 8425,
      "▁purch": 8426,
      "▁can't": 8427,
      "ma": 8428,
      "▁drew": 8429,
      "▁Jap": 8430,
      "▁maint": 8431,
      "▁migr": 8432,
      "osp": 8433,
      "▁horses": 8434,
      "TH": 8435,
      "▁place,": 8436,
      "▁mut": 8437,
      "▁iron": 8438,
      "▁material": 8439,
      "▁impossible": 8440,
      "▁rad": 8441,
      "▁raised": 8442,
      "▁Prince": 8443,
      "▁clot": 8444,
      "▁40": 8445,
      "usion": 8446,
      "▁65": 8447,
      "▁instead": 8448,
      "uls": 8449,
      "▁discovered": 8450,
      "aped": 8451,
      "▁Captain": 8452,
      "ure:": 8453,
      "▁2006": 8454,
      "▁trees": 8455,
      "▁Electricity": 8456,
      "E,": 8457,
      "▁individual": 8458,
      "▁evident": 8459,
      "▁usually": 8460,
      "ours": 8461,
      "▁Bra": 8462,
      "▁Sy": 8463,
      "▁rend": 8464,
      "▁Just": 8465,
      "udd": 8466,
      "▁becom": 8467,
      "ler": 8468,
      "change": 8469,
      "▁sharp": 8470,
      "▁save": 8471,
      "▁advant": 8472,
      "▁(male": 8473,
      "▁report": 8474,
      "jo": 8475,
      "appe": 8476,
      "▁fing": 8477,
      "e,\"": 8478,
      "'ve": 8479,
      "▁Feb": 8480,
      "ile,": 8481,
      "ica": 8482,
      "▁mission": 8483,
      "▁rat": 8484,
      "▁trouble": 8485,
      "▁(c": 8486,
      "UN": 8487,
      "istan": 8488,
      "ests": 8489,
      "▁cost": 8490,
      "ss": 8491,
      "▁national": 8492,
      "▁grew": 8493,
      "mp": 8494,
      "▁size": 8495,
      "bs": 8496,
      "▁ll": 8497,
      "abor": 8498,
      "▁aqu": 8499,
      "▁sword": 8500,
      "▁hat": 8501,
      "11": 8502,
      "▁crowd": 8503,
      "icked": 8504,
      "our,": 8505,
      "▁\"Oh,": 8506,
      "ine.": 8507,
      "isp": 8508,
      "▁descend": 8509,
      "▁here,": 8510,
      "▁Thus": 8511,
      "▁Union": 8512,
      "▁pros": 8513,
      "▁lady": 8514,
      "▁cou": 8515,
      "▁'I": 8516,
      "lex": 8517,
      "▁strength": 8518,
      "ulf": 8519,
      "▁lat": 8520,
      "▁km,": 8521,
      "▁carri": 8522,
      "▁\"We": 8523,
      "▁established": 8524,
      "▁cry": 8525,
      "ped": 8526,
      "▁7.": 8527,
      "▁\"Well,": 8528,
      "▁mill": 8529,
      "▁Dr.": 8530,
      "▁ships": 8531,
      "ancy": 8532,
      "▁extreme": 8533,
      "ido": 8534,
      "▁(J": 8535,
      "▁fruit": 8536,
      "ories": 8537,
      "▁furn": 8538,
      "▁subst": 8539,
      "▁(F": 8540,
      "am,": 8541,
      "▁hardly": 8542,
      "▁males": 8543,
      "▁noble": 8544,
      "bles": 8545,
      "▁table": 8546,
      "ez": 8547,
      "▁Leg": 8548,
      "et.": 8549,
      "▁pecul": 8550,
      "▁accompan": 8551,
      "▁entirely": 8552,
      "▁ho": 8553,
      "▁univers": 8554,
      "▁Mex": 8555,
      "aded": 8556,
      "ings,": 8557,
      "▁excell": 8558,
      "?'": 8559,
      "▁Lat": 8560,
      "▁attention": 8561,
      "▁broken": 8562,
      "▁oppos": 8563,
      "▁leaving": 8564,
      "▁vent": 8565,
      "l,": 8566,
      "▁somewhat": 8567,
      "▁William": 8568,
      "▁Sen": 8569,
      "▁rul": 8570,
      "▁serve": 8571,
      "▁try": 8572,
      "ate.": 8573,
      "▁bull": 8574,
      "▁piece": 8575,
      "soci": 8576,
      "87": 8577,
      "▁33": 8578,
      "▁murd": 8579,
      "▁address": 8580,
      "▁ni": 8581,
      "▁write": 8582,
      "25": 8583,
      "ily,": 8584,
      "▁_M": 8585,
      "▁industry": 8586,
      "enth": 8587,
      "▁but,": 8588,
      "ides,": 8589,
      "oom": 8590,
      "▁186": 8591,
      "▁beginning": 8592,
      "▁grass": 8593,
      "▁spot": 8594,
      "86": 8595,
      "ounds": 8596,
      "-e": 8597,
      "can": 8598,
      "▁resp": 8599,
      "▁appearance": 8600,
      "▁didn't": 8601,
      "▁Lu": 8602,
      "▁wrong": 8603,
      "▁crim": 8604,
      "▁straight": 8605,
      "▁wanted": 8606,
      "▁dread": 8607,
      "ically": 8608,
      "ess,": 8609,
      "unk": 8610,
      "eal": 8611,
      "▁trem": 8612,
      "▁parties": 8613,
      "rain": 8614,
      "itud": 8615,
      "ive,": 8616,
      "▁als": 8617,
      "uv": 8618,
      "▁bottom": 8619,
      "▁branch:": 8620,
      "▁crop": 8621,
      "▁doing": 8622,
      "▁eag": 8623,
      "▁ven": 8624,
      "▁April": 8625,
      "cast": 8626,
      "▁telephone": 8627,
      "▁watch": 8628,
      "▁game": 8629,
      "▁fem": 8630,
      "▁914": 8631,
      "▁Sal": 8632,
      "▁therefore,": 8633,
      "▁wis": 8634,
      "asc": 8635,
      "▁vers": 8636,
      "▁filled": 8637,
      "ishop": 8638,
      "▁peculiar": 8639,
      "▁apparent": 8640,
      "▁gro": 8641,
      "▁fly": 8642,
      "iend": 8643,
      "iding": 8644,
      "IR": 8645,
      "▁resour": 8646,
      "▁Guine": 8647,
      "▁bill": 8648,
      "▁standing": 8649,
      "▁perform": 8650,
      "▁nav": 8651,
      "▁Com": 8652,
      "▁merely": 8653,
      "▁shot": 8654,
      "▁history": 8655,
      "▁Mon": 8656,
      "▁_m": 8657,
      "▁Are": 8658,
      "▁comfort": 8659,
      "▁conventional": 8660,
      "hib": 8661,
      "no": 8662,
      "▁dit": 8663,
      "================================": 8664,
      "▁contro": 8665,
      "▁head,": 8666,
      "aining": 8667,
      "▁permanent": 8668,
      "▁knight": 8669,
      "▁lines": 8670,
      "▁unp": 8671,
      "ades": 8672,
      "iction": 8673,
      "▁1,52": 8674,
      "▁yourself": 8675,
      "iced": 8676,
      "▁animals": 8677,
      "▁sour": 8678,
      "▁degrees": 8679,
      "ons,": 8680,
      "isted": 8681,
      "▁observed": 8682,
      "▁(2010": 8683,
      "▁desire": 8684,
      "▁added": 8685,
      "▁ein": 8686,
      "n,": 8687,
      "ge.": 8688,
      "▁50": 8689,
      "bling": 8690,
      "▁I,": 8691,
      "arer": 8692,
      "-st": 8693,
      "ic,": 8694,
      "eds": 8695,
      "▁current": 8696,
      "▁admir": 8697,
      "▁season": 8698,
      "▁@": 8699,
      "▁propert": 8700,
      "▁in,": 8701,
      "▁bien": 8702,
      "▁it;": 8703,
      "▁giving": 8704,
      "▁other,": 8705,
      "erd": 8706,
      "15": 8707,
      "▁special": 8708,
      "▁getting": 8709,
      "▁hall": 8710,
      "▁cott": 8711,
      "▁spring": 8712,
      "lands": 8713,
      "▁village": 8714,
      "▁Vir": 8715,
      "▁trust": 8716,
      "▁fail": 8717,
      "▁considerable": 8718,
      "▁written": 8719,
      "--I": 8720,
      "▁greatest": 8721,
      "▁uns": 8722,
      "▁fro": 8723,
      "▁avec": 8724,
      "▁spread": 8725,
      "aves": 8726,
      "▁Queen": 8727,
      "ors,": 8728,
      "raid": 8729,
      "▁modern": 8730,
      "ental": 8731,
      "action": 8732,
      "▁away,": 8733,
      "elve": 8734,
      "▁ball": 8735,
      "hold": 8736,
      "▁2003": 8737,
      "▁dim": 8738,
      "▁firm": 8739,
      "▁trade": 8740,
      "vironment": 8741,
      "ce.": 8742,
      "▁star": 8743,
      "ation;": 8744,
      "▁showed": 8745,
      "▁IF": 8746,
      "▁dam": 8747,
      "ig.": 8748,
      "▁afterwards": 8749,
      "▁crown": 8750,
      "h!": 8751,
      "▁approach": 8752,
      "sembly": 8753,
      "E.": 8754,
      "▁No.": 8755,
      "▁W.": 8756,
      "▁1.0": 8757,
      "ban": 8758,
      "▁ses": 8759,
      "cing": 8760,
      "▁text": 8761,
      "▁happy": 8762,
      "▁news": 8763,
      "chant": 8764,
      "ino": 8765,
      "ent.": 8766,
      "--a": 8767,
      "▁vast": 8768,
      "▁elect": 8769,
      "▁private": 8770,
      "ises": 8771,
      "▁method": 8772,
      "▁opinion": 8773,
      "ked": 8774,
      "known": 8775,
      "▁chance": 8776,
      "acific": 8777,
      "----------------": 8778,
      "▁Int": 8779,
      "▁winter": 8780,
      "▁Law": 8781,
      "8%": 8782,
      "▁\"Wh": 8783,
      "▁us.": 8784,
      "▁mir": 8785,
      "▁communic": 8786,
      "▁absol": 8787,
      "▁snow": 8788,
      "orial": 8789,
      "▁indic": 8790,
      "lected": 8791,
      "▁seat": 8792,
      "▁temper": 8793,
      "ufact": 8794,
      "irst": 8795,
      "▁Minister": 8796,
      "-year": 8797,
      "ing;": 8798,
      "▁distinct": 8799,
      "▁hang": 8800,
      "▁Febru": 8801,
      "▁spee": 8802,
      "▁UK": 8803,
      "omatic": 8804,
      "▁descri": 8805,
      "mer": 8806,
      "▁indeed,": 8807,
      "ury": 8808,
      "arily": 8809,
      "▁IM": 8810,
      "▁places": 8811,
      "▁shown": 8812,
      "▁walked": 8813,
      "ourn": 8814,
      "▁cover": 8815,
      "ces,": 8816,
      "▁5,": 8817,
      "zen": 8818,
      "▁Nap": 8819,
      "▁pull": 8820,
      "▁conqu": 8821,
      "▁\"and": 8822,
      "65": 8823,
      "ied,": 8824,
      "is.": 8825,
      "▁boat": 8826,
      "aving": 8827,
      "▁path": 8828,
      "▁(2001)": 8829,
      "▁utter": 8830,
      "▁harm": 8831,
      "▁origin": 8832,
      "22": 8833,
      "19": 8834,
      "▁i.": 8835,
      "▁meant": 8836,
      "▁Gl": 8837,
      "han": 8838,
      "▁life.": 8839,
      "17": 8840,
      "▁strugg": 8841,
      "▁happened": 8842,
      "▁2000": 8843,
      "▁attend": 8844,
      "▁eyes,": 8845,
      "▁allowed": 8846,
      "▁exclaim": 8847,
      "▁destroy": 8848,
      "85": 8849,
      "onsie": 8850,
      "▁course,": 8851,
      "ves,": 8852,
      "▁dress": 8853,
      "▁adop": 8854,
      "▁perce": 8855,
      "▁commer": 8856,
      "rect": 8857,
      "▁High": 8858,
      "now": 8859,
      "a's": 8860,
      "ingly": 8861,
      "▁fixed": 8862,
      "13": 8863,
      "▁Ang": 8864,
      "</i>": 8865,
      "▁influence": 8866,
      "▁(P": 8867,
      "▁wished": 8868,
      "▁resem": 8869,
      "▁whatever": 8870,
      "▁magn": 8871,
      "▁built": 8872,
      "▁Where": 8873,
      "▁histor": 8874,
      "▁shout": 8875,
      "▁thirty": 8876,
      "▁Cur": 8877,
      "▁box": 8878,
      "▁afraid": 8879,
      "▁people,": 8880,
      "leg": 8881,
      "oid": 8882,
      "ences": 8883,
      "▁board": 8884,
      "▁hol": 8885,
      "▁simple": 8886,
      "▁conduct": 8887,
      "icht": 8888,
      "ès": 8889,
      "▁voy": 8890,
      "▁grave": 8891,
      "ensive": 8892,
      "lend": 8893,
      "▁inj": 8894,
      "▁gau": 8895,
      "▁quant": 8896,
      "▁beneath": 8897,
      "ese": 8898,
      "▁prince": 8899,
      "ian,": 8900,
      "▁terrible": 8901,
      "▁ign": 8902,
      "▁paid": 8903,
      "▁virt": 8904,
      "▁singular": 8905,
      "▁Il": 8906,
      "oved": 8907,
      "ige": 8908,
      "▁Sea": 8909,
      "Art": 8910,
      "▁opportun": 8911,
      "▁higher": 8912,
      "▁har": 8913,
      "you": 8914,
      "▁Di": 8915,
      "▁man.": 8916,
      "ocked": 8917,
      "▁dinn": 8918,
      "respond": 8919,
      "▁8.": 8920,
      "▁redu": 8921,
      "▁cell": 8922,
      "▁het": 8923,
      "▁Su": 8924,
      "▁scarcely": 8925,
      "oted": 8926,
      "▁D'": 8927,
      "▁India": 8928,
      "▁Sam": 8929,
      "less,": 8930,
      "▁lowest": 8931,
      "my": 8932,
      "▁weather": 8933,
      "ake,": 8934,
      "ero": 8935,
      "▁Trans": 8936,
      "7%": 8937,
      "▁spok": 8938,
      "hip": 8939,
      "olf": 8940,
      "oph": 8941,
      "▁saying": 8942,
      "OT": 8943,
      "ipe": 8944,
      "▁defin": 8945,
      "OS": 8946,
      "▁type": 8947,
      "onn": 8948,
      "os.": 8949,
      "role": 8950,
      "▁sick": 8951,
      "rer": 8952,
      "▁figure": 8953,
      "6]": 8954,
      "▁While": 8955,
      "▁ca": 8956,
      "▁ot": 8957,
      "▁(S": 8958,
      "▁princi": 8959,
      "▁danger": 8960,
      "fortun": 8961,
      "▁easy": 8962,
      "lantic": 8963,
      "▁regular": 8964,
      "▁seats": 8965,
      "▁roll": 8966,
      "6%": 8967,
      "▁prec": 8968,
      "ous.": 8969,
      "▁remains": 8970,
      "▁roy": 8971,
      "▁fert": 8972,
      "lement": 8973,
      "nde": 8974,
      "▁day.": 8975,
      "▁gentleman": 8976,
      "▁down,": 8977,
      "▁Every": 8978,
      "▁flag": 8979,
      "oned": 8980,
      "▁gaz": 8981,
      "▁(2005": 8982,
      "▁35": 8983,
      "é,": 8984,
      "IP": 8985,
      "▁drawn": 8986,
      "▁exped": 8987,
      "▁births": 8988,
      "▁safe": 8989,
      "▁determined": 8990,
      "▁manufact": 8991,
      "▁loud": 8992,
      "▁mess": 8993,
      "ias": 8994,
      "1%": 8995,
      "▁Mary": 8996,
      "▁Geograph": 8997,
      "ora": 8998,
      "▁x": 8999,
      "▁das": 9000,
      "▁(ne": 9001,
      "▁world:": 9002,
      "!'": 9003,
      "▁side,": 9004,
      "chen": 9005,
      "▁cette": 9006,
      "▁threat": 9007,
      "▁grad": 9008,
      "va": 9009,
      "sect": 9010,
      "▁reb": 9011,
      "-B": 9012,
      "▁(2007": 9013,
      "▁Climate": 9014,
      "▁pleasure": 9015,
      "▁slightly": 9016,
      ",'": 9017,
      "-and": 9018,
      "▁proved": 9019,
      "▁legisl": 9020,
      "▁space": 9021,
      "▁\"No,": 9022,
      "ution,": 9023,
      "▁forms": 9024,
      "▁poet": 9025,
      "79": 9026,
      "▁twelve": 9027,
      "▁flow": 9028,
      "▁months": 9029,
      "1)": 9030,
      "ously": 9031,
      "▁liber": 9032,
      "▁amount": 9033,
      "▁caused": 9034,
      "▁division": 9035,
      "▁running": 9036,
      "▁profess": 9037,
      "▁<i>": 9038,
      "▁variet": 9039,
      "▁zu": 9040,
      "▁sie": 9041,
      "▁whis": 9042,
      "-th": 9043,
      "dd": 9044,
      "▁pra": 9045,
      "ET": 9046,
      "▁noun": 9047,
      "▁appears": 9048,
      "▁cri": 9049,
      "retched": 9050,
      "ustrial": 9051,
      "▁valley": 9052,
      "▁escape": 9053,
      "▁struct": 9054,
      "▁rank": 9055,
      "▁mult": 9056,
      "▁petrole": 9057,
      "▁long,": 9058,
      "▁charm": 9059,
      "▁Germany": 9060,
      "▁record": 9061,
      "ar.": 9062,
      "▁supposed": 9063,
      "▁presence": 9064,
      "▁polic": 9065,
      "▁Austri": 9066,
      "▁Constitution": 9067,
      "▁sor": 9068,
      "▁chap": 9069,
      "▁Population": 9070,
      "ore,": 9071,
      "▁miss": 9072,
      "▁coun": 9073,
      "▁gives": 9074,
      "agu": 9075,
      "▁moved": 9076,
      "▁liter": 9077,
      "ants,": 9078,
      "▁incl": 9079,
      "peror": 9080,
      "▁Bo": 9081,
      "2%": 9082,
      "▁level": 9083,
      ".)": 9084,
      "pir": 9085,
      "▁song": 9086,
      "▁search": 9087,
      "▁societ": 9088,
      "▁\"_": 9089,
      "▁simp": 9090,
      "▁_L": 9091,
      "▁apart": 9092,
      "▁wrote": 9093,
      "▁larger": 9094,
      "▁bow": 9095,
      "ness.": 9096,
      "tic": 9097,
      "49:": 9098,
      "▁(next": 9099,
      "pping": 9100,
      "▁beside": 9101,
      "enci": 9102,
      "er;": 9103,
      "▁principal": 9104,
      "▁original": 9105,
      "▁tor": 9106,
      "lt": 9107,
      "▁marri": 9108,
      "▁mountains": 9109,
      "▁cow": 9110,
      "▁possib": 9111,
      "▁learned": 9112,
      "▁evil": 9113,
      "84": 9114,
      "▁passing": 9115,
      "▁Ir": 9116,
      "▁\"If": 9117,
      "itation": 9118,
      "▁offered": 9119,
      "▁Church": 9120,
      "▁breast": 9121,
      "▁proport": 9122,
      "▁XX": 9123,
      "▁started": 9124,
      "▁fifty": 9125,
      "▁declared": 9126,
      "mon": 9127,
      "▁height": 9128,
      "▁34": 9129,
      "▁back,": 9130,
      "▁named": 9131,
      "▁fool": 9132,
      "es:": 9133,
      "▁spr": 9134,
      "ENT": 9135,
      "umn": 9136,
      "▁stock": 9137,
      "ass,": 9138,
      "ste": 9139,
      "75": 9140,
      "▁favour": 9141,
      "ina,": 9142,
      "▁protect": 9143,
      "rance": 9144,
      "II.": 9145,
      "▁pit": 9146,
      "▁subm": 9147,
      "▁Cons": 9148,
      "▁Washington,": 9149,
      "bassador": 9150,
      "3%": 9151,
      "stood": 9152,
      "▁Mount": 9153,
      "▁wel": 9154,
      "▁fright": 9155,
      "aled": 9156,
      "▁Indians": 9157,
      "ato": 9158,
      "▁said:": 9159,
      "road": 9160,
      "vert": 9161,
      "hes,": 9162,
      "▁frequently": 9163,
      "▁sheep": 9164,
      "▁revol": 9165,
      "▁mi": 9166,
      "▁Mer": 9167,
      "▁tu": 9168,
      "▁impress": 9169,
      "▁examp": 9170,
      "▁consequ": 9171,
      "▁chem": 9172,
      "ables": 9173,
      "▁(C": 9174,
      "▁Tom": 9175,
      "▁om": 9176,
      "▁cases": 9177,
      "▁wid": 9178,
      "ites": 9179,
      "▁sitting": 9180,
      "▁pure": 9181,
      "▁commod": 9182,
      "Artagn": 9183,
      "▁tal": 9184,
      "▁allow": 9185,
      "▁stick": 9186,
      "ability": 9187,
      "_;": 9188,
      "ió": 9189,
      "▁obt": 9190,
      "▁fol": 9191,
      "▁más": 9192,
      "▁addition": 9193,
      "▁Es": 9194,
      "▁acquaint": 9195,
      "ena": 9196,
      "▁I've": 9197,
      "▁phys": 9198,
      "▁ordered": 9199,
      "▁Jud": 9200,
      "▁Har": 9201,
      "▁storm": 9202,
      "▁Central": 9203,
      "itable": 9204,
      "iger": 9205,
      "▁broke": 9206,
      "▁loss": 9207,
      "▁P.": 9208,
      "▁obliged": 9209,
      "ander": 9210,
      "▁rob": 9211,
      "clock": 9212,
      "ya": 9213,
      "form": 9214,
      "▁portion": 9215,
      "▁cop": 9216,
      "iving": 9217,
      "erg": 9218,
      "▁constitution": 9219,
      "CH": 9220,
      "▁Alex": 9221,
      "▁Cor": 9222,
      "▁Pers": 9223,
      "▁Our": 9224,
      "▁prepared": 9225,
      "ishing": 9226,
      "▁189": 9227,
      "lection": 9228,
      "▁_The": 9229,
      "▁him;": 9230,
      "▁nation": 9231,
      "S,": 9232,
      "▁tast": 9233,
      "▁10%": 9234,
      "▁beat": 9235,
      "▁wound": 9236,
      "▁Pacific": 9237,
      "acher": 9238,
      "▁point:": 9239,
      "▁fortun": 9240,
      "▁Dan": 9241,
      "▁troops": 9242,
      "key": 9243,
      "▁neighbour": 9244,
      "▁northern": 9245,
      "▁nm": 9246,
      "are,": 9247,
      "ins,": 9248,
      "▁Such": 9249,
      "▁Med": 9250,
      "▁London": 9251,
      "24": 9252,
      "▁brid": 9253,
      "▁outside": 9254,
      "▁invest": 9255,
      "ines,": 9256,
      "▁id": 9257,
      "▁stop": 9258,
      "▁parent": 9259,
      "▁difference": 9260,
      "▁agreement": 9261,
      "29": 9262,
      "▁forget": 9263,
      "▁ess": 9264,
      "ress,": 9265,
      "▁future": 9266,
      "▁Japan": 9267,
      "▁years,": 9268,
      "▁\"There": 9269,
      "▁African": 9270,
      "▁Mus": 9271,
      "▁disappe": 9272,
      "67": 9273,
      "▁----": 9274,
      "▁buff": 9275,
      "▁veget": 9276,
      "D,": 9277,
      "▁possession": 9278,
      "▁bread": 9279,
      "▁value": 9280,
      "▁labor": 9281,
      "▁states": 9282,
      "aken": 9283,
      "▁2,43": 9284,
      "cer": 9285,
      "orough": 9286,
      "usive": 9287,
      "▁likely": 9288,
      "▁enemy": 9289,
      "-in": 9290,
      "▁absolute": 9291,
      "itz": 9292,
      "▁mine": 9293,
      "ics": 9294,
      "▁Portug": 9295,
      "attered": 9296,
      "▁it.\"": 9297,
      "▁Western": 9298,
      "▁ow": 9299,
      "▁morning,": 9300,
      "▁language": 9301,
      "▁J.": 9302,
      "23": 9303,
      "▁royal": 9304,
      "▁Charles": 9305,
      "▁o'clock": 9306,
      "▁unto": 9307,
      "▁mit": 9308,
      "▁bbl": 9309,
      "cle": 9310,
      "▁catch": 9311,
      "▁exerc": 9312,
      "ores": 9313,
      "▁Majest": 9314,
      "▁shut": 9315,
      "▁unless": 9316,
      "uk": 9317,
      "▁aim": 9318,
      "ant.": 9319,
      "-C": 9320,
      "▁extend": 9321,
      "▁sty": 9322,
      "▁threw": 9323,
      "▁monarch": 9324,
      "▁fond": 9325,
      "van": 9326,
      "▁tow": 9327,
      "▁Wor": 9328,
      "iance": 9329,
      "än": 9330,
      "iles": 9331,
      "and,": 9332,
      "gest": 9333,
      "▁Henry": 9334,
      "▁required": 9335,
      "irm": 9336,
      "▁southern": 9337,
      "▁intellig": 9338,
      "▁hun": 9339,
      "▁_T": 9340,
      "▁numerous": 9341,
      "▁subs": 9342,
      "▁qual": 9343,
      "ches,": 9344,
      "▁ende": 9345,
      "▁hen": 9346,
      "▁quarter": 9347,
      "▁Sec": 9348,
      "▁produced": 9349,
      "▁trop": 9350,
      "ester": 9351,
      "TU,": 9352,
      "▁rare": 9353,
      "arl": 9354,
      "▁all.": 9355,
      "▁paved": 9356,
      "▁islands": 9357,
      "▁phil": 9358,
      "▁vain": 9359,
      "▁obtain": 9360,
      "▁be,": 9361,
      "ford": 9362,
      "▁detail": 9363,
      "▁beast": 9364,
      "▁youth": 9365,
      "▁tax": 9366,
      "ruct": 9367,
      "▁Hel": 9368,
      "83": 9369,
      "▁Gree": 9370,
      "▁publ": 9371,
      "▁lui": 9372,
      "▁earn": 9373,
      "▁away.": 9374,
      "▁pron": 9375,
      "burg": 9376,
      "▁won't": 9377,
      "▁qu'il": 9378,
      "▁fier": 9379,
      "▁grant": 9380,
      "4%": 9381,
      "▁(in": 9382,
      "▁educ": 9383,
      "▁duty": 9384,
      "▁leaves": 9385,
      "▁happen": 9386,
      "▁China": 9387,
      "▁decided": 9388,
      "▁opposite": 9389,
      "▁expected": 9390,
      "▁Virgin": 9391,
      "oor": 9392,
      "▁content": 9393,
      "ces:": 9394,
      "▁Spanish": 9395,
      "▁partn": 9396,
      "▁lying": 9397,
      "▁Poll": 9398,
      "▁mel": 9399,
      "ates:": 9400,
      "▁captain": 9401,
      "▁_B": 9402,
      "▁(A": 9403,
      "▁avail": 9404,
      "▁Independ": 9405,
      "aine": 9406,
      "bid": 9407,
      "ward,": 9408,
      "▁delic": 9409,
      "▁Assembly": 9410,
      "▁tall": 9411,
      "ful,": 9412,
      "come": 9413,
      "▁particularly": 9414,
      "M,": 9415,
      "▁Red": 9416,
      "▁Turk": 9417,
      "▁out.": 9418,
      "▁rough": 9419,
      "gen": 9420,
      "▁Up": 9421,
      "▁rout": 9422,
      "vey": 9423,
      "▁Louis": 9424,
      "▁coura": 9425,
      "▁von": 9426,
      "icit": 9427,
      "▁way.": 9428,
      "▁Barb": 9429,
      "▁_H": 9430,
      "▁greatly": 9431,
      "▁company": 9432,
      "▁comme": 9433,
      "2]": 9434,
      "see": 9435,
      "▁endeav": 9436,
      "rable": 9437,
      "▁rail": 9438,
      "on's": 9439,
      "▁fal": 9440,
      "▁ST": 9441,
      "▁2005": 9442,
      "▁River": 9443,
      "▁well,": 9444,
      "▁share": 9445,
      "▁George": 9446,
      "y,\"": 9447,
      "light": 9448,
      "▁region": 9449,
      "oyal": 9450,
      "8]": 9451,
      "▁Africa": 9452,
      "▁Old": 9453,
      "▁abund": 9454,
      "▁throughout": 9455,
      "-day": 9456,
      "▁9.": 9457,
      "▁appre": 9458,
      "add": 9459,
      "▁...": 9460,
      "umer": 9461,
      "▁thinking": 9462,
      "▁understood": 9463,
      "▁dollar": 9464,
      "▁2007": 9465,
      "▁2001": 9466,
      "hr": 9467,
      "▁suppl": 9468,
      "▁kingdom": 9469,
      "▁Yet": 9470,
      "hens": 9471,
      "▁¿": 9472,
      "▁_f": 9473,
      "▁fact,": 9474,
      "umed": 9475,
      "▁France,": 9476,
      "▁man's": 9477,
      "plomatic": 9478,
      "ulate": 9479,
      "▁\"My": 9480,
      "▁Even": 9481,
      "▁stopped": 9482,
      "ier,": 9483,
      "▁_D": 9484,
      "ated.": 9485,
      "▁zij": 9486,
      "ordin": 9487,
      "▁kne": 9488,
      "▁180": 9489,
      "▁names": 9490,
      "ram": 9491,
      "▁Who": 9492,
      "▁(2005)": 9493,
      "▁ground,": 9494,
      "▁member": 9495,
      "▁double": 9496,
      "▁I.": 9497,
      "▁sacrif": 9498,
      "▁tit": 9499,
      "rim": 9500,
      "erved": 9501,
      "▁sides": 9502,
      "ages,": 9503,
      "ican": 9504,
      "_)": 9505,
      "ompl": 9506,
      "▁Sup": 9507,
      "ague": 9508,
      "▁perfectly": 9509,
      "▁ces": 9510,
      "▁paper": 9511,
      "▁advent": 9512,
      "blem": 9513,
      "▁pair": 9514,
      "▁(2008": 9515,
      "▁knows": 9516,
      "▁extrem": 9517,
      "▁travel": 9518,
      "▁Eth": 9519,
      "▁\"E": 9520,
      "ify": 9521,
      "o;": 9522,
      "▁187": 9523,
      "▁maid": 9524,
      "▁6,": 9525,
      "▁hid": 9526,
      "rait": 9527,
      "▁ou": 9528,
      "▁Ben": 9529,
      "▁February": 9530,
      "▁calm": 9531,
      "▁severe": 9532,
      "urm": 9533,
      "▁diss": 9534,
      "▁continu": 9535,
      "▁wif": 9536,
      "▁receive": 9537,
      "power": 9538,
      "▁B.": 9539,
      "-M": 9540,
      "ace,": 9541,
      "▁there.": 9542,
      "▁journey": 9543,
      "▁world,": 9544,
      "ival": 9545,
      "▁spite": 9546,
      "▁for,": 9547,
      "re.": 9548,
      "ión": 9549,
      "▁pack": 9550,
      "eness": 9551,
      "39": 9552,
      "▁rememb": 9553,
      "oses": 9554,
      "▁splend": 9555,
      "▁deli": 9556,
      "▁begin": 9557,
      "onsieur": 9558,
      "nic": 9559,
      "▁excellent": 9560,
      "▁doct": 9561,
      "▁insect": 9562,
      "se.": 9563,
      "▁rise": 9564,
      "▁favor": 9565,
      "▁roof": 9566,
      "▁activ": 9567,
      "▁rang": 9568,
      "▁thrown": 9569,
      "▁unf": 9570,
      "▁cand": 9571,
      "▁ordinary": 9572,
      "▁een": 9573,
      "▁transport": 9574,
      "▁forced": 9575,
      "ially": 9576,
      "-a": 9577,
      "oz": 9578,
      "asp": 9579,
      "▁collect": 9580,
      "▁prepar": 9581,
      "▁distant": 9582,
      "▁dism": 9583,
      "ark,": 9584,
      "▁goes": 9585,
      "osing": 9586,
      "▁Ly": 9587,
      "37": 9588,
      "▁Environment": 9589,
      "27": 9590,
      "rat": 9591,
      "▁turning": 9592,
      "▁War": 9593,
      "▁silver": 9594,
      "set": 9595,
      "▁thro": 9596,
      "16": 9597,
      "▁pp.": 9598,
      "▁dig": 9599,
      "▁flower": 9600,
      "▁cred": 9601,
      "ification": 9602,
      "▁occupied": 9603,
      "▁GR": 9604,
      "▁loved": 9605,
      "▁before,": 9606,
      "▁gauge": 9607,
      "ol,": 9608,
      "-sh": 9609,
      "▁fles": 9610,
      "35": 9611,
      "▁oursel": 9612,
      "▁(1996": 9613,
      "▁associ": 9614,
      "▁passage": 9615,
      "▁expression": 9616,
      "▁Cath": 9617,
      "▁15-64": 9618,
      "▁Labor": 9619,
      "▁honour": 9620,
      "▁heaven": 9621,
      "▁picture": 9622,
      "ques": 9623,
      "▁consumption": 9624,
      "▁up.": 9625,
      "aval": 9626,
      "▁fart": 9627,
      "▁laws": 9628,
      "ope,": 9629,
      "▁aston": 9630,
      "▁pock": 9631,
      "-the": 9632,
      "▁sem": 9633,
      "▁room,": 9634,
      "▁project": 9635,
      "▁fu": 9636,
      "utive": 9637,
      "▁smaller": 9638,
      "▁soil": 9639,
      "▁natives": 9640,
      "▁tong": 9641,
      "aked": 9642,
      "▁universal": 9643,
      "era": 9644,
      "▁mat": 9645,
      "us.": 9646,
      "ra,": 9647,
      "▁Fin": 9648,
      "-I": 9649,
      "AB": 9650,
      "ipped": 9651,
      "▁dat": 9652,
      "illa": 9653,
      "▁Rev": 9654,
      "▁soldier": 9655,
      "ist,": 9656,
      "▁Liber": 9657,
      "unn": 9658,
      "▁Russia": 9659,
      "▁cloth": 9660,
      "45": 9661,
      "▁evidence": 9662,
      "▁Les": 9663,
      "▁over:": 9664,
      "▁wa": 9665,
      "▁alarm": 9666,
      "▁specim": 9667,
      "ives,": 9668,
      "work": 9669,
      "▁Dav": 9670,
      "▁building": 9671,
      "▁serious": 9672,
      "▁vig": 9673,
      "▁DC": 9674,
      "▁bless": 9675,
      "▁horiz": 9676,
      "gel": 9677,
      "▁code": 9678,
      "▁test": 9679,
      "▁nine": 9680,
      "ans,": 9681,
      "UL": 9682,
      "crib": 9683,
      "▁cool": 9684,
      "▁personal": 9685,
      "▁Parliament": 9686,
      "▁notice": 9687,
      "▁coff": 9688,
      "▁aux": 9689,
      "▁Scot": 9690,
      "▁45": 9691,
      "▁track": 9692,
      "EC": 9693,
      "▁employed": 9694,
      "▁forty": 9695,
      "▁Two": 9696,
      "▁flat": 9697,
      "▁chemical": 9698,
      "▁commun": 9699,
      "▁James": 9700,
      "ch.": 9701,
      "iling": 9702,
      "tered": 9703,
      "▁America": 9704,
      "▁representation": 9705,
      "▁degree": 9706,
      "▁officers": 9707,
      "▁waiting": 9708,
      "▁joined": 9709,
      "▁obtained": 9710,
      "▁blow": 9711,
      "▁afford": 9712,
      "▁face,": 9713,
      "▁Life": 9714,
      "▁based": 9715,
      "26": 9716,
      "▁bold": 9717,
      "▁finished": 9718,
      "▁Feder": 9719,
      "▁fash": 9720,
      "▁Spain": 9721,
      "▁believed": 9722,
      "AD,": 9723,
      "▁36": 9724,
      "▁Cape": 9725,
      "itime": 9726,
      "▁Black": 9727,
      "▁log": 9728,
      "▁marked": 9729,
      "▁Prin": 9730,
      "▁quickly": 9731,
      "▁jur": 9732,
      "▁nest": 9733,
      "arse": 9734,
      "▁Co.": 9735,
      "view": 9736,
      "▁TO": 9737,
      "▁Den": 9738,
      "▁World": 9739,
      "▁reve": 9740,
      "▁changed": 9741,
      "ments,": 9742,
      "pire": 9743,
      "▁\"How": 9744,
      "▁discuss": 9745,
      "line": 9746,
      "amed": 9747,
      "▁rub": 9748,
      "▁Ambassador": 9749,
      "▁presented": 9750,
      "▁crossed": 9751,
      "▁one.": 9752,
      "▁brave": 9753,
      "▁glass": 9754,
      "▁Atlantic": 9755,
      "ctic": 9756,
      "ulgar": 9757,
      "▁Belg": 9758,
      "ura": 9759,
      "pered": 9760,
      "▁commodities": 9761,
      "▁in.": 9762,
      "▁page": 9763,
      "▁quel": 9764,
      "▁moon": 9765,
      "▁accompl": 9766,
      "▁slowly": 9767,
      "ets,": 9768,
      "▁Colon": 9769,
      "▁cultiv": 9770,
      "▁0%": 9771,
      "▁sup": 9772,
      "▁works": 9773,
      "▁hij": 9774,
      "],": 9775,
      "▁(2006)": 9776,
      "▁60": 9777,
      "▁unknown": 9778,
      "acc": 9779,
      "idad": 9780,
      "vi": 9781,
      "▁rule": 9782,
      "▁laughed": 9783,
      "▁advantage": 9784,
      "▁_I": 9785,
      "▁Paris": 9786,
      "▁II": 9787,
      "als,": 9788,
      "▁benef": 9789,
      "▁confess": 9790,
      "▁proceeded": 9791,
      "▁seized": 9792,
      "▁faint": 9793,
      "▁Cy": 9794,
      "▁preced": 9795,
      "▁arg": 9796,
      "atives": 9797,
      "▁takes": 9798,
      "▁\"'": 9799,
      "▁(2003)": 9800,
      "ida": 9801,
      "eding": 9802,
      "▁home,": 9803,
      "▁exceed": 9804,
      "▁aband": 9805,
      "▁expedition": 9806,
      "▁Ann": 9807,
      "▁know,": 9808,
      "▁cere": 9809,
      "▁adject": 9810,
      "▁weight": 9811,
      "olic": 9812,
      "▁work,": 9813,
      "▁hand.": 9814,
      "▁During": 9815,
      "▁country.": 9816,
      "▁bag": 9817,
      "osa": 9818,
      "▁WH": 9819,
      "▁philos": 9820,
      "▁establish": 9821,
      "ish,": 9822,
      "▁era": 9823,
      "▁night.": 9824,
      "▁edge": 9825,
      "▁7,": 9826,
      "▁them;": 9827,
      "▁wonderful": 9828,
      "▁Ven": 9829,
      "▁others,": 9830,
      "▁prime": 9831,
      "sy": 9832,
      "▁displ": 9833,
      "▁lands": 9834,
      "▁border": 9835,
      "▁Rober": 9836,
      "▁travell": 9837,
      "▁study": 9838,
      "it.": 9839,
      "▁official": 9840,
      "▁ban": 9841,
      "rug": 9842,
      "▁tour": 9843,
      "▁instant": 9844,
      "-room": 9845,
      "▁curious": 9846,
      "ogether": 9847,
      "▁simply": 9848,
      "▁2004": 9849,
      "▁Congress": 9850,
      "▁sorrow": 9851,
      "▁agree": 9852,
      "▁succeeded": 9853,
      "▁pointed": 9854,
      "▁birth:": 9855,
      "▁(M": 9856,
      "▁construction": 9857,
      "▁together,": 9858,
      "id,": 9859,
      "▁race": 9860,
      "▁37": 9861,
      "ues:": 9862,
      "/day": 9863,
      "▁miser": 9864,
      "▁Guinea": 9865,
      "▁suggest": 9866,
      "▁citiz": 9867,
      "▁consist": 9868,
      "▁\"but": 9869,
      "90": 9870,
      "▁First": 9871,
      "▁stro": 9872,
      "'est": 9873,
      "b.": 9874,
      "▁trying": 9875,
      "▁horn": 9876,
      "▁fully": 9877,
      "▁deb": 9878,
      "▁E.": 9879,
      "▁mais": 9880,
      "▁Ver": 9881,
      "▁judg": 9882,
      "▁imper": 9883,
      "▁pleasant": 9884,
      "▁description": 9885,
      "▁garden": 9886,
      "▁Duke": 9887,
      "▁repeated": 9888,
      "▁[S": 9889,
      "▁experience": 9890,
      "▁health": 9891,
      "▁2009": 9892,
      "▁discover": 9893,
      "▁190": 9894,
      "eur": 9895,
      "▁measure": 9896,
      "under": 9897,
      "▁Napole": 9898,
      "▁Supreme": 9899,
      "▁orn": 9900,
      "▁houses": 9901,
      "▁dise": 9902,
      "aced": 9903,
      "▁progress": 9904,
      "uly": 9905,
      "▁administr": 9906,
      "▁bore": 9907,
      "uten": 9908,
      "▁charge": 9909,
      "▁bbl/day": 9910,
      "iel": 9911,
      "EM": 9912,
      "▁you.\"": 9913,
      "otes": 9914,
      "▁boys": 9915,
      "▁ii.": 9916,
      "34": 9917,
      "▁other:": 9918,
      "▁fallen": 9919,
      "▁dust": 9920,
      "▁Southern": 9921,
      "9%": 9922,
      "▁soldiers": 9923,
      "-A": 9924,
      "▁interesting": 9925,
      "▁superior": 9926,
      "▁square": 9927,
      "▁(2002": 9928,
      "▁Smith": 9929,
      "▁Prov": 9930,
      "▁Thom": 9931,
      "ement,": 9932,
      "fast": 9933,
      "▁pale": 9934,
      "▁Bah": 9935,
      "▁bal": 9936,
      "▁Nether": 9937,
      "▁door,": 9938,
      "la": 9939,
      "▁prove": 9940,
      "hem": 9941,
      "▁feet,": 9942,
      "▁spent": 9943,
      "isions": 9944,
      "▁England,": 9945,
      "▁authority": 9946,
      "▁mes": 9947,
      "pet": 9948,
      "▁(31": 9949,
      "▁holding": 9950,
      "▁walls": 9951,
      "raw": 9952,
      "▁himself.": 9953,
      "alled": 9954,
      "▁C.": 9955,
      "▁reign": 9956,
      "▁were,": 9957,
      "▁married": 9958,
      "▁Et": 9959,
      "▁remarkable": 9960,
      "▁yield": 9961,
      "emp": 9962,
      "▁golden": 9963,
      "▁D'Artagn": 9964,
      "▁distinguished": 9965,
      "▁_R": 9966,
      "▁esp": 9967,
      "▁185": 9968,
      "▁moment,": 9969,
      "▁water.": 9970,
      "▁inches": 9971,
      "NA": 9972,
      "▁orders": 9973,
      "▁summer": 9974,
      "▁blind": 9975,
      "▁ignor": 9976,
      "▁farther": 9977,
      "▁river,": 9978,
      "▁cele": 9979,
      "▁elections:": 9980,
      "ounced": 9981,
      "▁H.": 9982,
      "IDS": 9983,
      "▁drop": 9984,
      "▁bare": 9985,
      "▁respons": 9986,
      "mo": 9987,
      "occ": 9988,
      "▁words,": 9989,
      "▁touch": 9990,
      "▁lives": 9991,
      "aps": 9992,
      "▁disturb": 9993,
      "▁2008": 9994,
      "▁witness": 9995,
      "ke,": 9996,
      "▁(1993": 9997,
      "▁Coast": 9998,
      "▁+": 9999,
      "▁queen": 10000,
      "io,": 10001,
      "ike": 10002,
      "ise.": 10003,
      "▁wise": 10004,
      "▁amb": 10005,
      "▁social": 10006,
      "imm": 10007,
      "▁mind,": 10008,
      "▁[Illustration": 10009,
      "▁assem": 10010,
      "▁other.": 10011,
      "▁adj": 10012,
      "▁Russian": 10013,
      "▁Why": 10014,
      "▁\"that": 10015,
      "▁_N": 10016,
      "▁intended": 10017,
      "▁drawing": 10018,
      "▁Long": 10019,
      "▁[1]": 10020,
      "▁opportunity": 10021,
      "▁10.": 10022,
      "ams": 10023,
      "▁growing": 10024,
      "iny": 10025,
      "▁engaged": 10026,
      "▁Die": 10027,
      ".[": 10028,
      "▁king,": 10029,
      "▁cro": 10030,
      "▁closed": 10031,
      "▁Bank": 10032,
      "▁Mid": 10033,
      "▁seek": 10034,
      "▁music": 10035,
      "umber": 10036,
      "▁este": 10037,
      "▁correspond": 10038,
      "▁leading": 10039,
      "▁freed": 10040,
      "▁complet": 10041,
      "▁Many": 10042,
      "▁described": 10043,
      "▁valu": 10044,
      "▁sought": 10045,
      "--The": 10046,
      "▁Reg": 10047,
      "▁shoot": 10048,
      "▁hills": 10049,
      "▁burst": 10050,
      "▁fo": 10051,
      "▁More": 10052,
      "▁señ": 10053,
      "▁dece": 10054,
      "▁zone": 10055,
      "lly": 10056,
      "▁refer": 10057,
      "▁cattle": 10058,
      "ér": 10059,
      "▁Italy": 10060,
      "▁beauty": 10061,
      "▁breath": 10062,
      "sec": 10063,
      "ground": 10064,
      "▁rode": 10065,
      "▁letters": 10066,
      "▁exactly": 10067,
      "▁Kore": 10068,
      "▁offer": 10069,
      "athered": 10070,
      "ities,": 10071,
      "▁resist": 10072,
      "▁head.": 10073,
      "▁excit": 10074,
      "▁arran": 10075,
      "▁herd": 10076,
      "▁depth": 10077,
      "alle": 10078,
      "▁religious": 10079,
      "▁finally": 10080,
      "44": 10081,
      "▁Cr": 10082,
      "ess.": 10083,
      "▁aver": 10084,
      "▁shadow": 10085,
      "▁Peter": 10086,
      "otten": 10087,
      "▁conclud": 10088,
      "▁debt": 10089,
      "▁symp": 10090,
      "▁196": 10091,
      "▁color": 10092,
      "▁arrang": 10093,
      "▁carrying": 10094,
      "'s,": 10095,
      "▁motion": 10096,
      "▁AM": 10097,
      "▁Dep": 10098,
      "▁était": 10099,
      "ations.": 10100,
      "▁finding": 10101,
      "▁rising": 10102,
      "▁undert": 10103,
      "▁machin": 10104,
      "gra": 10105,
      "▁range": 10106,
      "▁yo": 10107,
      "▁dwell": 10108,
      "▁comparative": 10109,
      "▁anxious": 10110,
      "▁provided": 10111,
      "▁lack": 10112,
      "▁leur": 10113,
      "▁divided": 10114,
      "▁eager": 10115,
      "▁domin": 10116,
      "▁broadcast": 10117,
      "▁gh": 10118,
      "▁But,": 10119,
      "▁affect": 10120,
      "▁equip": 10121,
      "▁powers": 10122,
      "▁hom": 10123,
      "▁celebr": 10124,
      "▁suffered": 10125,
      "▁proc": 10126,
      "▁ere": 10127,
      "▁another,": 10128,
      "▁represented": 10129,
      "▁'t": 10130,
      "▁place.": 10131,
      "▁sevent": 10132,
      "▁haz": 10133,
      "▁concl": 10134,
      "ory.": 10135,
      "mas": 10136,
      "▁bul": 10137,
      "▁gar": 10138,
      "▁buffal": 10139,
      "▁chamber": 10140,
      "▁Independence": 10141,
      "▁accident": 10142,
      "aur": 10143,
      "▁Stre": 10144,
      "▁lies": 10145,
      "▁mentioned": 10146,
      "▁smile": 10147,
      "aire": 10148,
      "▁(the": 10149,
      "▁climb": 10150,
      "▁girls": 10151,
      "▁difficulty": 10152,
      "▁¡": 10153,
      "▁empt": 10154,
      "/A": 10155,
      "▁Rad": 10156,
      "▁drag": 10157,
      "▁first,": 10158,
      "▁Emperor": 10159,
      "▁belief": 10160,
      "▁office": 10161,
      "▁skin": 10162,
      "utt": 10163,
      "▁creature": 10164,
      "▁(July": 10165,
      "▁numbers": 10166,
      "▁regarded": 10167,
      "umph": 10168,
      "▁inhabitants": 10169,
      "▁fer": 10170,
      "arest": 10171,
      "ront": 10172,
      "▁'T": 10173,
      "▁diam": 10174,
      "▁carefully": 10175,
      "▁Acc": 10176,
      "▁century": 10177,
      "▁punish": 10178,
      "▁Vol": 10179,
      "▁off,": 10180,
      "UT": 10181,
      "▁petroleum": 10182,
      "▁treas": 10183,
      "cia": 10184,
      "▁Mart": 10185,
      "▁N.": 10186,
      "ailing": 10187,
      "▁dign": 10188,
      "▁kiss": 10189,
      "▁Sund": 10190,
      "▁Arg": 10191,
      "elig": 10192,
      "▁waters": 10193,
      "ago": 10194,
      "ocks": 10195,
      "▁(2009": 10196,
      "▁Sud": 10197,
      "ares": 10198,
      "▁(1998": 10199,
      "ay.": 10200,
      "chief": 10201,
      "rap": 10202,
      "▁scene": 10203,
      "▁central": 10204,
      "ill,": 10205,
      "▁International": 10206,
      "▁system:": 10207,
      "astern": 10208,
      "▁invent": 10209,
      "▁points": 10210,
      "▁corner": 10211,
      "▁eyes.": 10212,
      "bar": 10213,
      "ned": 10214,
      "-P": 10215,
      "▁supply": 10216,
      "▁arable": 10217,
      "▁more,": 10218,
      "▁unw": 10219,
      "▁famous": 10220,
      "▁Chief": 10221,
      "▁minut": 10222,
      "▁march": 10223,
      "▁Green": 10224,
      "▁father,": 10225,
      "▁sovere": 10226,
      "rency": 10227,
      "▁Australia": 10228,
      "18": 10229,
      "rub": 10230,
      "▁working": 10231,
      "▁laugh": 10232,
      "▁unpaved": 10233,
      "▁pred": 10234,
      "▁Er": 10235,
      "▁death,": 10236,
      "▁Its": 10237,
      "▁\"R": 10238,
      "▁becomes": 10239,
      "ious,": 10240,
      "▁evidently": 10241,
      "▁sea,": 10242,
      "▁shape": 10243,
      "▁Bon": 10244,
      "'m": 10245,
      "▁Zeal": 10246,
      "rog": 10247,
      "▁Intern": 10248,
      "▁feather": 10249,
      "ote:": 10250,
      "▁information": 10251,
      "▁harb": 10252,
      "▁mighty": 10253,
      "een": 10254,
      "▁grace": 10255,
      "▁defend": 10256,
      "atell": 10257,
      "▁bon": 10258,
      "▁world.": 10259,
      "anto": 10260,
      "ively": 10261,
      "▁Isra": 10262,
      "▁natur": 10263,
      "047": 10264,
      "▁apparently": 10265,
      "▁Rich": 10266,
      "▁hands,": 10267,
      "▁Conf": 10268,
      "▁economy": 10269,
      "▁Ca": 10270,
      "▁Jer": 10271,
      "ributed": 10272,
      "ny": 10273,
      "ancing": 10274,
      "▁HIV": 10275,
      "▁terms": 10276,
      "▁opening": 10277,
      "▁batt": 10278,
      "▁powerful": 10279,
      "▁Madame": 10280,
      "▁days,": 10281,
      "▁ih": 10282,
      "▁driven": 10283,
      "IM": 10284,
      "▁governor": 10285,
      "▁ble": 10286,
      "--A": 10287,
      "▁circumstances": 10288,
      "▁Jo": 10289,
      "▁Sol": 10290,
      "▁Inter": 10291,
      "▁suffer": 10292,
      "▁silence": 10293,
      "▁tradition": 10294,
      "▁FAX": 10295,
      "▁cook": 10296,
      "fe": 10297,
      "▁d'un": 10298,
      "▁Franc": 10299,
      "lim": 10300,
      "▁ring": 10301,
      "▁card": 10302,
      "▁HIV/A": 10303,
      "ctions": 10304,
      "▁Cont": 10305,
      "▁worthy": 10306,
      "▁Res": 10307,
      "▁exchange": 10308,
      "W,": 10309,
      "ry.": 10310,
      "▁Lady": 10311,
      "acity": 10312,
      "▁10%:": 10313,
      "▁heads": 10314,
      "▁however": 10315,
      "▁constit": 10316,
      "▁accompanied": 10317,
      "▁slave": 10318,
      "▁problem": 10319,
      "▁settled": 10320,
      "▁wand": 10321,
      "ances,": 10322,
      "▁cel": 10323,
      "▁prefer": 10324,
      "▁yards": 10325,
      "▁forces": 10326,
      "urit": 10327,
      "▁cam": 10328,
      "erver": 10329,
      "apt": 10330,
      "▁pieces": 10331,
      "▁promised": 10332,
      "BR": 10333,
      "▁39": 10334,
      "▁highly": 10335,
      "m.": 10336,
      "▁on.": 10337,
      "▁había": 10338,
      "B,": 10339,
      "▁obst": 10340,
      "▁Pap": 10341,
      "▁crit": 10342,
      "▁reas": 10343,
      "ilst": 10344,
      "▁train": 10345,
      "▁western": 10346,
      "AY": 10347,
      "▁mission:": 10348,
      "▁HIV/AIDS": 10349,
      "▁wear": 10350,
      "▁war,": 10351,
      "▁property": 10352,
      "▁Dor": 10353,
      "ius,": 10354,
      "▁altogether": 10355,
      "▁occurred": 10356,
      "▁lot": 10357,
      "▁shell": 10358,
      "▁lose": 10359,
      "wood": 10360,
      "▁cup": 10361,
      "▁lod": 10362,
      "▁Internet": 10363,
      "bed": 10364,
      "▁184": 10365,
      "▁watched": 10366,
      "vo": 10367,
      "▁Now,": 10368,
      "▁do,": 10369,
      "▁me.\"": 10370,
      "▁3,047": 10371,
      "▁Death": 10372,
      "oups": 10373,
      "▁Social": 10374,
      "▁advanced": 10375,
      "▁Del": 10376,
      "-G": 10377,
      "uest": 10378,
      "AG": 10379,
      "36": 10380,
      "▁includes": 10381,
      "▁development": 10382,
      "▁_G": 10383,
      "▁that's": 10384,
      "▁results": 10385,
      "▁retreat": 10386,
      "ir,": 10387,
      "▁elev": 10388,
      "▁increased": 10389,
      "▁conven": 10390,
      "▁trap": 10391,
      "las": 10392,
      "▁Pre": 10393,
      "▁desired": 10394,
      "▁hind": 10395,
      "▁R.": 10396,
      "▁base": 10397,
      "▁suspic": 10398,
      "▁Rome": 10399,
      "▁amongst": 10400,
      "▁Paul": 10401,
      "▁solem": 10402,
      "▁proof": 10403,
      "z,": 10404,
      "▁meaning": 10405,
      "77": 10406,
      "▁termin": 10407,
      "c.,": 10408,
      "▁Tim": 10409,
      "▁hath": 10410,
      "▁Pan": 10411,
      ".o.": 10412,
      "▁(1997)": 10413,
      "lin": 10414,
      "▁Economy": 10415,
      "▁completely": 10416,
      "ados": 10417,
      "cience": 10418,
      "▁clean": 10419,
      "▁speaking": 10420,
      "ky": 10421,
      "▁Sea,": 10422,
      "▁are,": 10423,
      "▁house.": 10424,
      "▁friend,": 10425,
      "▁Ire": 10426,
      "▁cheer": 10427,
      "▁hes": 10428,
      "▁spect": 10429,
      "▁invol": 10430,
      "▁thorough": 10431,
      "▁_d": 10432,
      "▁wag": 10433,
      "▁thank": 10434,
      "▁grat": 10435,
      "▁instr": 10436,
      "▁me;": 10437,
      "▁_F": 10438,
      "ians,": 10439,
      "▁wing": 10440,
      "▁steps": 10441,
      "▁body,": 10442,
      "▁telephone:": 10443,
      "ault": 10444,
      "night": 10445,
      "ania": 10446,
      "▁served": 10447,
      "ule": 10448,
      "▁Jose": 10449,
      "▁international:": 10450,
      "▁compe": 10451,
      "▁Mag": 10452,
      "AND": 10453,
      "▁Sing": 10454,
      "atures": 10455,
      "▁White": 10456,
      "▁_c": 10457,
      "▁Cro": 10458,
      "▁\"In": 10459,
      "▁tank": 10460,
      "sell": 10461,
      "▁mostly": 10462,
      "▁tone": 10463,
      "oop": 10464,
      "▁Ber": 10465,
      "▁right,": 10466,
      "▁8,": 10467,
      "▁familiar": 10468,
      "▁avait": 10469,
      "▁Sur": 10470,
      "▁cart": 10471,
      "▁source": 10472,
      "▁as,": 10473,
      "▁ren": 10474,
      "▁aud": 10475,
      "▁exclusive": 10476,
      "▁It's": 10477,
      "▁eld": 10478,
      "▁passion": 10479,
      "ential": 10480,
      "▁informed": 10481,
      "▁bri": 10482,
      "▁meeting": 10483,
      "▁proud": 10484,
      "-W": 10485,
      "▁net": 10486,
      "igen": 10487,
      "quently": 10488,
      "▁(202)": 10489,
      "ym": 10490,
      "▁ep": 10491,
      "▁withd": 10492,
      "▁Pat": 10493,
      "▁men.": 10494,
      "▁proportion": 10495,
      "ca": 10496,
      "▁equally": 10497,
      "atory": 10498,
      "▁grown": 10499,
      "▁published": 10500,
      "rs": 10501,
      "▁see,": 10502,
      "▁deter": 10503,
      "▁consists": 10504,
      "▁hide": 10505,
      "▁Cast": 10506,
      "▁victim": 10507,
      "▁print": 10508,
      "aven": 10509,
[...]
