{
  "version": "1.0",
  "truncation": null,
  "padding": null,
  "added_tokens": [
    {
      "id": 0,
      "content": "<UNK>",
      "single_word": false,
      "lstrip": false,
      "rstrip": false,
      "normalized": false,
      "special": true
    },
    {
      "id": 1,
      "content": "<EOS>",
      "single_word": false,
      "lstrip": false,
      "rstrip": false,
      "normalized": false,
      "special": true
    },
    {
      "id": 2,
      "content": "<BOS>",
      "single_word": false,
      "lstrip": false,
      "rstrip": false,
      "normalized": false,
      "special": true
    },
    {
      "id": 3,
      "content": "<PAD>",
      "single_word": false,
      "lstrip": false,
      "rstrip": false,
      "normalized": false,
      "special": true
    },
    {
      "id": 4,
      "content": "<MASK>",
      "single_word": false,
      "lstrip": false,
      "rstrip": false,
      "normalized": false,
      "special": true
    }
  ],
  "normalizer": null,
  "pre_tokenizer": {
    "type": "Metaspace",
    "replacement": "▁",
    "prepend_scheme": "always",
    "split": true
  },
  "post_processor": null,
  "decoder": {
    "type": "Metaspace",
    "replacement": "▁",
    "prepend_scheme": "always",
    "split": true
  },
  "model": {
    "type": "BPE",
    "dropout": null,
    "unk_token": "<UNK>",
    "continuing_subword_prefix": null,
    "end_of_word_suffix": null,
    "fuse_unk": false,
    "byte_fallback": false,
    "ignore_merges": false,
    "vocab": {
      "<UNK>": 0,
      "<EOS>": 1,
      "<BOS>": 2,
      "<PAD>": 3,
      "<MASK>": 4,
      "\u0016": 5,
      "!": 6,
      "\"": 7,
      "#": 8,
      "$": 9,
      "%": 10,
      "&": 11,
      "'": 12,
      "(": 13,
      ")": 14,
      "*": 15,
      "+": 16,
      ",": 17,
      "-": 18,
      ".": 19,
      "/": 20,
      "0": 21,
      "1": 22,
      "2": 23,
      "3": 24,
      "4": 25,
      "5": 26,
      "6": 27,
      "7": 28,
      "8": 29,
      "9": 30,
      ":": 31,
      ";": 32,
      "<": 33,
      "=": 34,
      ">": 35,
      "?": 36,
      "@": 37,
      "A": 38,
      "B": 39,
      "C": 40,
      "D": 41,
      "E": 42,
      "F": 43,
      "G": 44,
      "H": 45,
      "I": 46,
      "J": 47,
      "K": 48,
      "L": 49,
      "M": 50,
      "N": 51,
      "O": 52,
      "P": 53,
      "Q": 54,
      "R": 55,
      "S": 56,
      "T": 57,
      "U": 58,
      "V": 59,
      "W": 60,
      "X": 61,
      "Y": 62,
      "Z": 63,
      "[": 64,
      "\\": 65,
      "]": 66,
      "^": 67,
      "_": 68,
      "`": 69,
      "a": 70,
      "b": 71,
      "c": 72,
      "d": 73,
      "e": 74,
      "f": 75,
      "g": 76,
      "h": 77,
      "i": 78,
      "j": 79,
      "k": 80,
      "l": 81,
      "m": 82,
      "n": 83,
      "o": 84,
      "p": 85,
      "q": 86,
      "r": 87,
      "s": 88,
      "t": 89,
      "u": 90,
      "v": 91,
      "w": 92,
      "x": 93,
      "y": 94,
      "z": 95,
      "{": 96,
      "|": 97,
      "}": 98,
      "~": 99,
      "": 100,
      "": 101,
      "": 102,
      "": 103,
      "": 104,
      "¡": 105,
      "¢": 106,
      "£": 107,
      "¤": 108,
      "¦": 109,
      "§": 110,
      "¨": 111,
      "©": 112,
      "ª": 113,
      "«": 114,
      "­": 115,
      "®": 116,
      "°": 117,
      "±": 118,
      "²": 119,
      "³": 120,
      "´": 121,
      "µ": 122,
      "¶": 123,
      "·": 124,
      "¹": 125,
      "º": 126,
      "»": 127,
      "¼": 128,
      "½": 129,
      "¾": 130,
      "¿": 131,
      "À": 132,
      "Á": 133,
      "Â": 134,
      "Ã": 135,
      "Ä": 136,
      "Å": 137,
      "Æ": 138,
      "Ç": 139,
      "È": 140,
      "É": 141,
      "Ê": 142,
      "Ë": 143,
      "Í": 144,
      "Î": 145,
      "Ï": 146,
      "Ñ": 147,
      "Ò": 148,
      "Ó": 149,
      "Ô": 150,
      "Õ": 151,
      "Ö": 152,
      "×": 153,
      "Ø": 154,
      "Ú": 155,
      "Û": 156,
      "Ü": 157,
      "Þ": 158,
      "ß": 159,
      "à": 160,
      "á": 161,
      "â": 162,
      "ã": 163,
      "ä": 164,
      "æ": 165,
      "ç": 166,
      "è": 167,
      "é": 168,
      "ê": 169,
      "ë": 170,
      "ì": 171,
      "í": 172,
      "î": 173,
      "ï": 174,
      "ð": 175,
      "ñ": 176,
      "ò": 177,
      "ó": 178,
      "ô": 179,
      "õ": 180,
      "ö": 181,
      "÷": 182,
      "ø": 183,
      "ù": 184,
      "ú": 185,
      "û": 186,
      "ü": 187,
      "ý": 188,
      "þ": 189,
      "ÿ": 190,
      "ā": 191,
      "ă": 192,
      "ć": 193,
      "Č": 194,
      "č": 195,
      "ē": 196,
      "Ĕ": 197,
      "ĕ": 198,
      "ī": 199,
      "ĭ": 200,
      "ł": 201,
      "ō": 202,
      "Ŏ": 203,
      "ŏ": 204,
      "Œ": 205,
      "œ": 206,
      "Š": 207,
      "š": 208,
      "ŭ": 209,
      "ŷ": 210,
      "Ž": 211,
      "ž": 212,
      "ſ": 213,
      "ǣ": 214,
      "ț": 215,
      "Ȝ": 216,
      "ȝ": 217,
      "ȳ": 218,
      "˜": 219,
      "̃": 220,
      "̅": 221,
      "̑": 222,
      "͠": 223,
      "΄": 224,
      "Ά": 225,
      "Έ": 226,
      "Ί": 227,
      "Ό": 228,
      "ΐ": 229,
      "Α": 230,
      "Β": 231,
      "Γ": 232,
      "Δ": 233,
      "Ε": 234,
      "Ζ": 235,
      "Η": 236,
      "Θ": 237,
      "Ι": 238,
      "Κ": 239,
      "Λ": 240,
      "Μ": 241,
      "Ν": 242,
      "Ξ": 243,
      "Ο": 244,
      "Π": 245,
      "Σ": 246,
      "Τ": 247,
      "Υ": 248,
      "Φ": 249,
      "Χ": 250,
      "Ψ": 251,
      "Ω": 252,
      "ά": 253,
      "έ": 254,
      "ή": 255,
      "ί": 256,
      "α": 257,
      "β": 258,
      "γ": 259,
      "δ": 260,
      "ε": 261,
      "ζ": 262,
      "η": 263,
      "θ": 264,
      "ι": 265,
      "κ": 266,
      "λ": 267,
      "μ": 268,
      "ν": 269,
      "ξ": 270,
      "ο": 271,
      "π": 272,
      "ρ": 273,
      "ς": 274,
      "σ": 275,
      "τ": 276,
      "υ": 277,
      "φ": 278,
      "χ": 279,
      "ψ": 280,
      "ω": 281,
      "ϊ": 282,
      "ό": 283,
      "ύ": 284,
      "ώ": 285,
      "ϑ": 286,
      "ϕ": 287,
      "ϛ": 288,
      "ẽ": 289,
      "ỏ": 290,
      "ἀ": 291,
      "ἁ": 292,
      "ἂ": 293,
      "ἃ": 294,
      "ἄ": 295,
      "ἅ": 296,
      "ἆ": 297,
      "Ἀ": 298,
      "Ἁ": 299,
      "Ἄ": 300,
      "ἐ": 301,
      "ἑ": 302,
      "ἒ": 303,
      "ἔ": 304,
      "ἕ": 305,
      "Ἐ": 306,
      "Ἑ": 307,
      "Ἔ": 308,
      "ἠ": 309,
      "ἡ": 310,
      "ἢ": 311,
      "ἣ": 312,
      "ἤ": 313,
      "ἥ": 314,
      "ἦ": 315,
      "ἧ": 316,
      "Ἠ": 317,
      "Ἡ": 318,
      "Ἣ": 319,
      "Ἤ": 320,
      "Ἦ": 321,
      "ἰ": 322,
      "ἱ": 323,
      "ἲ": 324,
      "ἴ": 325,
      "ἵ": 326,
      "ἶ": 327,
      "ἷ": 328,
      "Ἰ": 329,
      "ὀ": 330,
      "ὁ": 331,
      "ὂ": 332,
      "ὃ": 333,
      "ὄ": 334,
      "ὅ": 335,
      "Ὀ": 336,
      "Ὁ": 337,
      "Ὂ": 338,
      "Ὄ": 339,
      "Ὅ": 340,
      "ὐ": 341,
      "ὑ": 342,
      "ὓ": 343,
      "ὔ": 344,
      "ὕ": 345,
      "ὖ": 346,
      "ὗ": 347,
      "Ὕ": 348,
      "ὡ": 349,
      "ὤ": 350,
      "ὥ": 351,
      "ὦ": 352,
      "ὧ": 353,
      "Ὠ": 354,
      "Ὡ": 355,
      "Ὤ": 356,
      "ὰ": 357,
      "ὲ": 358,
      "ὴ": 359,
      "ὶ": 360,
      "ὸ": 361,
      "ὺ": 362,
      "ὼ": 363,
      "ᾐ": 364,
      "ᾖ": 365,
      "ᾗ": 366,
      "ᾤ": 367,
      "ᾦ": 368,
      "ᾳ": 369,
      "ᾴ": 370,
      "ᾶ": 371,
      "ᾷ": 372,
      "ῂ": 373,
      "ῃ": 374,
      "ῆ": 375,
      "ῇ": 376,
      "ῖ": 377,
      "ῤ": 378,
      "ῥ": 379,
      "ῦ": 380,
      "ῳ": 381,
      "ῴ": 382,
      "ῶ": 383,
      "ῷ": 384,
      "Ὸ": 385,
      "–": 386,
      "„": 387,
      "†": 388,
      "‡": 389,
      "•": 390,
      "…": 391,
      "′": 392,
      "″": 393,
      "⁄": 394,
      "⁰": 395,
      "⁵": 396,
      "⁷": 397,
      "⁸": 398,
      "⁹": 399,
      "₀": 400,
      "₁": 401,
      "₂": 402,
      "₃": 403,
      "₄": 404,
      "₉": 405,
      "⅑": 406,
      "⅓": 407,
      "⅔": 408,
      "⅗": 409,
      "⅘": 410,
      "⅙": 411,
      "⅚": 412,
      "⅛": 413,
      "⅜": 414,
      "⅞": 415,
      "∑": 416,
      "╣": 417,
      "▁": 418,
      "▁t": 419,
      "he": 420,
      "▁a": 421,
      "▁the": 422,
      "in": 423,
      "▁o": 424,
      "▁s": 425,
      "re": 426,
      "▁w": 427,
      "nd": 428,
      "er": 429,
      "▁b": 430,
      "ha": 431,
      "en": 432,
      "▁of": 433,
      "▁c": 434,
      "is": 435,
      "on": 436,
      "▁f": 437,
      "it": 438,
      "ed": 439,
      "ou": 440,
      "▁m": 441,
      "es": 442,
      "▁and": 443,
      "▁d": 444,
      "▁p": 445,
      "or": 446,
      "▁to": 447,
      "ar": 448,
      "ing": 449,
      "ll": 450,
      "▁in": 451,
      "▁l": 452,
      "an": 453,
      "as": 454,
      "at": 455,
      "▁n": 456,
      "▁h": 457,
      "om": 458,
      "▁ha": 459,
      "ic": 460,
      "▁e": 461,
      "le": 462,
      "▁g": 463,
      "▁he": 464,
      "▁be": 465,
      "ot": 466,
      "▁I": 467,
      "st": 468,
      "▁T": 469,
      "al": 470,
      "hat": 471,
      "ow": 472,
      "ent": 473,
      "se": 474,
      "ut": 475,
      "ve": 476,
      "ly": 477,
      "im": 478,
      "▁th": 479,
      "id": 480,
      "ion": 481,
      "▁re": 482,
      "▁on": 483,
      "ir": 484,
      "ce": 485,
      "ld": 486,
      "▁wh": 487,
      "ver": 488,
      "▁u": 489,
      "▁that": 490,
      "gh": 491,
      "ur": 492,
      "s,": 493,
      "▁was": 494,
      "et": 495,
      "▁y": 496,
      "▁it": 497,
      "ad": 498,
      "▁S": 499,
      "ith": 500,
      "ro": 501,
      "▁A": 502,
      "ay": 503,
      "▁for": 504,
      "▁with": 505,
      "▁we": 506,
      "▁de": 507,
      "▁as": 508,
      "ac": 509,
      "▁is": 510,
      "am": 511,
      "▁\"": 512,
      "ri": 513,
      "▁The": 514,
      "qu": 515,
      "▁st": 516,
      "▁his": 517,
      "her": 518,
      "ter": 519,
      "▁C": 520,
      "▁an": 521,
      "▁M": 522,
      "e,": 523,
      "▁se": 524,
      "ch": 525,
      "▁at": 526,
      "ght": 527,
      "ra": 528,
      "ill": 529,
      "--": 530,
      "os": 531,
      "ct": 532,
      "il": 533,
      "▁B": 534,
      "▁not": 535,
      "▁su": 536,
      "▁had": 537,
      "ich": 538,
      "oo": 539,
      "▁you": 540,
      "ain": 541,
      "▁by": 542,
      "if": 543,
      "all": 544,
      "▁H": 545,
      "est": 546,
      "rom": 547,
      "ore": 548,
      "▁v": 549,
      "pe": 550,
      "ould": 551,
      "▁con": 552,
      "▁which": 553,
      "ke": 554,
      "s.": 555,
      "and": 556,
      "th": 557,
      "▁P": 558,
      "ul": 559,
      "red": 560,
      "▁so": 561,
      "▁or": 562,
      "▁W": 563,
      "▁from": 564,
      "▁1": 565,
      "ab": 566,
      "nt": 567,
      "▁qu": 568,
      "us": 569,
      "ge": 570,
      "ation": 571,
      "ol": 572,
      "ant": 573,
      "▁they": 574,
      "▁but": 575,
      "▁him": 576,
      "▁com": 577,
      "▁r": 578,
      "▁all": 579,
      "▁ex": 580,
      "▁ne": 581,
      "▁her": 582,
      "'s": 583,
      "▁me": 584,
      "ie": 585,
      "▁have": 586,
      "▁sa": 587,
      "▁k": 588,
      "▁were": 589,
      "▁al": 590,
      "▁are": 591,
      "▁this": 592,
      "res": 593,
      "▁F": 594,
      "ight": 595,
      "▁D": 596,
      "▁L": 597,
      "▁whe": 598,
      "▁sh": 599,
      "ess": 600,
      "ig": 601,
      "pp": 602,
      "es,": 603,
      "ist": 604,
      "▁E": 605,
      "um": 606,
      "▁their": 607,
      "ust": 608,
      "our": 609,
      "▁_": 610,
      "ard": 611,
      "em": 612,
      "art": 613,
      "▁G": 614,
      "ong": 615,
      "y,": 616,
      "▁N": 617,
      "un": 618,
      "▁le": 619,
      "▁up": 620,
      "ous": 621,
      "▁them": 622,
      "ast": 623,
      "ound": 624,
      "▁no": 625,
      "▁who": 626,
      "el": 627,
      "ome": 628,
      "▁en": 629,
      "▁R": 630,
      "▁ab": 631,
      "out": 632,
      "▁O": 633,
      "iv": 634,
      "ort": 635,
      "very": 636,
      "▁do": 637,
      "▁one": 638,
      "▁she": 639,
      "▁man": 640,
      "ame": 641,
      "▁pro": 642,
      "ers": 643,
      "ood": 644,
      "ed,": 645,
      "▁la": 646,
      "ind": 647,
      "▁my": 648,
      "▁fe": 649,
      "▁pl": 650,
      "reat": 651,
      "▁int": 652,
      "ive": 653,
      ".\"": 654,
      "▁un": 655,
      "ate": 656,
      "a,": 657,
      "pt": 658,
      "ci": 659,
      "ost": 660,
      "ak": 661,
      "han": 662,
      "ther": 663,
      "own": 664,
      "ag": 665,
      "op": 666,
      "od": 667,
      "▁said": 668,
      "▁ar": 669,
      "ough": 670,
      "▁been": 671,
      "ck": 672,
      "sel": 673,
      "ure": 674,
      "▁J": 675,
      "ack": 676,
      "▁there": 677,
      "▁j": 678,
      "itt": 679,
      "▁out": 680,
      "o,": 681,
      "▁que": 682,
      "▁would": 683,
      "ish": 684,
      "▁when": 685,
      "ose": 686,
      "ry": 687,
      "▁(": 688,
      "ect": 689,
      "▁sp": 690,
      "▁wor": 691,
      "e.": 692,
      "▁kn": 693,
      "ff": 694,
      "▁other": 695,
      "▁2": 696,
      "ell": 697,
      "cc": 698,
      "ies": 699,
      "ud": 700,
      "hed": 701,
      "▁will": 702,
      "▁tw": 703,
      "ond": 704,
      "▁He": 705,
      "av": 706,
      "ance": 707,
      "ber": 708,
      "▁more": 709,
      "ount": 710,
      "▁ag": 711,
      "▁some": 712,
      "▁tim": 713,
      "▁go": 714,
      "ace": 715,
      "ap": 716,
      "▁ro": 717,
      "ment": 718,
      "▁gr": 719,
      "▁li": 720,
      "ass": 721,
      "ity": 722,
      "able": 723,
      "▁tr": 724,
      "ep": 725,
      "▁great": 726,
      "ing,": 727,
      "are": 728,
      "▁very": 729,
      "ven": 730,
      "▁br": 731,
      "end": 732,
      "▁pr": 733,
      "ire": 734,
      "▁It": 735,
      "▁am": 736,
      "ide": 737,
      "ake": 738,
      "▁any": 739,
      "ook": 740,
      "▁cl": 741,
      "▁dis": 742,
      "▁im": 743,
      "ree": 744,
      "▁part": 745,
      "ng": 746,
      "▁ad": 747,
      "▁into": 748,
      "▁than": 749,
      "▁can": 750,
      "ite": 751,
      "ove": 752,
      "one": 753,
      "▁mu": 754,
      "▁if": 755,
      "fter": 756,
      "ally": 757,
      "▁per": 758,
      "au": 759,
      "▁ch": 760,
      "▁bl": 761,
      "▁des": 762,
      "▁Th": 763,
      "ence": 764,
      "pl": 765,
      "▁has": 766,
      "self": 767,
      "▁its": 768,
      "ord": 769,
      "ine": 770,
      "per": 771,
      "▁[": 772,
      "urn": 773,
      "ian": 774,
      "ade": 775,
      "ed.": 776,
      "fore": 777,
      ",\"": 778,
      "▁could": 779,
      "▁our": 780,
      "ue": 781,
      "..": 782,
      "ittle": 783,
      "▁el": 784,
      "▁about": 785,
      "ach": 786,
      "er,": 787,
      "▁fl": 788,
      "ble": 789,
      "▁us": 790,
      "'t": 791,
      "▁what": 792,
      "▁day": 793,
      "way": 794,
      "oll": 795,
      "▁In": 796,
      "bl": 797,
      "▁over": 798,
      "other": 799,
      "nder": 800,
      "▁sha": 801,
      "es.": 802,
      "▁V": 803,
      "▁pe": 804,
      "▁little": 805,
      "▁pre": 806,
      "▁two": 807,
      "▁spe": 808,
      "ark": 809,
      "wn": 810,
      "ru": 811,
      "ile": 812,
      "▁ri": 813,
      "▁And": 814,
      "ear": 815,
      "ick": 816,
      "▁after": 817,
      "age": 818,
      "ull": 819,
      "orn": 820,
      "▁only": 821,
      "▁po": 822,
      "▁long": 823,
      "▁like": 824,
      "ered": 825,
      "▁off": 826,
      "ere": 827,
      "ild": 828,
      "▁then": 829,
      "▁But": 830,
      "▁'": 831,
      "▁\"I": 832,
      "ert": 833,
      "oy": 834,
      "ought": 835,
      "act": 836,
      "ip": 837,
      "ward": 838,
      "ary": 839,
      "▁should": 840,
      "▁again": 841,
      "▁cont": 842,
      "▁these": 843,
      "ia": 844,
      "▁now": 845,
      "▁ra": 846,
      "▁3": 847,
      "▁K": 848,
      "▁upon": 849,
      "▁much": 850,
      "▁where": 851,
      "cl": 852,
      "ather": 853,
      "▁fir": 854,
      "ated": 855,
      "▁your": 856,
      "▁thr": 857,
      "▁made": 858,
      "▁St": 859,
      "▁did": 860,
      "▁rem": 861,
      "ice": 862,
      "ious": 863,
      "land": 864,
      "int": 865,
      "▁may": 866,
      "ved": 867,
      "▁under": 868,
      "▁time": 869,
      "ft": 870,
      "▁res": 871,
      "ress": 872,
      "▁cha": 873,
      "iz": 874,
      "▁down": 875,
      "▁sm": 876,
      "▁good": 877,
      "ign": 878,
      "ful": 879,
      "▁comm": 880,
      "▁lo": 881,
      "▁see": 882,
      "ink": 883,
      "hen": 884,
      "▁before": 885,
      "▁co": 886,
      "▁sc": 887,
      "ans": 888,
      "▁hand": 889,
      "ied": 890,
      "▁most": 891,
      "▁such": 892,
      "ang": 893,
      "we": 894,
      "ne": 895,
      "▁ob": 896,
      "▁too": 897,
      "▁first": 898,
      "▁how": 899,
      "ings": 900,
      "ition": 901,
      "▁ent": 902,
      "▁know": 903,
      "▁es": 904,
      "y.": 905,
      "▁men": 906,
      "▁those": 907,
      "▁18": 908,
      "▁Mr": 909,
      "----": 910,
      "▁bet": 911,
      "oth": 912,
      "▁say": 913,
      "▁Y": 914,
      "ult": 915,
      "▁being": 916,
      "▁att": 917,
      "▁comp": 918,
      "ens": 919,
      "▁bec": 920,
      "▁ap": 921,
      "▁every": 922,
      "ater": 923,
      "▁look": 924,
      "▁ind": 925,
      "▁found": 926,
      "▁well": 927,
      "ly,": 928,
      "oss": 929,
      "a.": 930,
      "▁cons": 931,
      "▁dist": 932,
      "▁acc": 933,
      "ave": 934,
      "og": 935,
      "▁est": 936,
      "iff": 937,
      "on,": 938,
      "▁even": 939,
      "anc": 940,
      "?\"": 941,
      "mer": 942,
      "ren": 943,
      "hing": 944,
      "▁|": 945,
      "▁del": 946,
      "▁sl": 947,
      "ener": 948,
      "▁old": 949,
      "ird": 950,
      "so": 951,
      "ath": 952,
      "▁imp": 953,
      "▁many": 954,
      "▁must": 955,
      "▁way": 956,
      "ier": 957,
      "ail": 958,
      "iss": 959,
      "▁year": 960,
      "ving": 961,
      "▁through": 962,
      "ix": 963,
      "igh": 964,
      "ions": 965,
      "▁pres": 966,
      "▁call": 967,
      "▁back": 968,
      "▁4": 969,
      "▁ret": 970,
      "ever": 971,
      "ew": 972,
      "▁pass": 973,
      "▁came": 974,
      "▁lar": 975,
      "▁never": 976,
      "o.": 977,
      "▁tra": 978,
      "orm": 979,
      "▁ser": 980,
      "▁car": 981,
      "ont": 982,
      "_,": 983,
      "▁same": 984,
      "ily": 985,
      "ons": 986,
      "▁bel": 987,
      "▁head": 988,
      "▁own": 989,
      "▁count": 990,
      "▁This": 991,
      "ty": 992,
      "ise": 993,
      "ict": 994,
      "ouse": 995,
      "▁app": 996,
      "!\"": 997,
      "▁They": 998,
      "hes": 999,
      "en,": 1000,
      "und": 1001,
      "ing.": 1002,
      "▁ear": 1003,
      "▁bo": 1004,
      "te": 1005,
      "outh": 1006,
      "'d": 1007,
      "▁U": 1008,
      "▁Ch": 1009,
      "gg": 1010,
      "▁form": 1011,
      "▁seem": 1012,
      "▁might": 1013,
      "▁gl": 1014,
      "amp": 1015,
      "ople": 1016,
      "▁without": 1017,
      "▁op": 1018,
      "▁nat": 1019,
      "▁work": 1020,
      "▁diff": 1021,
      "▁just": 1022,
      "▁str": 1023,
      "les": 1024,
      "▁\"T": 1025,
      "00": 1026,
      "ction": 1027,
      "▁rep": 1028,
      "▁himself": 1029,
      "▁em": 1030,
      "ors": 1031,
      "uc": 1032,
      "▁appe": 1033,
      "▁near": 1034,
      "▁end": 1035,
      "rit": 1036,
      "▁went": 1037,
      "▁Mr.": 1038,
      "▁make": 1039,
      "ower": 1040,
      "▁last": 1041,
      "ock": 1042,
      "▁ac": 1043,
      "ote": 1044,
      "ared": 1045,
      "▁ke": 1046,
      "ER": 1047,
      "▁place": 1048,
      "▁ext": 1049,
      "ros": 1050,
      "▁los": 1051,
      "man": 1052,
      "▁rec": 1053,
      "ause": 1054,
      "row": 1055,
      "▁people": 1056,
      "old": 1057,
      "air": 1058,
      "▁bu": 1059,
      "ollow": 1060,
      "ía": 1061,
      "▁set": 1062,
      "led": 1063,
      "▁here": 1064,
      "ried": 1065,
      "oot": 1066,
      "read": 1067,
      "▁beg": 1068,
      "▁lif": 1069,
      "▁har": 1070,
      "▁far": 1071,
      "▁ey": 1072,
      "▁ord": 1073,
      "pect": 1074,
      "omet": 1075,
      "ished": 1076,
      "▁sub": 1077,
      "▁arm": 1078,
      "▁think": 1079,
      "▁come": 1080,
      "▁also": 1081,
      "▁mar": 1082,
      "▁sur": 1083,
      "ale": 1084,
      "▁get": 1085,
      "ves": 1086,
      "▁\"W": 1087,
      "▁small": 1088,
      "▁away": 1089,
      "▁three": 1090,
      "▁por": 1091,
      "▁let": 1092,
      "▁fri": 1093,
      "ince": 1094,
      "▁tak": 1095,
      "▁5": 1096,
      "▁pu": 1097,
      "▁war": 1098,
      "▁don": 1099,
      "▁shall": 1100,
      "ib": 1101,
      "▁We": 1102,
      "▁thought": 1103,
      "▁inf": 1104,
      "ory": 1105,
      "▁She": 1106,
      "▁As": 1107,
      "▁Eng": 1108,
      "s;": 1109,
      "▁while": 1110,
      "▁still": 1111,
      "ase": 1112,
      "ular": 1113,
      "▁supp": 1114,
      "ject": 1115,
      "▁inc": 1116,
      "ible": 1117,
      "rib": 1118,
      "atter": 1119,
      "HE": 1120,
      "ott": 1121,
      "ustr": 1122,
      "▁inst": 1123,
      "▁it,": 1124,
      "▁An": 1125,
      "vent": 1126,
      "▁Se": 1127,
      "ret": 1128,
      "ual": 1129,
      "orth": 1130,
      "▁gener": 1131,
      "▁cour": 1132,
      "▁sec": 1133,
      "▁There": 1134,
      "▁par": 1135,
      "▁reg": 1136,
      "ps": 1137,
      "▁each": 1138,
      "ked": 1139,
      "ness": 1140,
      "lf": 1141,
      "▁col": 1142,
      "▁follow": 1143,
      "▁take": 1144,
      "ion,": 1145,
      "ical": 1146,
      "▁Q": 1147,
      "▁exp": 1148,
      "▁night": 1149,
      "ither": 1150,
      "▁another": 1151,
      "att": 1152,
      "ient": 1153,
      "oc": 1154,
      "ug": 1155,
      "▁ca": 1156,
      "ween": 1157,
      "i.": 1158,
      "ank": 1159,
      "▁At": 1160,
      "▁left": 1161,
      "▁few": 1162,
      "▁num": 1163,
      "▁turn": 1164,
      "ertain": 1165,
      "▁new": 1166,
      "n't": 1167,
      "ial": 1168,
      "ined": 1169,
      "▁young": 1170,
      "or,": 1171,
      "unt": 1172,
      "▁though": 1173,
      "▁saw": 1174,
      "▁When": 1175,
      "▁te": 1176,
      "▁put": 1177,
      "ations": 1178,
      "-b": 1179,
      "aster": 1180,
      "ool": 1181,
      "▁tre": 1182,
      "h,": 1183,
      "▁occ": 1184,
      "▁giv": 1185,
      "▁between": 1186,
      "▁right": 1187,
      "cess": 1188,
      "▁poss": 1189,
      "imal": 1190,
      "▁rel": 1191,
      "▁find": 1192,
      "▁bird": 1193,
      "▁*": 1194,
      "▁sk": 1195,
      "▁him,": 1196,
      "▁large": 1197,
      "bit": 1198,
      "ces": 1199,
      "▁somet": 1200,
      "▁land": 1201,
      "▁6": 1202,
      "▁cr": 1203,
      "le,": 1204,
      "▁gra": 1205,
      "here": 1206,
      "▁read": 1207,
      "▁having": 1208,
      "ened": 1209,
      ".,": 1210,
      "▁it.": 1211,
      "▁char": 1212,
      "▁return": 1213,
      "aint": 1214,
      "erm": 1215,
      "▁pers": 1216,
      "▁pur": 1217,
      "▁sw": 1218,
      "get": 1219,
      "ph": 1220,
      "cha": 1221,
      "▁present": 1222,
      "ari": 1223,
      "li": 1224,
      "eng": 1225,
      "▁Ind": 1226,
      "▁house": 1227,
      "ub": 1228,
      "▁THE": 1229,
      "▁friend": 1230,
      "▁min": 1231,
      "▁Wh": 1232,
      "er.": 1233,
      "ars": 1234,
      "▁child": 1235,
      "▁against": 1236,
      "▁bre": 1237,
      "▁feet": 1238,
      "ways": 1239,
      "ited": 1240,
      "▁ass": 1241,
      "▁ever": 1242,
      "▁took": 1243,
      "▁unt": 1244,
      "▁speci": 1245,
      "▁On": 1246,
      "▁conf": 1247,
      "▁water": 1248,
      "ope": 1249,
      "▁once": 1250,
      "▁rest": 1251,
      "▁fore": 1252,
      "▁among": 1253,
      "▁kind": 1254,
      "less": 1255,
      "cept": 1256,
      "ief": 1257,
      "▁mil": 1258,
      "▁soon": 1259,
      "▁animal": 1260,
      ".--": 1261,
      "▁word": 1262,
      "most": 1263,
      "▁las": 1264,
      "▁both": 1265,
      "ien": 1266,
      "uring": 1267,
      "▁yet": 1268,
      "vers": 1269,
      "ross": 1270,
      "xt": 1271,
      "as,": 1272,
      "▁So": 1273,
      "▁Then": 1274,
      "▁mon": 1275,
      "inn": 1276,
      "ly.": 1277,
      "▁called": 1278,
      "ired": 1279,
      "▁gu": 1280,
      "▁point": 1281,
      "▁give": 1282,
      "▁always": 1283,
      "▁di": 1284,
      "ield": 1285,
      "ained": 1286,
      "▁seen": 1287,
      "▁chan": 1288,
      "the": 1289,
      "▁inter": 1290,
      "▁disc": 1291,
      "▁19": 1292,
      "▁ple": 1293,
      "▁hor": 1294,
      "▁high": 1295,
      "▁Sp": 1296,
      "▁stre": 1297,
      "vel": 1298,
      "▁fam": 1299,
      "▁Al": 1300,
      "▁sent": 1301,
      "▁want": 1302,
      "se,": 1303,
      "▁black": 1304,
      "vern": 1305,
      "ation,": 1306,
      "az": 1307,
      "aut": 1308,
      "aw": 1309,
      "▁7": 1310,
      "ched": 1311,
      "ived": 1312,
      "▁ref": 1313,
      "▁four": 1314,
      "ates": 1315,
      "ern": 1316,
      "▁wr": 1317,
      "▁wat": 1318,
      "ced": 1319,
      "▁and,": 1320,
      "up": 1321,
      "rew": 1322,
      "▁fr": 1323,
      "▁act": 1324,
      "▁them,": 1325,
      "▁whole": 1326,
      "),": 1327,
      "ser": 1328,
      "us,": 1329,
      "me": 1330,
      "i>": 1331,
      "ustration": 1332,
      "▁white": 1333,
      "▁light": 1334,
      "▁met": 1335,
      "▁happ": 1336,
      "io": 1337,
      "ange": 1338,
      "▁country": 1339,
      "._": 1340,
      "alk": 1341,
      "ado": 1342,
      "▁8": 1343,
      "ON": 1344,
      "▁wind": 1345,
      "ung": 1346,
      "osed": 1347,
      "ten": 1348,
      "▁To": 1349,
      ".]": 1350,
      "▁Fr": 1351,
      "▁bro": 1352,
      "que": 1353,
      "▁tell": 1354,
      "ody": 1355,
      "ins": 1356,
      "aj": 1357,
      "▁.": 1358,
      "▁For": 1359,
      "▁ins": 1360,
      "▁I'": 1361,
      "▁cur": 1362,
      "▁aff": 1363,
      "▁[I": 1364,
      "▁river": 1365,
      "ey": 1366,
      "▁ground": 1367,
      "-f": 1368,
      "llustration": 1369,
      "▁dec": 1370,
      "▁mo": 1371,
      "▁above": 1372,
      "▁certain": 1373,
      "▁hard": 1374,
      "▁[Illustration": 1375,
      "wards": 1376,
      "▁because": 1377,
      "▁ver": 1378,
      "sh": 1379,
      "▁art": 1380,
      "▁wood": 1381,
      "▁adv": 1382,
      "ident": 1383,
      "▁Ar": 1384,
      "ait": 1385,
      "▁show": 1386,
      "▁round": 1387,
      "ason": 1388,
      "▁nothing": 1389,
      "_.": 1390,
      "...": 1391,
      "▁red": 1392,
      "ers,": 1393,
      "▁king": 1394,
      "▁however": 1395,
      "▁less": 1396,
      "▁differe": 1397,
      "ised": 1398,
      "▁\"A": 1399,
      "▁full": 1400,
      "▁eff": 1401,
      "▁cle": 1402,
      "▁got": 1403,
      "▁cond": 1404,
      "▁Mar": 1405,
      "sw": 1406,
      "▁half": 1407,
      "▁dra": 1408,
      "▁side": 1409,
      "▁name": 1410,
      "▁whom": 1411,
      "▁p.": 1412,
      "ec": 1413,
      "ceed": 1414,
      "lish": 1415,
      "▁add": 1416,
      "an,": 1417,
      "▁gave": 1418,
      "▁quite": 1419,
      "▁heart": 1420,
      "▁him.": 1421,
      "-t": 1422,
      "ged": 1423,
      "▁morn": 1424,
      "med": 1425,
      "▁sn": 1426,
      "ains": 1427,
      "ow,": 1428,
      "▁ele": 1429,
      "ting": 1430,
      "den": 1431,
      "▁heard": 1432,
      "ies,": 1433,
      "▁Is": 1434,
      "▁care": 1435,
      "ider": 1436,
      "▁years": 1437,
      "▁best": 1438,
      "IN": 1439,
      "▁mind": 1440,
      "▁plac": 1441,
      "▁cor": 1442,
      "▁-": 1443,
      "oud": 1444,
      "▁contin": 1445,
      "ple": 1446,
      "▁almost": 1447,
      "▁dire": 1448,
      "▁If": 1449,
      "ity,": 1450,
      "▁sever": 1451,
      "▁che": 1452,
      "al,": 1453,
      "▁\"Y": 1454,
      "▁said,": 1455,
      "▁wom": 1456,
      "▁themsel": 1457,
      "▁fell": 1458,
      "▁me,": 1459,
      "▁fin": 1460,
      "▁thing": 1461,
      "ió": 1462,
      "▁=": 1463,
      "ably": 1464,
      "▁mak": 1465,
      "t,": 1466,
      "▁fall": 1467,
      "▁mount": 1468,
      "-c": 1469,
      "▁kill": 1470,
      "ob": 1471,
      "▁pleas": 1472,
      "ters": 1473,
      "▁life": 1474,
      "ar,": 1475,
      "ures": 1476,
      "▁sat": 1477,
      "ay,": 1478,
      "ion.": 1479,
      "har": 1480,
      "▁going": 1481,
      "▁taken": 1482,
      "ating": 1483,
      "eg": 1484,
      "irl": 1485,
      "▁told": 1486,
      "▁better": 1487,
      "▁father": 1488,
      "▁det": 1489,
      "▁cent": 1490,
      "▁Pr": 1491,
      "uth": 1492,
      "ific": 1493,
      "▁rece": 1494,
      "ES": 1495,
      "ured": 1496,
      "▁beaut": 1497,
      "▁ve": 1498,
      "▁world": 1499,
      "▁number": 1500,
      "▁dark": 1501,
      "▁brought": 1502,
      "▁open": 1503,
      "▁keep": 1504,
      "▁son": 1505,
      "elt": 1506,
      "aba": 1507,
      "▁cas": 1508,
      "▁along": 1509,
      "oment": 1510,
      "▁obser": 1511,
      "▁def": 1512,
      "▁sil": 1513,
      "▁them.": 1514,
      "▁until": 1515,
      "uck": 1516,
      "meric": 1517,
      "ance,": 1518,
      "▁feel": 1519,
      "thing": 1520,
      "men": 1521,
      "▁dog": 1522,
      "▁several": 1523,
      "▁vis": 1524,
      "▁hum": 1525,
      "II": 1526,
      "▁perf": 1527,
      "▁dou": 1528,
      "▁ste": 1529,
      "ia,": 1530,
      "AN": 1531,
      "▁moment": 1532,
      "ament": 1533,
      "i,": 1534,
      "br": 1535,
      "▁Qu": 1536,
      "undred": 1537,
      "▁seemed": 1538,
      "AR": 1539,
      "▁mis": 1540,
      "▁home": 1541,
      "overed": 1542,
      "▁17": 1543,
      "▁sim": 1544,
      "not": 1545,
      "th,": 1546,
      "ately": 1547,
      "▁face": 1548,
      "ually": 1549,
      "▁Be": 1550,
      "▁His": 1551,
      "ene": 1552,
      "▁don't": 1553,
      "▁bus": 1554,
      "▁run": 1555,
      "▁answ": 1556,
      "▁common": 1557,
      "▁belie": 1558,
      "▁Americ": 1559,
      "▁suff": 1560,
      "▁dep": 1561,
      "▁however,": 1562,
      "▁hundred": 1563,
      "pped": 1564,
      "in,": 1565,
      "▁sun": 1566,
      "erest": 1567,
      "▁gre": 1568,
      "▁Jo": 1569,
      "▁fur": 1570,
      "▁opp": 1571,
      "▁inde": 1572,
      "▁er": 1573,
      "arn": 1574,
      "osition": 1575,
      "▁often": 1576,
      ").": 1577,
      "--------": 1578,
      "▁given": 1579,
      "▁fact": 1580,
      "▁De": 1581,
      "ute": 1582,
      "▁use": 1583,
      "ines": 1584,
      "▁stand": 1585,
      "▁nor": 1586,
      "rist": 1587,
      "▁15": 1588,
      "▁10": 1589,
      "▁ev": 1590,
      "-s": 1591,
      "▁lay": 1592,
      "ole": 1593,
      "▁prop": 1594,
      "▁die": 1595,
      "▁hour": 1596,
      "ek": 1597,
      "ently": 1598,
      "▁mother": 1599,
      "▁ten": 1600,
      "▁things": 1601,
      "▁short": 1602,
      "▁appear": 1603,
      "▁et": 1604,
      "ax": 1605,
      "▁wild": 1606,
      "▁9": 1607,
      "▁Un": 1608,
      "▁looked": 1609,
      "ison": 1610,
      "▁serv": 1611,
      "▁X": 1612,
      "▁six": 1613,
      "oun": 1614,
      "▁does": 1615,
      "▁--": 1616,
      "▁during": 1617,
      "▁began": 1618,
      "▁next": 1619,
      "ation.": 1620,
      "▁sus": 1621,
      "▁toget": 1622,
      "▁together": 1623,
      "▁&": 1624,
      "▁God": 1625,
      "▁16": 1626,
      "▁boy": 1627,
      "-d": 1628,
      "▁King": 1629,
      "ached": 1630,
      "full": 1631,
      "is,": 1632,
      "▁love": 1633,
      "▁eyes": 1634,
      "▁hel": 1635,
      "▁power": 1636,
      "itud": 1637,
      "ling": 1638,
      "▁prov": 1639,
      "▁heav": 1640,
      "▁interest": 1641,
      "▁Indian": 1642,
      "▁enough": 1643,
      "▁adm": 1644,
      "bt": 1645,
      "▁sid": 1646,
      "▁You": 1647,
      "▁English": 1648,
      "ric": 1649,
      "▁close": 1650,
      "che": 1651,
      "os,": 1652,
      "iew": 1653,
      "anch": 1654,
      "▁ter": 1655,
      "▁thou": 1656,
      "omm": 1657,
      "▁till": 1658,
      "imes": 1659,
      "▁deg": 1660,
      "▁\"H": 1661,
      "ives": 1662,
      "nes": 1663,
      "▁vo": 1664,
      "pr": 1665,
      "▁fre": 1666,
      "irc": 1667,
      "▁esc": 1668,
      "ure,": 1669,
      "▁cu": 1670,
      "▁12": 1671,
      "▁bar": 1672,
      "its": 1673,
      "▁OF": 1674,
      "▁That": 1675,
      "▁leg": 1676,
      "par": 1677,
      "▁knew": 1678,
      "▁order": 1679,
      "ention": 1680,
      "▁desc": 1681,
      "riv": 1682,
      "▁sum": 1683,
      "▁rather": 1684,
      "▁Le": 1685,
      "▁strong": 1686,
      "ities": 1687,
      "▁consider": 1688,
      "▁whose": 1689,
      "ry,": 1690,
      "▁\"O": 1691,
      "▁Par": 1692,
      "▁inv": 1693,
      "OR": 1694,
      "hern": 1695,
      "The": 1696,
      "ues": 1697,
      "▁fire": 1698,
      "▁tem": 1699,
      "EN": 1700,
      "▁leng": 1701,
      "mp": 1702,
      "▁cap": 1703,
      "ate,": 1704,
      "▁tod": 1705,
      "ior": 1706,
      "▁species": 1707,
      "▁New": 1708,
      "▁[Illustration:": 1709,
      "▁necess": 1710,
      "▁lad": 1711,
      "▁thus": 1712,
      "▁since": 1713,
      "▁(_": 1714,
      "ided": 1715,
      "▁prom": 1716,
      "▁sle": 1717,
      "▁bri": 1718,
      "▁known": 1719,
      "▁Ca": 1720,
      "ued": 1721,
      "ando": 1722,
      "enty": 1723,
      "▁England": 1724,
      "-w": 1725,
      "▁All": 1726,
      "bre": 1727,
      "ah": 1728,
      "let": 1729,
      "▁person": 1730,
      "ants": 1731,
      "▁themselves": 1732,
      "▁sing": 1733,
      "▁children": 1734,
      "▁\"N": 1735,
      "ok": 1736,
      "▁deep": 1737,
      "▁gent": 1738,
      "▁different": 1739,
      "▁matter": 1740,
      "▁prod": 1741,
      "gin": 1742,
      "ner": 1743,
      "▁girl": 1744,
      "▁sch": 1745,
      "▁hands": 1746,
      "iet": 1747,
      "▁No": 1748,
      "▁either": 1749,
      "ter,": 1750,
      "iful": 1751,
      "▁\"The": 1752,
      "▁What": 1753,
      "▁second": 1754,
      "▁course": 1755,
      "▁bur": 1756,
      "tern": 1757,
      "▁days": 1758,
      "▁South": 1759,
      "▁prin": 1760,
      "▁ship": 1761,
      "▁const": 1762,
      "▁mer": 1763,
      "nce": 1764,
      "ows": 1765,
      "als": 1766,
      "▁death": 1767,
      "▁town": 1768,
      "jo": 1769,
      "▁eas": 1770,
      "▁Christ": 1771,
      "mber": 1772,
      "co": 1773,
      "▁vol": 1774,
      "ad,": 1775,
      "▁Sc": 1776,
      "▁sal": 1777,
      "▁beh": 1778,
      "▁\"S": 1779,
      "▁ed": 1780,
      "▁Miss": 1781,
      "▁With": 1782,
      "▁dest": 1783,
      "hn": 1784,
      "▁mark": 1785,
      "▁that,": 1786,
      "▁used": 1787,
      "▁cat": 1788,
      "▁room": 1789,
      "▁una": 1790,
      "▁passed": 1791,
      "ex": 1792,
      "▁enc": 1793,
      "▁mod": 1794,
      "of": 1795,
      "blic": 1796,
      "▁spr": 1797,
      "ch,": 1798,
      "▁law": 1799,
      "▁11": 1800,
      "ense": 1801,
      "AT": 1802,
      "▁succ": 1803,
      "▁fort": 1804,
      "ice,": 1805,
      "▁circ": 1806,
      "▁done": 1807,
      "▁asked": 1808,
      "▁hon": 1809,
      "note": 1810,
      "▁air": 1811,
      "▁rock": 1812,
      "▁dem": 1813,
      "</": 1814,
      "▁cut": 1815,
      "ousand": 1816,
      "▁camp": 1817,
      "▁El": 1818,
      "ural": 1819,
      "▁mid": 1820,
      "▁sy": 1821,
      "vernment": 1822,
      "▁therefore": 1823,
      "on.": 1824,
      "de": 1825,
      "ás": 1826,
      "▁charac": 1827,
      "▁miles": 1828,
      "▁something": 1829,
      "s.\"": 1830,
      "▁wond": 1831,
      "ering": 1832,
      "▁pol": 1833,
      "pper": 1834,
      "▁stru": 1835,
      "▁thousand": 1836,
      "▁val": 1837,
      "▁[F": 1838,
      "aid": 1839,
      "ying": 1840,
      "▁speak": 1841,
      "▁exc": 1842,
      "▁tri": 1843,
      "uss": 1844,
      "▁poor": 1845,
      "pend": 1846,
      "▁fa": 1847,
      "▁leav": 1848,
      "▁appro": 1849,
      "▁within": 1850,
      "TER": 1851,
      "▁stood": 1852,
      "▁ill": 1853,
      "▁Lord": 1854,
      "▁pie": 1855,
      "▁cannot": 1856,
      "▁hold": 1857,
      "▁prob": 1858,
      "▁<": 1859,
      "▁á": 1860,
      "ution": 1861,
      "▁13": 1862,
      "▁como": 1863,
      "▁Brit": 1864,
      "omp": 1865,
      "▁subject": 1866,
      "▁hear": 1867,
      "▁dr": 1868,
      "'ll": 1869,
      "▁equ": 1870,
      "▁enem": 1871,
      "▁foot": 1872,
      "▁Cl": 1873,
      "gr": 1874,
      "▁five": 1875,
      "▁ir": 1876,
      "ent,": 1877,
      "▁fav": 1878,
      "▁thy": 1879,
      "▁help": 1880,
      "▁14": 1881,
      "▁except": 1882,
      "▁trans": 1883,
      "go": 1884,
      "fort": 1885,
      "▁need": 1886,
      "▁win": 1887,
      "▁i": 1888,
      "ence,": 1889,
      "▁dri": 1890,
      "▁effect": 1891,
      "sem": 1892,
      "▁turned": 1893,
      "ev": 1894,
      "▁ru": 1895,
      "▁bra": 1896,
      "icular": 1897,
      "▁felt": 1898,
      "▁aw": 1899,
      "▁morning": 1900,
      "▁possess": 1901,
      "▁div": 1902,
      "▁general": 1903,
      "▁Z": 1904,
      "-p": 1905,
      "▁One": 1906,
      "oul": 1907,
      "ada": 1908,
      "▁Don": 1909,
      "ended": 1910,
      "ks": 1911,
      "▁sure": 1912,
      "▁coll": 1913,
      "▁least": 1914,
      "▁occas": 1915,
      "cted": 1916,
      "▁others": 1917,
      "▁gold": 1918,
      "▁North": 1919,
      "▁mean": 1920,
      "▁brother": 1921,
      "▁time,": 1922,
      "▁account": 1923,
      "any": 1924,
      "▁Sh": 1925,
      "ents": 1926,
      "▁port": 1927,
      "▁master": 1928,
      "▁import": 1929,
      "▁nearly": 1930,
      "ages": 1931,
      "over": 1932,
      "▁real": 1933,
      "▁bear": 1934,
      "▁play": 1935,
      "ump": 1936,
      "hy": 1937,
      "et,": 1938,
      "▁north": 1939,
      "ize": 1940,
      "rench": 1941,
      "ressed": 1942,
      "stand": 1943,
      "▁requ": 1944,
      "icult": 1945,
      "▁pal": 1946,
      "▁sign": 1947,
      "▁hill": 1948,
      "used": 1949,
      "▁These": 1950,
      "▁nam": 1951,
      "▁itself": 1952,
      "▁Con": 1953,
      "▁Col": 1954,
      "▁sit": 1955,
      "▁alread": 1956,
      "ative": 1957,
      "en.": 1958,
      "▁command": 1959,
      "▁bes": 1960,
      "▁stra": 1961,
      "▁jo": 1962,
      "▁chief": 1963,
      "▁John": 1964,
      "▁und": 1965,
      "▁sol": 1966,
      "▁\"B": 1967,
      "▁stri": 1968,
      "▁ll": 1969,
      "cul": 1970,
      "▁quest": 1971,
      "at,": 1972,
      "ity.": 1973,
      "▁pret": 1974,
      "▁sound": 1975,
      "ments": 1976,
      "ection": 1977,
      "▁cross": 1978,
      "-m": 1979,
      "▁prot": 1980,
      "ge,": 1981,
      "AL": 1982,
      "aim": 1983,
      "▁repl": 1984,
      "▁difficult": 1985,
      "▁towards": 1986,
      "fully": 1987,
      "▁tail": 1988,
      "▁dev": 1989,
      "▁hom": 1990,
      "▁abs": 1991,
      "▁z": 1992,
      "▁view": 1993,
      "▁believe": 1994,
      "**": 1995,
      "==": 1996,
      "ootnote": 1997,
      "▁disp": 1998,
      "▁beautiful": 1999,
      "▁CH": 2000,
      "▁para": 2001,
      "▁wall": 2002,
      "▁Em": 2003,
      "▁Mrs.": 2004,
      "▁respect": 2005,
      "oura": 2006,
      "▁state": 2007,
      "▁lead": 2008,
      "▁sometimes": 2009,
      "▁body": 2010,
      "bert": 2011,
      "or.": 2012,
      "▁Car": 2013,
      "▁myself": 2014,
      "▁island": 2015,
      "▁you,": 2016,
      "▁doubt": 2017,
      "eth": 2018,
      "ger": 2019,
      "▁Or": 2020,
      "AP": 2021,
      "ell,": 2022,
      "age,": 2023,
      "▁spir": 2024,
      "▁proper": 2025,
      "arent": 2026,
      "▁hab": 2027,
      "▁é": 2028,
      "aught": 2029,
      "▁remark": 2030,
      "0,": 2031,
      "▁aqu": 2032,
      "▁expl": 2033,
      "▁Of": 2034,
      "▁offic": 2035,
      "▁kept": 2036,
      "▁sin": 2037,
      "haps": 2038,
      "▁reason": 2039,
      "iver": 2040,
      "▁horse": 2041,
      "▁How": 2042,
      "▁already": 2043,
      "▁capt": 2044,
      "▁ide": 2045,
      "▁St.": 2046,
      "▁pat": 2047,
      "one,": 2048,
      "▁var": 2049,
      "▁behind": 2050,
      "▁leave": 2051,
      "ain,": 2052,
      "▁mus": 2053,
      "▁hast": 2054,
      "0.": 2055,
      "▁dro": 2056,
      "▁around": 2057,
      "▁means": 2058,
      "ee": 2059,
      "ann": 2060,
      "iar": 2061,
      "▁sud": 2062,
      "cip": 2063,
      "▁swe": 2064,
      "▁Eur": 2065,
      "medi": 2066,
      "▁fair": 2067,
      "inct": 2068,
      "▁live": 2069,
      "▁fine": 2070,
      "▁sold": 2071,
      "▁dead": 2072,
      "urch": 2073,
      "▁cre": 2074,
      "▁length": 2075,
      "▁hair": 2076,
      "▁cal": 2077,
      "ember": 2078,
      "ash": 2079,
      "empt": 2080,
      "enc": 2081,
      "▁cab": 2082,
      "ife": 2083,
      "es;": 2084,
      "k,": 2085,
      "▁tro": 2086,
      "</i>": 2087,
      "▁start": 2088,
      "uced": 2089,
      "▁By": 2090,
      "bour": 2091,
      "hil": 2092,
      "peci": 2093,
      "attle": 2094,
      "▁book": 2095,
      "▁twenty": 2096,
      "oke": 2097,
      "m.": 2098,
      "▁south": 2099,
      "ted": 2100,
      "▁After": 2101,
      "▁become": 2102,
      "▁La": 2103,
      "▁sight": 2104,
      "une": 2105,
      "▁Some": 2106,
      "▁food": 2107,
      "▁lim": 2108,
      "▁French": 2109,
      "▁vari": 2110,
      "▁egg": 2111,
      "▁purp": 2112,
      "ording": 2113,
      "ral": 2114,
      "ald": 2115,
      "▁making": 2116,
      "use": 2117,
      "augh": 2118,
      "▁brown": 2119,
      "▁learn": 2120,
      "ce,": 2121,
      "▁front": 2122,
      "▁bring": 2123,
      "▁particular": 2124,
      "▁[Footnote": 2125,
      "▁gentle": 2126,
      "ane": 2127,
      "▁became": 2128,
      "ized": 2129,
      "-l": 2130,
      "▁lost": 2131,
      "▁prof": 2132,
      "▁Her": 2133,
      "▁meet": 2134,
      "▁ce": 2135,
      "▁dang": 2136,
      "▁big": 2137,
      "▁sea": 2138,
      "though": 2139,
      "▁liv": 2140,
      "ister": 2141,
      "erv": 2142,
      ".'": 2143,
      "▁mem": 2144,
      "▁Pro": 2145,
      "a_": 2146,
      "▁sort": 2147,
      "▁success": 2148,
      "ching": 2149,
      "IS": 2150,
      "▁held": 2151,
      "▁nest": 2152,
      "ef": 2153,
      "ats": 2154,
      "▁vill": 2155,
      "ead": 2156,
      "owed": 2157,
      "▁field": 2158,
      "▁ant": 2159,
      "ox": 2160,
      "rying": 2161,
      "▁minut": 2162,
      "ges": 2163,
      "▁sudden": 2164,
      "▁squ": 2165,
      "uch": 2166,
      "▁Per": 2167,
      "▁\"You": 2168,
      "▁birds": 2169,
      "▁perfect": 2170,
      "-h": 2171,
      "ido": 2172,
      "▁Bl": 2173,
      "▁av": 2174,
      "▁possible": 2175,
      "enn": 2176,
      "▁low": 2177,
      "▁expect": 2178,
      "▁si": 2179,
      "▁Br": 2180,
      "▁desp": 2181,
      "▁<i>": 2182,
      "▁fig": 2183,
      "▁past": 2184,
      "ards": 2185,
      "▁character": 2186,
      "ios": 2187,
      "▁lab": 2188,
      "▁da": 2189,
      "dle": 2190,
      "▁is,": 2191,
      "▁herself": 2192,
      "cend": 2193,
      "▁Que": 2194,
      "amb": 2195,
      "▁fif": 2196,
      "r.": 2197,
      "▁\"M": 2198,
      "▁fear": 2199,
      "▁decl": 2200,
      "▁Char": 2201,
      "▁wish": 2202,
      "▁grow": 2203,
      "....": 2204,
      "▁which,": 2205,
      "ets": 2206,
      "▁whether": 2207,
      "▁able": 2208,
      "▁conc": 2209,
      "▁anything": 2210,
      "iness": 2211,
      "▁ask": 2212,
      "▁Pet": 2213,
      "itude": 2214,
      "▁AN": 2215,
      "▁carried": 2216,
      "▁object": 2217,
      "▁hist": 2218,
      "ract": 2219,
      "ilt": 2220,
      "▁thick": 2221,
      "▁cast": 2222,
      "▁distance": 2223,
      "▁habit": 2224,
      "▁her,": 2225,
      "ine,": 2226,
      "IT": 2227,
      "bers": 2228,
      "▁du": 2229,
      "ning": 2230,
      "▁unc": 2231,
      "▁bad": 2232,
      "ides": 2233,
      "be": 2234,
      "▁ot": 2235,
      "▁case": 2236,
      "▁school": 2237,
      "▁\"It": 2238,
      "5.": 2239,
      "▁S.": 2240,
      "▁mone": 2241,
      "▁eight": 2242,
      "▁received": 2243,
      "1.": 2244,
      "▁following": 2245,
      "▁remain": 2246,
      "uff": 2247,
      "▁creat": 2248,
      "▁treat": 2249,
      "dom": 2250,
      "p.": 2251,
      "ship": 2252,
      "ones": 2253,
      "▁bank": 2254,
      "▁mag": 2255,
      "▁fle": 2256,
      "▁bed": 2257,
      "▁_S": 2258,
      "▁trou": 2259,
      "ov": 2260,
      "2,": 2261,
      "ances": 2262,
      "▁grand": 2263,
      "ush": 2264,
      "▁inform": 2265,
      "▁clear": 2266,
      "▁vi": 2267,
      "uct": 2268,
      "▁extre": 2269,
      "▁Am": 2270,
      "ught": 2271,
      "▁hors": 2272,
      "▁month": 2273,
      "▁early": 2274,
      "▁appeared": 2275,
      "▁exper": 2276,
      "▁stud": 2277,
      "▁más": 2278,
      "clud": 2279,
      "▁Pl": 2280,
      "2.": 2281,
      "▁eng": 2282,
      "▁public": 2283,
      "▁Go": 2284,
      "▁ut": 2285,
      "▁mouth": 2286,
      "▁med": 2287,
      "▁proceed": 2288,
      "▁occasion": 2289,
      "oe": 2290,
      "▁says": 2291,
      "▁man,": 2292,
      "▁hope": 2293,
      "▁latter": 2294,
      "itted": 2295,
      "ón": 2296,
      "▁earth": 2297,
      "ken": 2298,
      "ety": 2299,
      "▁\"D": 2300,
      "▁pap": 2301,
      "▁ris": 2302,
      "▁returned": 2303,
      "▁looking": 2304,
      "ous,": 2305,
      "▁From": 2306,
      "▁entire": 2307,
      "ellow": 2308,
      "▁door": 2309,
      "▁sail": 2310,
      "▁Will": 2311,
      "▁bit": 2312,
      "irt": 2313,
      "▁fill": 2314,
      "▁condition": 2315,
      "▁My": 2316,
      "ature": 2317,
      "▁day,": 2318,
      "oint": 2319,
      "▁Ad": 2320,
      "▁pas": 2321,
      "ected": 2322,
      "▁mal": 2323,
      "ots": 2324,
      "▁auth": 2325,
      "▁times": 2326,
      "▁break": 2327,
      "▁Rom": 2328,
      "▁sett": 2329,
      "ches": 2330,
      "▁road": 2331,
      "isf": 2332,
      "a;": 2333,
      "▁hunt": 2334,
      "▁cold": 2335,
      "▁Can": 2336,
      "ant,": 2337,
      "▁family": 2338,
      "▁natural": 2339,
      "▁bod": 2340,
      "▁mad": 2341,
      "▁obl": 2342,
      "▁free": 2343,
      "resh": 2344,
      "▁Sanch": 2345,
      "▁immedi": 2346,
      "▁really": 2347,
      "▁seems": 2348,
      "▁ori": 2349,
      "6.": 2350,
      "▁generally": 2351,
      "▁fast": 2352,
      "▁exist": 2353,
      "no": 2354,
      "▁blood": 2355,
      "▁list": 2356,
      "cient": 2357,
      "▁West": 2358,
      "▁reached": 2359,
      "▁obt": 2360,
      "▁killed": 2361,
      "▁neigh": 2362,
      "▁cried": 2363,
      "t.": 2364,
      "▁visit": 2365,
      "▁hur": 2366,
      "resent": 2367,
      "▁scar": 2368,
      "ored": 2369,
      "▁bene": 2370,
      "sequ": 2371,
      "▁frequ": 2372,
      "able,": 2373,
      "▁parts": 2374,
      "4.": 2375,
      "▁build": 2376,
      "▁I'm": 2377,
      "▁Island": 2378,
      "m,": 2379,
      "pid": 2380,
      "▁wonder": 2381,
      "▁coming": 2382,
      "ras": 2383,
      "▁forest": 2384,
      "▁fight": 2385,
      "rel": 2386,
      "▁attack": 2387,
      "▁colour": 2388,
      "▁super": 2389,
      "▁move": 2390,
      "▁der": 2391,
      "erous": 2392,
      "▁pop": 2393,
      "3.": 2394,
      "fe": 2395,
      "▁human": 2396,
      "▁talk": 2397,
      "to": 2398,
      "ining": 2399,
      "son": 2400,
      "▁walk": 2401,
      "▁plain": 2402,
      "▁mountain": 2403,
      "urd": 2404,
      "▁covered": 2405,
      "▁across": 2406,
      "▁quick": 2407,
      "oured": 2408,
      "ery": 2409,
      "▁les": 2410,
      "▁quar": 2411,
      "▁eat": 2412,
      "iend": 2413,
      "▁dear": 2414,
      "umb": 2415,
      "▁degre": 2416,
      "▁spirit": 2417,
      "▁top": 2418,
      "ión": 2419,
      "olog": 2420,
      "▁position": 2421,
      "▁sleep": 2422,
      "▁answered": 2423,
      "habit": 2424,
      "▁shore": 2425,
      "ies.": 2426,
      "ream": 2427,
      "like": 2428,
      "oes": 2429,
      "▁Gu": 2430,
      "▁Ap": 2431,
      "re,": 2432,
      "▁coast": 2433,
      "ue,": 2434,
      "arr": 2435,
      "▁regard": 2436,
      "▁term": 2437,
      "▁necessary": 2438,
      "▁post": 2439,
      "▁fish": 2440,
      "▁line": 2441,
      "ploy": 2442,
      "▁wait": 2443,
      "▁mere": 2444,
      "ers.": 2445,
      "ony": 2446,
      ",'": 2447,
      "▁Sir": 2448,
      "icient": 2449,
      "▁sac": 2450,
      "al.": 2451,
      "▁arri": 2452,
      "▁Gr": 2453,
      "▁dom": 2454,
      "sect": 2455,
      "▁nature": 2456,
      "▁week": 2457,
      "▁British": 2458,
      "▁rid": 2459,
      "▁laid": 2460,
      "orrow": 2461,
      "▁writ": 2462,
      "▁especi": 2463,
      "▁M.": 2464,
      "▁attempt": 2465,
      "▁gone": 2466,
      "▁af": 2467,
      "ions,": 2468,
      "lled": 2469,
      "arrow": 2470,
      "▁pay": 2471,
      "▁bott": 2472,
      "▁woman": 2473,
      "wh": 2474,
      "▁greater": 2475,
      "ility": 2476,
      "▁ang": 2477,
      "ED": 2478,
      "ij": 2479,
      "as.": 2480,
      "ance.": 2481,
      "▁corn": 2482,
      "7.": 2483,
      "ed;": 2484,
      "rod": 2485,
      "▁bas": 2486,
      "▁den": 2487,
      "▁tend": 2488,
      "▁former": 2489,
      "▁jud": 2490,
      "▁words": 2491,
      "▁true": 2492,
      "where": 2493,
      "iod": 2494,
      "▁thir": 2495,
      "▁cause": 2496,
      "8.": 2497,
      "▁surf": 2498,
      "-g": 2499,
      "▁draw": 2500,
      "▁peace": 2501,
      "▁express": 2502,
      "ajest": 2503,
      "ora": 2504,
      "▁ell": 2505,
      "ped": 2506,
      "▁20": 2507,
      "▁party": 2508,
      "▁manner": 2509,
      "ys": 2510,
      "▁taking": 2511,
      "▁me.": 2512,
      "▁employ": 2513,
      "▁Cha": 2514,
      "▁then,": 2515,
      "▁\"What": 2516,
      "▁CHAP": 2517,
      "ement": 2518,
      "lo": 2519,
      "lu": 2520,
      "▁below": 2521,
      "▁tou": 2522,
      "▁step": 2523,
      "▁purpose": 2524,
      "for": 2525,
      "arm": 2526,
      "1,": 2527,
      "itting": 2528,
      "ING": 2529,
      "▁according": 2530,
      "ift": 2531,
      "ment,": 2532,
      "I.": 2533,
      "▁her.": 2534,
      "▁placed": 2535,
      "cim": 2536,
      "▁acqu": 2537,
      "▁it's": 2538,
      "ounded": 2539,
      "ary,": 2540,
      "▁satisf": 2541,
      "▁probably": 2542,
      "reek": 2543,
      "cell": 2544,
      "▁else": 2545,
      "IC": 2546,
      "▁pict": 2547,
      "ices": 2548,
      "▁result": 2549,
      "▁author": 2550,
      "▁à": 2551,
      "▁Europe": 2552,
      "▁Ju": 2553,
      "on't": 2554,
      "▁inhabit": 2555,
      "▁exam": 2556,
      "ron": 2557,
      "▁CHAPTER": 2558,
      "▁understand": 2559,
      "▁further": 2560,
      "ging": 2561,
      "▁¿": 2562,
      "▁direct": 2563,
      "▁was,": 2564,
      "▁Ab": 2565,
      "▁imag": 2566,
      "▁letter": 2567,
      "▁game": 2568,
      "▁Sm": 2569,
      "▁animals": 2570,
      "▁determ": 2571,
      "ission": 2572,
      "▁us,": 2573,
      "les,": 2574,
      "▁tal": 2575,
      "▁up,": 2576,
      "y's": 2577,
      "▁van": 2578,
      "▁jour": 2579,
      "▁_C": 2580,
      "za": 2581,
      "inary": 2582,
      "▁meas": 2583,
      "af": 2584,
      "▁opin": 2585,
      "▁Now": 2586,
      "▁comple": 2587,
      "▁ann": 2588,
      "ida": 2589,
      "▁followed": 2590,
      "▁various": 2591,
      "pond": 2592,
      "▁May": 2593,
      "▁compan": 2594,
      "rat": 2595,
      "▁mi": 2596,
      "▁i.": 2597,
      "000": 2598,
      "▁incre": 2599,
      "▁perhaps": 2600,
      "▁god": 2601,
      "▁ready": 2602,
      "ustom": 2603,
      "oose": 2604,
      "▁stream": 2605,
      "▁o'": 2606,
      "3,": 2607,
      "ians": 2608,
      "▁slight": 2609,
      "5,": 2610,
      "▁this,": 2611,
      "iam": 2612,
      "▁surpr": 2613,
      "▁ni": 2614,
      "▁pract": 2615,
      "▁mot": 2616,
      "▁represent": 2617,
      "vere": 2618,
      "aughter": 2619,
      "iment": 2620,
      "urs": 2621,
      "--the": 2622,
      "9.": 2623,
      "l,": 2624,
      "▁ran": 2625,
      "ia.": 2626,
      "▁government": 2627,
      "▁describ": 2628,
      "sembl": 2629,
      "IL": 2630,
      "ilar": 2631,
      "▁estab": 2632,
      "▁belong": 2633,
      "▁arr": 2634,
      "RE": 2635,
      "▁Fl": 2636,
      "king": 2637,
      "▁mist": 2638,
      "ript": 2639,
      "US": 2640,
      "arch": 2641,
      "▁loc": 2642,
      "app": 2643,
      "idence": 2644,
      "ops": 2645,
      "▁city": 2646,
      "sc": 2647,
      "▁sand": 2648,
      "ugh": 2649,
      "bed": 2650,
      "▁hig": 2651,
      "▁say,": 2652,
      "ience": 2653,
      "▁worth": 2654,
      "outhern": 2655,
      "▁alt": 2656,
      "▁insect": 2657,
      "▁evening": 2658,
      "4,": 2659,
      "eb": 2660,
      "est,": 2661,
      "▁period": 2662,
      "▁longer": 2663,
      "ime": 2664,
      "▁send": 2665,
      "rad": 2666,
      "'re": 2667,
      "▁green": 2668,
      "in.": 2669,
      "▁Capt": 2670,
      "▁AND": 2671,
      "what": 2672,
      "s,\"": 2673,
      "▁señ": 2674,
      "▁d'": 2675,
      "▁men,": 2676,
      "▁180": 2677,
      "iously": 2678,
      "▁delight": 2679,
      "▁especially": 2680,
      "▁soul": 2681,
      "▁rich": 2682,
      "▁bright": 2683,
      "▁soft": 2684,
      "▁ought": 2685,
      "uted": 2686,
      "▁glad": 2687,
      "body": 2688,
      "aces": 2689,
      "ante": 2690,
      "▁American": 2691,
      "▁hop": 2692,
      "▁Comm": 2693,
      "gy": 2694,
      "▁nation": 2695,
      "reg": 2696,
      "▁lower": 2697,
      "▁Jack": 2698,
      "alth": 2699,
      "▁sir": 2700,
      "▁mention": 2701,
      "ux": 2702,
      "▁bey": 2703,
      "▁vict": 2704,
      "▁again,": 2705,
      "▁led": 2706,
      "▁one,": 2707,
      "▁spot": 2708,
      "▁origin": 2709,
      "▁circum": 2710,
      "uce": 2711,
      "alt": 2712,
      "▁neg": 2713,
      "▁Tom": 2714,
      "▁late": 2715,
      "inc": 2716,
      "▁reach": 2717,
      "▁tu": 2718,
      "▁occup": 2719,
      "lt": 2720,
      "eds": 2721,
      "ries": 2722,
      "ero": 2723,
      "▁prev": 2724,
      "▁_A": 2725,
      "erc": 2726,
      "▁l'": 2727,
      "▁stay": 2728,
      "▁beyond": 2729,
      "▁of,": 2730,
      "▁excl": 2731,
      "era": 2732,
      "▁although": 2733,
      "▁streng": 2734,
      "▁situ": 2735,
      "▁surface": 2736,
      "▁replied": 2737,
      "head": 2738,
      "an.": 2739,
      "y;": 2740,
      "c.": 2741,
      "▁snow": 2742,
      "▁priv": 2743,
      "8,": 2744,
      "▁yo": 2745,
      "▁hand,": 2746,
      "ION": 2747,
      "▁tree": 2748,
      "▁wide": 2749,
      "orthern": 2750,
      "▁_P": 2751,
      "iant": 2752,
      "pha": 2753,
      "▁out,": 2754,
      "ists": 2755,
      "▁direction": 2756,
      "le.": 2757,
      "ster": 2758,
      "▁later": 2759,
      "ipp": 2760,
      "▁fem": 2761,
      "▁quiet": 2762,
      "▁rapid": 2763,
      "it,": 2764,
      "▁gun": 2765,
      "▁alone": 2766,
      "nde": 2767,
      "ina": 2768,
      "os.": 2769,
      "▁dut": 2770,
      "ide,": 2771,
      "▁forward": 2772,
      "rent": 2773,
      "ination": 2774,
      "▁rev": 2775,
      "eal": 2776,
      "ape": 2777,
      "▁thee": 2778,
      "▁neck": 2779,
      "▁plant": 2780,
      "su": 2781,
      "bur": 2782,
      "RO": 2783,
      "ital": 2784,
      "▁buff": 2785,
      "▁winter": 2786,
      "mo": 2787,
      "▁\"C": 2788,
      "▁I'll": 2789,
      "yl": 2790,
      "=,": 2791,
      "▁había": 2792,
      "▁Not": 2793,
      "▁viol": 2794,
      "6,": 2795,
      "amm": 2796,
      "▁¡": 2797,
      "▁third": 2798,
      "▁minutes": 2799,
      "-1": 2800,
      "▁whit": 2801,
      "▁bound": 2802,
      "▁hung": 2803,
      "7,": 2804,
      "▁En": 2805,
      "▁oblig": 2806,
      "▁observ": 2807,
      "▁too,": 2808,
      "▁sufficient": 2809,
      "ett": 2810,
      "LE": 2811,
      "gu": 2812,
      "ge.": 2813,
      "▁yellow": 2814,
      "ork": 2815,
      "alley": 2816,
      "orts": 2817,
      "▁Aug": 2818,
      "na": 2819,
      "▁forth": 2820,
      "▁Ger": 2821,
      "teen": 2822,
      "▁fresh": 2823,
      "▁why": 2824,
      "ight,": 2825,
      "▁Great": 2826,
      "ingu": 2827,
      "ice.": 2828,
      "▁resol": 2829,
      "▁all,": 2830,
      "▁fail": 2831,
      "▁laugh": 2832,
      "▁fly": 2833,
      "▁Ne": 2834,
      "▁hat": 2835,
      "ton": 2836,
      "▁25": 2837,
      "▁single": 2838,
      "▁Ge": 2839,
      "▁era": 2840,
      "ise,": 2841,
      "▁grass": 2842,
      "il,": 2843,
      "▁trees": 2844,
      "isc": 2845,
      "▁continued": 2846,
      "at.": 2847,
      "▁bell": 2848,
      "én": 2849,
      "▁question": 2850,
      "▁Du": 2851,
      "▁there,": 2852,
      "▁Ro": 2853,
      "▁Nap": 2854,
      "▁emb": 2855,
      "▁voice": 2856,
      "▁wife": 2857,
      "▁ma": 2858,
      "band": 2859,
      "▁186": 2860,
      "ig.": 2861,
      "▁force": 2862,
      "▁Ant": 2863,
      "▁court": 2864,
      "▁pen": 2865,
      "▁separ": 2866,
      "that": 2867,
      "ame,": 2868,
      "inning": 2869,
      "[1": 2870,
      "▁gard": 2871,
      "antly": 2872,
      "▁shar": 2873,
      "▁secret": 2874,
      "ivid": 2875,
      "hood": 2876,
      "▁stat": 2877,
      "ings,": 2878,
      "▁slow": 2879,
      "▁neither": 2880,
      ");": 2881,
      "ogn": 2882,
      "▁Their": 2883,
      "▁(1": 2884,
      "▁born": 2885,
      "by": 2886,
      "▁clim": 2887,
      "▁crow": 2888,
      "yr": 2889,
      "▁hus": 2890,
      "oly": 2891,
      "▁strange": 2892,
      "enci": 2893,
      "owing": 2894,
      "el,": 2895,
      "▁degrees": 2896,
      "▁living": 2897,
      "S.": 2898,
      "▁sweet": 2899,
      "▁formed": 2900,
      "roy": 2901,
      "▁ii.": 2902,
      "orted": 2903,
      "ast,": 2904,
      "▁Ed": 2905,
      "▁repe": 2906,
      "va": 2907,
      "▁Pe": 2908,
      "▁pri": 2909,
      "ze": 2910,
      "▁now,": 2911,
      "▁money": 2912,
      "angu": 2913,
      "but": 2914,
      "▁fat": 2915,
      "velop": 2916,
      "▁makes": 2917,
      "▁caught": 2918,
      "oor": 2919,
      "joy": 2920,
      "▁idea": 2921,
      "▁specim": 2922,
      "▁'I": 2923,
      "▁immediately": 2924,
      "ortun": 2925,
      "▁bull": 2926,
      "▁pain": 2927,
      "9,": 2928,
      "ified": 2929,
      "eneral": 2930,
      "▁22": 2931,
      "▁tear": 2932,
      "▁fru": 2933,
      "▁princip": 2934,
      "▁Lond": 2935,
      "uf": 2936,
      "▁trib": 2937,
      "▁consequ": 2938,
      "ure.": 2939,
      "ased": 2940,
      "ory,": 2941,
      "▁scarce": 2942,
      "▁board": 2943,
      "ness,": 2944,
      "▁A.": 2945,
      "EL": 2946,
      "▁centur": 2947,
      "▁can't": 2948,
      "hes,": 2949,
      "▁seven": 2950,
      "▁21": 2951,
      "▁faith": 2952,
      "uest": 2953,
      "▁compl": 2954,
      "▁No.": 2955,
      "ik": 2956,
      "pic": 2957,
      "olf": 2958,
      "▁complete": 2959,
      "arl": 2960,
      "▁IN": 2961,
      "▁mat": 2962,
      "▁horses": 2963,
      "▁entr": 2964,
      "owers": 2965,
      "ius": 2966,
      "▁night,": 2967,
      "▁who,": 2968,
      "▁eye": 2969,
      "AS": 2970,
      "wo": 2971,
      "ían": 2972,
      "▁Emper": 2973,
      "▁friends": 2974,
      "▁band": 2975,
      "▁upper": 2976,
      "▁conv": 2977,
      "rid": 2978,
      "▁guard": 2979,
      "iled": 2980,
      "▁journe": 2981,
      "lect": 2982,
      "▁rose": 2983,
      "▁gri": 2984,
      "ivil": 2985,
      "▁on,": 2986,
      "▁Phil": 2987,
      "▁bottom": 2988,
      "mon": 2989,
      "els": 2990,
      "ires": 2991,
      "▁hot": 2992,
      "▁observed": 2993,
      "▁`": 2994,
      "▁Indians": 2995,
      "▁\"Oh,": 2996,
      "▁\"L": 2997,
      "▁ves": 2998,
      "▁comes": 2999,
      "ham": 3000,
      "aring": 3001,
      "▁easily": 3002,
      "uous": 3003,
      "vell": 3004,
      "▁circumst": 3005,
      "ige": 3006,
      "▁vent": 3007,
      "▁water,": 3008,
      "▁occur": 3009,
      "▁prevent": 3010,
      "▁remained": 3011,
      "▁fu": 3012,
      "▁Here": 3013,
      "--and": 3014,
      "▁anx": 3015,
      "-n": 3016,
      "▁lord": 3017,
      "▁prep": 3018,
      "aged": 3019,
      "▁enter": 3020,
      "ally,": 3021,
      "ising": 3022,
      "▁shad": 3023,
      "▁country,": 3024,
      "▁enjoy": 3025,
      "idered": 3026,
      "▁middle": 3027,
      "▁Span": 3028,
      "▁gen": 3029,
      "▁blue": 3030,
      "▁tried": 3031,
      "▁coun": 3032,
      "▁Tr": 3033,
      "rand": 3034,
      "▁pretty": 3035,
      "▁conce": 3036,
      "▁suc": 3037,
      "isted": 3038,
      "▁Queen": 3039,
      "▁forg": 3040,
      "▁Ex": 3041,
      "one.": 3042,
      "▁Ag": 3043,
      "iendo": 3044,
      "▁cost": 3045,
      "▁similar": 3046,
      "▁pray": 3047,
      "mit": 3048,
      "▁indeed": 3049,
      "bs": 3050,
      "▁\"G": 3051,
      "▁sto": 3052,
      "▁24": 3053,
      "▁Lou": 3054,
      "▁battle": 3055,
      "▁everything": 3056,
      "▁piece": 3057,
      "▁deal": 3058,
      "▁lived": 3059,
      "▁sad": 3060,
      "▁August": 3061,
      "▁dry": 3062,
      "▁arms": 3063,
      "▁prim": 3064,
      "▁W.": 3065,
      "▁entered": 3066,
      "▁23": 3067,
      "▁cover": 3068,
      "▁advant": 3069,
      "▁mass": 3070,
      "ily,": 3071,
      "▁terri": 3072,
      "▁Bar": 3073,
      "▁30": 3074,
      "▁husband": 3075,
      "▁Mont": 3076,
      "gar": 3077,
      "ames": 3078,
      "eding": 3079,
      "▁none": 3080,
      "▁influ": 3081,
      "▁story": 3082,
      "▁Let": 3083,
      "▁famil": 3084,
      "ixed": 3085,
      "▁Do": 3086,
      "▁way,": 3087,
      "age.": 3088,
      "ike": 3089,
      "▁relig": 3090,
      "?'": 3091,
      "gan": 3092,
      "▁remember": 3093,
      "UR": 3094,
      "▁extreme": 3095,
      "▁exact": 3096,
      "▁didn't": 3097,
      "o;": 3098,
      "▁wit": 3099,
      "ils": 3100,
      "▁carry": 3101,
      "iers": 3102,
      "▁heavy": 3103,
      "▁mill": 3104,
      "▁army": 3105,
      "▁certainly": 3106,
      "'ve": 3107,
      "▁Man": 3108,
      "aining": 3109,
      "▁shot": 3110,
      "▁fro": 3111,
      "▁life,": 3112,
      "__": 3113,
      "▁suddenly": 3114,
      "▁narrow": 3115,
      "▁change": 3116,
      "able.": 3117,
      "ales": 3118,
      "▁Prince": 3119,
      "▁appearance": 3120,
      "side": 3121,
      "▁usual": 3122,
      "▁gall": 3123,
      "ushed": 3124,
      "▁France": 3125,
      "▁spring": 3126,
      "▁William": 3127,
      "▁he,": 3128,
      "aul": 3129,
      "der": 3130,
      "▁Af": 3131,
      "▁hous": 3132,
      "▁instead": 3133,
      "ated,": 3134,
      "▁Co": 3135,
      "▁Hen": 3136,
      "▁try": 3137,
      "▁ancient": 3138,
      "▁vessel": 3139,
      "ps,": 3140,
      "ested": 3141,
      "▁breat": 3142,
      "ask": 3143,
      "▁inches": 3144,
      "▁arrived": 3145,
      "▁commun": 3146,
      "AM": 3147,
      "▁mir": 3148,
      "▁demand": 3149,
      "▁paint": 3150,
      "ril": 3151,
      "us.": 3152,
      "with": 3153,
      "▁burn": 3154,
      "ening": 3155,
      "▁seeing": 3156,
      "atic": 3157,
      "iter": 3158,
      "▁suppose": 3159,
      "▁time.": 3160,
      "▁women": 3161,
      "▁See": 3162,
      "hod": 3163,
      "ma": 3164,
      "▁cru": 3165,
      "és": 3166,
      "ston": 3167,
      "▁sharp": 3168,
      "ision": 3169,
      "▁Cal": 3170,
      "osa": 3171,
      "▁again.": 3172,
      "▁eggs": 3173,
      "▁rob": 3174,
      "well": 3175,
      "yn": 3176,
      "▁becom": 3177,
      "▁buffal": 3178,
      "▁mor": 3179,
      "▁warm": 3180,
      "▁hero": 3181,
      "ism": 3182,
      "▁getting": 3183,
      "aced": 3184,
      "▁neighbour": 3185,
      "▁abund": 3186,
      "▁important": 3187,
      "▁church": 3188,
      "▁ye": 3189,
      "▁sheep": 3190,
      "▁oppos": 3191,
      "▁joy": 3192,
      "itten": 3193,
      "str": 3194,
      "in'": 3195,
      "ate.": 3196,
      "▁26": 3197,
      "▁depart": 3198,
      "elve": 3199,
      "▁distinct": 3200,
      "▁tan": 3201,
      "▁mann": 3202,
      "ator": 3203,
      "▁lat": 3204,
      "ara": 3205,
      "▁River": 3206,
      "▁Mad": 3207,
      "▁contr": 3208,
      "ence.": 3209,
      "▁succeed": 3210,
      "▁hy": 3211,
      "▁class": 3212,
      "▁weather": 3213,
      "e,\"": 3214,
      "▁_M": 3215,
      "▁crown": 3216,
      "▁size": 3217,
      "▁pecul": 3218,
      "!'": 3219,
      "▁hall": 3220,
      "▁native": 3221,
      "wise": 3222,
      "▁prison": 3223,
      "OL": 3224,
      "ino": 3225,
      "▁feeling": 3226,
      "▁este": 3227,
      "inal": 3228,
      "lem": 3229,
      "▁desire": 3230,
      "▁recogn": 3231,
      "▁soci": 3232,
      "▁distingu": 3233,
      "▁conn": 3234,
      "▁action": 3235,
      "▁trad": 3236,
      "estern": 3237,
      "▁hac": 3238,
      "▁cloud": 3239,
      "▁considered": 3240,
      "▁head,": 3241,
      "▁not,": 3242,
      "▁imposs": 3243,
      "▁so,": 3244,
      "▁Sch": 3245,
      "▁Count": 3246,
      "room": 3247,
      "▁Ital": 3248,
      "raph": 3249,
      "raid": 3250,
      "▁places": 3251,
      "▁considerable": 3252,
      "ume": 3253,
      "▁comfort": 3254,
      "ment.": 3255,
      "▁host": 3256,
      "▁west": 3257,
      "▁Re": 3258,
      "day": 3259,
      "▁extra": 3260,
      "▁grou": 3261,
      "▁usually": 3262,
      "▁hardly": 3263,
      "▁daughter": 3264,
      "▁Sw": 3265,
      "▁event": 3266,
      "▁truth": 3267,
      "▁place,": 3268,
      "▁himself,": 3269,
      "▁rain": 3270,
      "ounds": 3271,
      "ager": 3272,
      "zz": 3273,
      "▁dream": 3274,
      "▁fun": 3275,
      "▁\"P": 3276,
      "ring": 3277,
      "▁develop": 3278,
      "fer": 3279,
      "▁somewhat": 3280,
      "▁therefore,": 3281,
      "▁broad": 3282,
      "▁German": 3283,
      "▁entirely": 3284,
      "▁peculiar": 3285,
      "▁Peter": 3286,
      "▁intell": 3287,
      "illa": 3288,
      "▁surr": 3289,
      "rupt": 3290,
      "▁struck": 3291,
      "▁fellow": 3292,
      "itary": 3293,
      "aff": 3294,
      "ss": 3295,
      "AC": 3296,
      "TH": 3297,
      "▁Gre": 3298,
      "ata": 3299,
      "cious": 3300,
      "▁Port": 3301,
      "▁noble": 3302,
      "um,": 3303,
      "añ": 3304,
      "▁lie": 3305,
      "▁descend": 3306,
      "▁langu": 3307,
      "ations,": 3308,
      "ming": 3309,
      "▁\"But": 3310,
      "▁Me": 3311,
      "val": 3312,
      "unk": 3313,
      "▁accomp": 3314,
      "▁United": 3315,
      "▁Min": 3316,
      "▁trouble": 3317,
      "ruction": 3318,
      "--\"": 3319,
      "▁spread": 3320,
      "▁ge": 3321,
      "osp": 3322,
      "▁leaving": 3323,
      "▁approach": 3324,
      "▁favour": 3325,
      "▁Majest": 3326,
      "▁broken": 3327,
      "▁Sancho": 3328,
      "▁shown": 3329,
      "▁died": 3330,
      "ores": 3331,
      "ves,": 3332,
      "▁box": 3333,
      "ias": 3334,
      "▁Government": 3335,
      "▁fut": 3336,
      "idad": 3337,
      "▁doing": 3338,
      "▁wal": 3339,
      "arse": 3340,
      "▁ven": 3341,
      "▁long,": 3342,
      "▁away,": 3343,
      "▁individ": 3344,
      "▁Quix": 3345,
      "▁wis": 3346,
      "▁cry": 3347,
      "-e": 3348,
      "▁wanted": 3349,
      "aban": 3350,
      "▁appl": 3351,
      "hw": 3352,
      "▁discovered": 3353,
      "▁straight": 3354,
      "▁evident": 3355,
      "▁spoke": 3356,
      "▁comb": 3357,
      "cho": 3358,
      "hest": 3359,
      "▁quant": 3360,
      "====": 3361,
      "▁prince": 3362,
      "▁Dr.": 3363,
      "▁Thus": 3364,
      "ons,": 3365,
      "▁crowd": 3366,
      "gged": 3367,
      "▁said.": 3368,
      "▁greatest": 3369,
      "▁season": 3370,
      "▁hid": 3371,
      "ca": 3372,
      "▁happy": 3373,
      "▁dread": 3374,
      "respond": 3375,
      "▁27": 3376,
      "▁afterwards": 3377,
      "nown": 3378,
      "▁cra": 3379,
      "▁Napole": 3380,
      "▁in,": 3381,
      "▁admir": 3382,
      "▁answer": 3383,
      "▁hun": 3384,
      "▁strang": 3385,
      "▁Anne": 3386,
      "▁arriv": 3387,
      "▁afraid": 3388,
      "ley": 3389,
      "▁here,": 3390,
      "ie,": 3391,
      "▁feather": 3392,
      "▁knowled": 3393,
      "▁sav": 3394,
      "▁impro": 3395,
      "▁song": 3396,
      "▁\"Yes,": 3397,
      "▁wing": 3398,
      "▁summer": 3399,
      "irst": 3400,
      "▁sugg": 3401,
      "▁gentleman": 3402,
      "▁design": 3403,
      "▁skin": 3404,
      "▁impossible": 3405,
      "▁hours": 3406,
      "ler": 3407,
      "▁giving": 3408,
      "▁concern": 3409,
      "----------------": 3410,
      "▁toward": 3411,
      "▁bill": 3412,
      "▁wings": 3413,
      "▁house,": 3414,
      "_)": 3415,
      "sp": 3416,
      "▁filled": 3417,
      "exic": 3418,
      "enth": 3419,
      "▁Was": 3420,
      "▁pun": 3421,
      "▁civil": 3422,
      "▁other,": 3423,
      "▁horn": 3424,
      "▁frequently": 3425,
      "▁él": 3426,
      "▁sens": 3427,
      "athe": 3428,
      "now": 3429,
      "▁inn": 3430,
      "▁affair": 3431,
      "-st": 3432,
      "lend": 3433,
      "▁but,": 3434,
      "▁main": 3435,
      "▁{": 3436,
      "▁rare": 3437,
      "▁_T": 3438,
      "▁\"And": 3439,
      "ument": 3440,
      "erence": 3441,
      "▁opened": 3442,
      "▁28": 3443,
      "hib": 3444,
      "▁it;": 3445,
      "rict": 3446,
      "▁leaves": 3447,
      "▁furn": 3448,
      "▁watch": 3449,
      "▁Roman": 3450,
      "▁bien": 3451,
      "▁people,": 3452,
      "▁apparent": 3453,
      "▁excell": 3454,
      "▁self": 3455,
      "ctor": 3456,
      "▁artic": 3457,
      "pping": 3458,
      "▁colon": 3459,
      "▁whatever": 3460,
      "▁thirty": 3461,
      "▁standing": 3462,
      "liament": 3463,
      "▁weak": 3464,
      "▁stick": 3465,
      "▁individual": 3466,
      "5]": 3467,
      "▁equal": 3468,
      "aded": 3469,
      "▁drink": 3470,
      "▁save": 3471,
      "▁plan": 3472,
      "▁[1": 3473,
      "▁XX": 3474,
      "ire,": 3475,
      "▁porque": 3476,
      "mas": 3477,
      "▁beneath": 3478,
      "hw>": 3479,
      "▁raised": 3480,
      "umn": 3481,
      "E.": 3482,
      "--a": 3483,
      "ror": 3484,
      "icked": 3485,
      "▁temper": 3486,
      "▁day.": 3487,
      "▁\"We": 3488,
      "▁dig": 3489,
      "▁1.": 3490,
      "▁_L": 3491,
      "▁strength": 3492,
      "bled": 3493,
      "▁kingdom": 3494,
      "▁boat": 3495,
      "▁Captain": 3496,
      "▁exclaim": 3497,
      "▁beginning": 3498,
      "▁polit": 3499,
      "▁scarcely": 3500,
      "▁grew": 3501,
      "▁trap": 3502,
      "▁pra": 3503,
      "▁Nor": 3504,
      "▁Mexic": 3505,
      "▁While": 3506,
      "IV": 3507,
      "ories": 3508,
      "iced": 3509,
      "▁won't": 3510,
      "--I": 3511,
      "et.": 3512,
      "▁gro": 3513,
      "▁obliged": 3514,
      "por": 3515,
      "ke,": 3516,
      "▁loud": 3517,
      "▁drew": 3518,
      "astern": 3519,
      "oid": 3520,
      "▁built": 3521,
      "his": 3522,
      "▁esp": 3523,
      "▁govern": 3524,
      "▁hu": 3525,
      "anced": 3526,
      "▁Oct": 3527,
      "▁tom": 3528,
      "2]": 3529,
      "▁convers": 3530,
      "bles": 3531,
      "la": 3532,
      "▁wa": 3533,
      "ises": 3534,
      "▁Where": 3535,
      "▁valley": 3536,
      "▁silver": 3537,
      "▁shout": 3538,
      "▁Pres": 3539,
      "▁\"Well,": 3540,
      "stem": 3541,
      "▁Tur": 3542,
      "▁I've": 3543,
      "▁larger": 3544,
      "ustri": 3545,
      "▁running": 3546,
      "▁General": 3547,
      "appe": 3548,
      "▁inqu": 3549,
      "'d,": 3550,
      "▁aut": 3551,
      "▁bread": 3552,
      "▁inj": 3553,
      "▁exped": 3554,
      "ls": 3555,
      "▁Pal": 3556,
      "▁walked": 3557,
      "▁\"That": 3558,
      "▁appears": 3559,
      "ester": 3560,
      "▁Emperor": 3561,
      "▁sense": 3562,
      "ingly": 3563,
      "▁tur": 3564,
      "▁cit": 3565,
      "ess,": 3566,
      "▁[Illustration]": 3567,
      "▁pull": 3568,
      "ard,": 3569,
      "4]": 3570,
      "▁ow": 3571,
      "▁magn": 3572,
      "▁Te": 3573,
      "▁assist": 3574,
      "▁window": 3575,
      "▁fles": 3576,
      "▁States": 3577,
      "zen": 3578,
      "▁pros": 3579,
      "▁29": 3580,
      "▁attention": 3581,
      "▁Christian": 3582,
      "▁x": 3583,
      "▁cow": 3584,
      "▁wrong": 3585,
      "▁Sept": 3586,
      "ive,": 3587,
      "▁opinion": 3588,
      "cher": 3589,
      "▁stock": 3590,
      "▁safe": 3591,
      "▁twelve": 3592,
      "io,": 3593,
      "▁accept": 3594,
      "▁fac": 3595,
      "▁indeed,": 3596,
      "IR": 3597,
      "▁conqu": 3598,
      "estic": 3599,
      "▁village": 3600,
      "ar.": 3601,
      "▁back,": 3602,
      "▁sab": 3603,
      "▁ya": 3604,
      "▁happened": 3605,
      "▁pair": 3606,
      "▁pale": 3607,
      "ark,": 3608,
      "cil": 3609,
      "▁Duke": 3610,
      "▁Ann": 3611,
      "ent.": 3612,
      "▁perform": 3613,
      "▁Mary": 3614,
      "▁boys": 3615,
      "ho": 3616,
      "▁honour": 3617,
      "▁support": 3618,
      "char": 3619,
      "▁you.": 3620,
      "▁pero": 3621,
      "rect": 3622,
      "rag": 3623,
      "▁trem": 3624,
      "▁Geor": 3625,
      "right": 3626,
      "▁ground,": 3627,
      "rest": 3628,
      "▁showed": 3629,
      "ustral": 3630,
      "▁method": 3631,
      "anto": 3632,
      "erve": 3633,
      "▁Afric": 3634,
      "▁fing": 3635,
      "CT": 3636,
      "▁escap": 3637,
      "ts": 3638,
      "▁meant": 3639,
      "▁Ly": 3640,
      "▁hang": 3641,
      "▁arch": 3642,
      "▁east": 3643,
      "▁resembl": 3644,
      "ura": 3645,
      "ending": 3646,
      "▁down,": 3647,
      "cle": 3648,
      "▁fox": 3649,
      "▁Red": 3650,
      "▁Old": 3651,
      "▁destroy": 3652,
      "▁course,": 3653,
      "▁«": 3654,
      "▁incl": 3655,
      "iqu": 3656,
      "ivers": 3657,
      "▁une": 3658,
      "▁dress": 3659,
      "▁fifty": 3660,
      "▁easy": 3661,
      "▁fright": 3662,
      "▁alg": 3663,
      "▁foreign": 3664,
      "▁ball": 3665,
      "▁side,": 3666,
      "▁height": 3667,
      "ine.": 3668,
      "▁custom": 3669,
      "▁Nat": 3670,
      "▁Jan": 3671,
      "▁stone": 3672,
      "▁added": 3673,
      "▁\"He": 3674,
      "▁wished": 3675,
      "lex": 3676,
      "▁Every": 3677,
      "IG": 3678,
      "▁cam": 3679,
      "6]": 3680,
      "▁in.": 3681,
      "▁virt": 3682,
      "▁record": 3683,
      "bor": 3684,
      "▁conduct": 3685,
      "▁sword": 3686,
      "▁neare": 3687,
      "▁chance": 3688,
      "▁dinn": 3689,
      "▁Louis": 3690,
      "▁due": 3691,
      "sell": 3692,
      "er's": 3693,
      "▁mountains": 3694,
      "▁\"and": 3695,
      "▁Bo": 3696,
      "▁muy": 3697,
      "s:": 3698,
      "uel": 3699,
      "▁note": 3700,
      "ates,": 3701,
      "▁hind": 3702,
      "ass,": 3703,
      "aves": 3704,
      "▁Com": 3705,
      "▁includ": 3706,
      "ourage": 3707,
      "▁grad": 3708,
      "ación": 3709,
      "▁_H": 3710,
      "▁us.": 3711,
      "oles": 3712,
      "ana": 3713,
      "usion": 3714,
      "▁business": 3715,
      "phant": 3716,
      "▁todo": 3717,
      "▁voy": 3718,
      "ady": 3719,
      "▁persons": 3720,
      "▁passing": 3721,
      "▁Russ": 3722,
      "ively": 3723,
      "▁mater": 3724,
      "▁_R": 3725,
      "ena": 3726,
      "oted": 3727,
      "▁system": 3728,
      "▁allowed": 3729,
      "▁J.": 3730,
      "▁prog": 3731,
      "▁danger": 3732,
      "ous.": 3733,
      "▁paid": 3734,
      "rif": 3735,
      "ay.": 3736,
      "▁determined": 3737,
      "kes": 3738,
      "▁pour": 3739,
      "ch.": 3740,
      "▁pare": 3741,
      "▁northern": 3742,
      "/2": 3743,
      "▁pleasure": 3744,
      "▁cho": 3745,
      "▁aquell": 3746,
      "▁delic": 3747,
      "▁\"F": 3748,
      "▁wrote": 3749,
      "▁path": 3750,
      "oved": 3751,
      "▁sitting": 3752,
      "anci": 3753,
      "▁afterno": 3754,
      "▁maint": 3755,
      "chant": 3756,
      "▁distant": 3757,
      "▁Who": 3758,
      "▁Ma": 3759,
      "▁stret": 3760,
      "▁table": 3761,
      "▁Des": 3762,
      "▁\"the": 3763,
      "▁an'": 3764,
      "▁exec": 3765,
      "▁opportun": 3766,
      "▁cri": 3767,
      "iemp": 3768,
      "▁cou": 3769,
      "▁fond": 3770,
      "ica": 3771,
      "▁fortun": 3772,
      "OM": 3773,
      "under": 3774,
      "▁sides": 3775,
      "▁learned": 3776,
      "▁Mount": 3777,
      "▁herd": 3778,
      "▁introd": 3779,
      "▁roy": 3780,
      "▁187": 3781,
      "▁San": 3782,
      "▁protect": 3783,
      "▁ign": 3784,
      "ays": 3785,
      "▁fol": 3786,
      "▁P.": 3787,
      "▁numerous": 3788,
      "▁dim": 3789,
      "▁thro": 3790,
      "▁flower": 3791,
      "▁higher": 3792,
      "▁eyes,": 3793,
      "▁***": 3794,
      "▁perfectly": 3795,
      "aron": 3796,
      "▁miss": 3797,
      "ically": 3798,
      "▁Our": 3799,
      "▁tor": 3800,
      "hal": 3801,
      "▁life.": 3802,
      "ENT": 3803,
      "ic,": 3804,
      "▁service": 3805,
      "▁lady": 3806,
      "hel": 3807,
      "▁saying": 3808,
      "▁parent": 3809,
      "▁history": 3810,
      "II.": 3811,
      "▁knight": 3812,
      "▁ordered": 3813,
      "3]": 3814,
      "▁greatly": 3815,
      "▁firm": 3816,
      "▁ty": 3817,
      "▁_B": 3818,
      "pet": 3819,
      "▁girls": 3820,
      "▁southern": 3821,
      "ford": 3822,
      "▁Dav": 3823,
      "ously": 3824,
      "▁morning,": 3825,
      "▁_D": 3826,
      "▁qual": 3827,
      "▁likely": 3828,
      "▁fruit": 3829,
      "is.": 3830,
      "▁Such": 3831,
      "▁amount": 3832,
      "▁natives": 3833,
      "▁splend": 3834,
      "ruct": 3835,
      "▁forms": 3836,
      "▁merely": 3837,
      "▁age": 3838,
      "con": 3839,
      "▁clot": 3840,
      "OT": 3841,
      "▁cult": 3842,
      "th.": 3843,
      "▁185": 3844,
      "▁bow": 3845,
      "▁fier": 3846,
      "aving": 3847,
      "cy": 3848,
      "▁stop": 3849,
      "▁East": 3850,
      "apt": 3851,
      "min": 3852,
      "▁escape": 3853,
      "▁months": 3854,
      "▁Dick": 3855,
      "▁sick": 3856,
      "▁whis": 3857,
      "▁Charles": 3858,
      "▁female": 3859,
      "▁deb": 3860,
      "ile,": 3861,
      "▁Gl": 3862,
      "▁trust": 3863,
      "acher": 3864,
      "ishop": 3865,
      "erior": 3866,
      ".)": 3867,
      "▁declared": 3868,
      "▁ho": 3869,
      "▁legs": 3870,
      "▁away.": 3871,
      "fortun": 3872,
      "▁absol": 3873,
      "▁mort": 3874,
      "▁started": 3875,
      "▁interesting": 3876,
      "ether": 3877,
      "▁wonderful": 3878,
      "rop": 3879,
      "ez": 3880,
      "less,": 3881,
      "▁proceeded": 3882,
      "▁gives": 3883,
      "▁butter": 3884,
      "í,": 3885,
      "▁depend": 3886,
      "▁prec": 3887,
      "▁dogs": 3888,
      "▁star": 3889,
      "▁strugg": 3890,
      "▁male": 3891,
      "▁oper": 3892,
      "ados": 3893,
      "▁storm": 3894,
      "ID": 3895,
      "ulation": 3896,
      "▁flo": 3897,
      "erd": 3898,
      "-S": 3899,
      "▁Bon": 3900,
      "▁opposite": 3901,
      "▁agre": 3902,
      "▁dam": 3903,
      "▁regular": 3904,
      "▁drawn": 3905,
      "ium": 3906,
      "▁enemy": 3907,
      "▁yourself": 3908,
      "▁named": 3909,
      "▁principal": 3910,
      "▁pod": 3911,
      "▁proport": 3912,
      "▁\"No,": 3913,
      "▁all.": 3914,
      "▁tall": 3915,
      "leg": 3916,
      "▁deer": 3917,
      "▁supposed": 3918,
      "▁_The": 3919,
      "▁terrible": 3920,
      "▁tast": 3921,
      "▁184": 3922,
      "▁written": 3923,
      "▁Austral": 3924,
      "▁color": 3925,
      "▁wound": 3926,
      "▁indic": 3927,
      "ing-": 3928,
      "▁desert": 3929,
      "▁bag": 3930,
      "▁brave": 3931,
      "▁claim": 3932,
      "ober": 3933,
      "▁decided": 3934,
      "▁fart": 3935,
      "▁sor": 3936,
      "can": 3937,
      "▁utter": 3938,
      "▁lying": 3939,
      "fl": 3940,
      "▁grave": 3941,
      "▁ur": 3942,
      "▁188": 3943,
      "▁local": 3944,
      "▁simp": 3945,
      "▁cott": 3946,
      "▁domestic": 3947,
      "▁perm": 3948,
      "ied,": 3949,
      "▁2.": 3950,
      "ace,": 3951,
      "▁suit": 3952,
      "udd": 3953,
      "▁organ": 3954,
      "▁offered": 3955,
      "known": 3956,
      "▁allow": 3957,
      "▁wid": 3958,
      "▁prepared": 3959,
      "ishing": 3960,
      "omb": 3961,
      "▁accompan": 3962,
      "▁vast": 3963,
      "▁heaven": 3964,
      "anta": 3965,
      "▁ships": 3966,
      "▁histor": 3967,
      "▁Ser": 3968,
      "▁I,": 3969,
      "pir": 3970,
      "▁Quij": 3971,
      "eder": 3972,
      "▁Henry": 3973,
      "▁royal": 3974,
      "▁sister": 3975,
      "▁knowledge": 3976,
      "▁race": 3977,
      "▁Fig.": 3978,
      "tt": 3979,
      "▁dos": 3980,
      "▁throughout": 3981,
      "ms": 3982,
      "▁Su": 3983,
      "us_": 3984,
      "ward,": 3985,
      "▁labour": 3986,
      "▁content": 3987,
      "▁England,": 3988,
      "▁caused": 3989,
      "▁\"If": 3990,
      "▁vig": 3991,
      "▁31": 3992,
      "▁señor": 3993,
      "ans,": 3994,
      "▁beast": 3995,
      "▁pit": 3996,
      "▁bord": 3997,
      "▁_W": 3998,
      "ics": 3999,
      "▁June": 4000,
      "vi": 4001,
      "▁Har": 4002,
      "▁rank": 4003,
      "ograph": 4004,
      "▁prepar": 4005,
      "▁difference": 4006,
      "▁perce": 4007,
      "▁brid": 4008,
      "▁liber": 4009,
      "▁E.": 4010,
      "Cl": 4011,
      "▁tow": 4012,
      "▁shoot": 4013,
      "▁obtained": 4014,
      "iles": 4015,
      "▁him;": 4016,
      "▁curious": 4017,
      "▁troops": 4018,
      "ins,": 4019,
      "on's": 4020,
      "--The": 4021,
      "▁forty": 4022,
      "▁H.": 4023,
      "▁feet,": 4024,
      "▁travel": 4025,
      "▁Dan": 4026,
      "▁wand": 4027,
      "▁quarter": 4028,
      "acy": 4029,
      "▁eager": 4030,
      "▁vain": 4031,
      "▁advantage": 4032,
      "▁forget": 4033,
      "▁----": 4034,
      "▁cell": 4035,
      "▁be,": 4036,
      "▁caus": 4037,
      "▁amb": 4038,
      "▁October": 4039,
      "ado,": 4040,
      "▁before,": 4041,
      "▁ST": 4042,
      "▁C.": 4043,
      "▁Even": 4044,
      "emb": 4045,
      "▁private": 4046,
      "ourn": 4047,
      "▁them;": 4048,
      "▁home,": 4049,
      "▁White": 4050,
      "▁remarkable": 4051,
      "▁range": 4052,
      "▁bore": 4053,
      "▁Christmas": 4054,
      "-ha": 4055,
      "▁possession": 4056,
      "▁bir": 4057,
      "</i>,": 4058,
      "ot,": 4059,
      "▁beat": 4060,
      "you": 4061,
      "▁creature": 4062,
      "▁appoint": 4063,
      "▁branc": 4064,
      "▁nav": 4065,
      "▁apart": 4066,
      "▁rang": 4067,
      "▁afford": 4068,
      "▁elephant": 4069,
      "oom": 4070,
      "▁N.": 4071,
      "ET": 4072,
      "▁gray": 4073,
      "▁Tro": 4074,
      "▁tru": 4075,
      "▁Sha": 4076,
      "▁elev": 4077,
      "▁pleasant": 4078,
      "▁particularly": 4079,
      "▁tong": 4080,
      "▁'T": 4081,
      "▁well,": 4082,
      "▁produced": 4083,
      "▁acquaint": 4084,
      "▁portion": 4085,
      "▁intellig": 4086,
      "▁qui": 4087,
      "▁out.": 4088,
      "▁disappe": 4089,
      "▁golden": 4090,
      "▁goes": 4091,
      "▁Scot": 4092,
      "▁unless": 4093,
      "▁bold": 4094,
      "▁shut": 4095,
      "▁constit": 4096,
      "▁loss": 4097,
      "ibly": 4098,
      "▁House": 4099,
      "▁process": 4100,
      "▁esta": 4101,
      "igr": 4102,
      "▁rend": 4103,
      "▁aid": 4104,
      "▁ende": 4105,
      "▁First": 4106,
      "UN": 4107,
      "▁broke": 4108,
      "▁189": 4109,
      "▁thinking": 4110,
      "▁Mag": 4111,
      "▁years,": 4112,
      "land,": 4113,
      "hes.": 4114,
      "Qu": 4115,
      "▁numbers": 4116,
      "▁iron": 4117,
      "iling": 4118,
      "▁picture": 4119,
      "▁gran": 4120,
      "▁begin": 4121,
      "▁TO": 4122,
      "▁way.": 4123,
      "▁emp": 4124,
      "ples": 4125,
      "▁moved": 4126,
      "▁mas": 4127,
      "▁pens": 4128,
      "▁influence": 4129,
      "hip": 4130,
      "▁pet": 4131,
      "iber": 4132,
      "ors,": 4133,
      "▁196": 4134,
      "apart": 4135,
      "▁caball": 4136,
      "▁water.": 4137,
      "],": 4138,
      "▁fal": 4139,
      "▁simple": 4140,
      "y,\"": 4141,
      "▁happen": 4142,
      "▁mel": 4143,
      "▁mess": 4144,
      "ish,": 4145,
      "▁rise": 4146,
      "</i>.": 4147,
      "▁hay": 4148,
      "▁fit": 4149,
      "ful,": 4150,
      "ra,": 4151,
      "án": 4152,
      "▁beside": 4153,
      "rab": 4154,
      "50": 4155,
      "▁collect": 4156,
      "▁employed": 4157,
      "▁pack": 4158,
      "▁Black": 4159,
      "▁thor": 4160,
      "▁country.": 4161,
      "▁journey": 4162,
      "▁up.": 4163,
      "▁members": 4164,
      "▁mut": 4165,
      "▁spite": 4166,
      "ote,": 4167,
      "▁Sal": 4168,
      "▁Thou": 4169,
      "▁rough": 4170,
      "▁breast": 4171,
      "▁fact,": 4172,
      "▁Ven": 4173,
      "▁required": 4174,
      "ajor": 4175,
      "▁figure": 4176,
      "▁imm": 4177,
      "ico": 4178,
      "▁knows": 4179,
      "▁farther": 4180,
      "▁September": 4181,
      "▁measure": 4182,
      "▁one.": 4183,
      "sec": 4184,
      "▁excellent": 4185,
      "▁expedition": 4186,
      "vo": 4187,
      "bling": 4188,
      "▁imper": 4189,
      "▁evil": 4190,
      "see": 4191,
      "▁shell": 4192,
      "▁bare": 4193,
      "come": 4194,
      "pter": 4195,
      "▁man.": 4196,
      "▁yards": 4197,
      "▁32": 4198,
      "▁pow": 4199,
      "aries": 4200,
      "▁\"There": 4201,
      "ulf": 4202,
      "▁bless": 4203,
      "▁presence": 4204,
      "▁endeav": 4205,
      "▁it.\"": 4206,
      "▁nos": 4207,
      "race": 4208,
      "▁Church": 4209,
      "▁exceed": 4210,
      "▁cases": 4211,
      "▁July": 4212,
      "▁pure": 4213,
      "▁trying": 4214,
      "▁press": 4215,
      "AD": 4216,
      "▁Alex": 4217,
      "aked": 4218,
      "▁Two": 4219,
      "aking": 4220,
      "▁revol": 4221,
      "ky": 4222,
      "chas": 4223,
      "▁informed": 4224,
      "▁there.": 4225,
      "▁track": 4226,
      "▁satisfact": 4227,
      "▁outside": 4228,
      "ir,": 4229,
      "▁_G": 4230,
      "ness.": 4231,
      "osing": 4232,
      "asc": 4233,
      "iving": 4234,
      "▁'t": 4235,
      "▁Nove": 4236,
      "▁Jose": 4237,
      "▁others,": 4238,
      "my": 4239,
      "▁Greek": 4240,
      "uction": 4241,
      "ude": 4242,
      "ae": 4243,
      "▁York": 4244,
      "▁absolute": 4245,
      "vill": 4246,
      "ests": 4247,
      "▁cop": 4248,
      "ailed": 4249,
      "▁quickly": 4250,
      "ánd": 4251,
      "▁weight": 4252,
      "▁Many": 4253,
      "'S": 4254,
      "▁crossed": 4255,
      "h!": 4256,
      "se.": 4257,
      "▁attend": 4258,
      "▁river,": 4259,
      "▁examp": 4260,
      "▁saf": 4261,
      "▁pieces": 4262,
      "▁takes": 4263,
      "man,": 4264,
      "▁superior": 4265,
      "ated.": 4266,
      "▁larg": 4267,
      "ope,": 4268,
      "antic": 4269,
      "▁spok": 4270,
      "add": 4271,
      "▁thrown": 4272,
      "▁Est": 4273,
      "▁receive": 4274,
      "▁grant": 4275,
      "▁favor": 4276,
      "lished": 4277,
      "▁L.": 4278,
      "▁company": 4279,
      "agu": 4280,
      "▁cuando": 4281,
      "▁level": 4282,
      "▁Je": 4283,
      "▁advent": 4284,
      "▁stopped": 4285,
      "p,": 4286,
      "▁James": 4287,
      "▁War": 4288,
      "▁natur": 4289,
      "▁America": 4290,
      "ro,": 4291,
      "▁sty": 4292,
      "▁bab": 4293,
      "▁tot": 4294,
      "▁marked": 4295,
      "▁described": 4296,
      "▁travell": 4297,
      "▁gaz": 4298,
      "▁states": 4299,
      "▁unto": 4300,
      "▁cloth": 4301,
      "cember": 4302,
      "▁edge": 4303,
      "▁****": 4304,
      "-W": 4305,
      "▁proved": 4306,
      "▁'W": 4307,
      "▁cav": 4308,
      "▁miser": 4309,
      "▁fool": 4310,
      "▁orn": 4311,
      "▁fixed": 4312,
      "▁dism": 4313,
      "ants,": 4314,
      "▁als": 4315,
      "▁During": 4316,
      "athered": 4317,
      "▁orders": 4318,
      "▁yield": 4319,
      "▁garden": 4320,
      "pel": 4321,
      "▁kne": 4322,
      "▁for,": 4323,
      "istr": 4324,
      "▁rul": 4325,
      "▁material": 4326,
      "ress,": 4327,
      "ing;": 4328,
      "d.": 4329,
      "stood": 4330,
      "ayed": 4331,
      "ensive": 4332,
      "ription": 4333,
      "gypt": 4334,
      "▁compar": 4335,
      "▁attract": 4336,
      "▁to-d": 4337,
      "▁Bur": 4338,
      "ía,": 4339,
      "▁duty": 4340,
      "ais": 4341,
      "▁Cr": 4342,
      "vey": 4343,
      "▁qué": 4344,
      "▁together,": 4345,
      "▁wise": 4346,
      "chen": 4347,
      "▁wel": 4348,
      "▁sea,": 4349,
      "▁marri": 4350,
      "▁expected": 4351,
      "▁appre": 4352,
      "▁flesh": 4353,
      "▁Its": 4354,
      "▁blow": 4355,
      "▁finding": 4356,
      "▁notice": 4357,
      "▁laug": 4358,
      "▁carri": 4359,
      "attered": 4360,
      "▁id": 4361,
      "▁threw": 4362,
      "▁ordinary": 4363,
      "'m": 4364,
      "▁grace": 4365,
      "▁value": 4366,
      "▁November": 4367,
      "▁Cape": 4368,
      "▁future": 4369,
      "7]": 4370,
      "▁pot": 4371,
      "▁subst": 4372,
      "▁anxious": 4373,
      "▁Rus": 4374,
      "▁verd": 4375,
      "▁sevent": 4376,
      "▁Mel": 4377,
      "▁1,": 4378,
      "▁earn": 4379,
      "▁D.": 4380,
      "▁pursu": 4381,
      "▁seg": 4382,
      "▁smaller": 4383,
      "-like": 4384,
      "▁houses": 4385,
      "▁od": 4386,
      "ompl": 4387,
      "▁special": 4388,
      "▁3.": 4389,
      "▁publ": 4390,
      "▁exactly": 4391,
      "▁cual": 4392,
      "▁roof": 4393,
      "▁another,": 4394,
      "▁rub": 4395,
      "iny": 4396,
      "▁communic": 4397,
      "▁fully": 4398,
      "▁Ph": 4399,
      "▁oursel": 4400,
      "▁excit": 4401,
      "▁Egypt": 4402,
      "▁impress": 4403,
      "▁finished": 4404,
      "▁hills": 4405,
      "▁flock": 4406,
      "8]": 4407,
      "ii.": 4408,
      "▁said:": 4409,
      "▁December": 4410,
      "▁conclud": 4411,
      "▁threat": 4412,
      "igu": 4413,
      "▁Robert": 4414,
      "van": 4415,
      "▁grown": 4416,
      "▁night.": 4417,
      "▁Just": 4418,
      "▁London": 4419,
      "--A": 4420,
      "▁rab": 4421,
      "▁log": 4422,
      "▁hollow": 4423,
      "▁were,": 4424,
      "▁dar": 4425,
      "▁catch": 4426,
      "▁agree": 4427,
      "▁maid": 4428,
      "aled": 4429,
      "▁test": 4430,
      "ences": 4431,
      "ipped": 4432,
      "▁ones": 4433,
      "ito": 4434,
      "▁remains": 4435,
      "▁amongst": 4436,
      "▁presented": 4437,
      "▁lines": 4438,
      "▁Pers": 4439,
      "▁settle": 4440,
      "▁space": 4441,
      "isp": 4442,
      "▁Gree": 4443,
      "▁base": 4444,
      "9]": 4445,
      "▁More": 4446,
      "▁search": 4447,
      "▁district": 4448,
      "ogether": 4449,
      "bo": 4450,
      "▁\"but": 4451,
      "▁repeated": 4452,
      "▁laughed": 4453,
      "▁il": 4454,
      "▁off,": 4455,
      "-and": 4456,
      "▁poet": 4457,
      "▁resist": 4458,
      "▁fallen": 4459,
      "▁beha": 4460,
      "▁Lat": 4461,
      "▁paper": 4462,
      "▁unf": 4463,
      "▁work,": 4464,
      "erved": 4465,
      "▁specimens": 4466,
      "ooth": 4467,
      "am,": 4468,
      "▁Es": 4469,
      "▁cattle": 4470,
      "▁hath": 4471,
      "▁soldier": 4472,
      "rig": 4473,
      "▁Cons": 4474,
      "ides,": 4475,
      "▁displ": 4476,
      "▁produce": 4477,
      "1]": 4478,
      "▁wolf": 4479,
      "arily": 4480,
      "clock": 4481,
      "▁believed": 4482,
      "▁square": 4483,
      "▁plum": 4484,
      "▁passage": 4485,
      "▁wag": 4486,
      "▁nine": 4487,
      "▁mile": 4488,
      "▁turning": 4489,
      "▁severe": 4490,
      "▁Vir": 4491,
      "lling": 4492,
      "▁lives": 4493,
      "▁joined": 4494,
      "ency": 4495,
      "▁Cor": 4496,
      "▁loved": 4497,
      "▁inhabitants": 4498,
      "itive": 4499,
      "otted": 4500,
      "bar": 4501,
      "asp": 4502,
      "▁shape": 4503,
      "▁captain": 4504,
      "pre": 4505,
      "▁body,": 4506,
      "▁world,": 4507,
      "▁algun": 4508,
      "▁wif": 4509,
      "'s,": 4510,
      "oon": 4511,
      "▁reign": 4512,
      "▁study": 4513,
      "ublic": 4514,
      "▁variet": 4515,
      "▁changed": 4516,
      "ours": 4517,
      "ña": 4518,
      "▁bark": 4519,
      "▁_f": 4520,
      "-th": 4521,
      "▁proc": 4522,
      "▁dijo": 4523,
      "▁April": 4524,
      "ijo": 4525,
      "opt": 4526,
      "▁Yet": 4527,
      "▁cultiv": 4528,
      "OS": 4529,
      "▁report": 4530,
      "▁veget": 4531,
      "▁dej": 4532,
      "▁'n": 4533,
      "ry.": 4534,
      "tered": 4535,
      "▁proud": 4536,
      "▁rout": 4537,
      "ún": 4538,
      "▁independ": 4539,
      "▁mine": 4540,
      "▁first,": 4541,
      "▁aston": 4542,
      "▁know,": 4543,
      "▁reb": 4544,
      "sued": 4545,
      "▁France,": 4546,
      "▁suppl": 4547,
      "▁valu": 4548,
      "▁heads": 4549,
      "orious": 4550,
      "ams": 4551,
      "rer": 4552,
      "soci": 4553,
      "▁profess": 4554,
      "▁o'clock": 4555,
      "▁prove": 4556,
      "oria": 4557,
      "▁carefully": 4558,
      "▁aver": 4559,
      "amos": 4560,
      "▁continu": 4561,
      "▁hunting": 4562,
      "▁established": 4563,
      "▁couldn't": 4564,
      "▁names": 4565,
      "30": 4566,
      "▁tien": 4567,
      "▁siz": 4568,
      "ese": 4569,
      "▁clean": 4570,
      "▁Spanish": 4571,
      "▁Quixote": 4572,
      "▁accompl": 4573,
      "▁R.": 4574,
      "▁simply": 4575,
      "▁discover": 4576,
      "▁exerc": 4577,
      "▁It's": 4578,
      "▁addition": 4579,
      "▁ein": 4580,
      "ech": 4581,
      "key": 4582,
      "▁spent": 4583,
      "▁obtain": 4584,
      "ments,": 4585,
      "▁supply": 4586,
      "▁teeth": 4587,
      "wood": 4588,
      "lict": 4589,
      "▁mud": 4590,
      "▁grey": 4591,
      "ada,": 4592,
      "ato": 4593,
      "hys": 4594,
      "ributed": 4595,
      "▁pointed": 4596,
      "▁glass": 4597,
      "▁sorrow": 4598,
      "▁degree": 4599,
      "▁Ric": 4600,
      "▁extraord": 4601,
      "▁slowly": 4602,
      "▁quantity": 4603,
      "▁becomes": 4604,
      "▁Camp": 4605,
      "▁driven": 4606,
      "▁waiting": 4607,
      "▁king,": 4608,
      "▁cart": 4609,
      "▁correspond": 4610,
      "▁distur": 4611,
      "CH": 4612,
      "▁hole": 4613,
      "lly": 4614,
      "set": 4615,
      "▁Mon": 4616,
      "▁wouldn't": 4617,
      "▁princi": 4618,
      "▁Master": 4619,
      "▁asc": 4620,
      "▁struct": 4621,
      "olly": 4622,
      "▁Small": 4623,
      "▁flat": 4624,
      "▁trade": 4625,
      "light": 4626,
      "▁Mer": 4627,
      "▁pleased": 4628,
      "▁other.": 4629,
      "▁benef": 4630,
      "▁ignor": 4631,
      "our,": 4632,
      "▁flight": 4633,
      "▁carrying": 4634,
      "▁capital": 4635,
      "umed": 4636,
      "▁understood": 4637,
      "▁news": 4638,
      "▁lleg": 4639,
      "▁soldiers": 4640,
      "▁opportunity": 4641,
      "aps": 4642,
      "▁Napoleon": 4643,
      "▁tit": 4644,
      "▁todos": 4645,
      "▁Thom": 4646,
      "▁difficulty": 4647,
      "▁place.": 4648,
      "▁woods": 4649,
      "▁distinguished": 4650,
      "▁Cont": 4651,
      "▁proportion": 4652,
      "▁rail": 4653,
      "▁Mal": 4654,
      "eness": 4655,
      "▁doll": 4656,
      "▁land,": 4657,
      "▁prefer": 4658,
      "▁original": 4659,
      "▁35": 4660,
      "▁40": 4661,
      "▁cele": 4662,
      "▁apparently": 4663,
      "▁trees,": 4664,
      "▁are,": 4665,
      "▁consist": 4666,
      "road": 4667,
      "▁jump": 4668,
      "▁queen": 4669,
      "▁Parliament": 4670,
      "ore,": 4671,
      "▁mult": 4672,
      "▁ground.": 4673,
      "iera": 4674,
      "▁Range": 4675,
      "UL": 4676,
      "oln": 4677,
      "▁seized": 4678,
      "ets,": 4679,
      "▁extremely": 4680,
      "▁charge": 4681,
      "▁pock": 4682,
      "▁youth": 4683,
      "▁fash": 4684,
      "▁34": 4685,
      "ces,": 4686,
      "▁days,": 4687,
      "▁Paris": 4688,
      "form": 4689,
      "▁bitter": 4690,
      "▁4.": 4691,
      "▁Sund": 4692,
      "▁Feb": 4693,
      "▁cro": 4694,
      "▁exhib": 4695,
      "hold": 4696,
      "▁_F": 4697,
      "▁that's": 4698,
      "▁cand": 4699,
      "ason,": 4700,
      "bid": 4701,
      "▁env": 4702,
      "▁farm": 4703,
      "pill": 4704,
      "▁Mor": 4705,
      "▁entre": 4706,
      "ldom": 4707,
      "▁aband": 4708,
      "▁laws": 4709,
      "▁do,": 4710,
      "▁pa": 4711,
      "▁train": 4712,
      "▁ph": 4713,
      "een": 4714,
      "▁Mart": 4715,
      "oses": 4716,
      "▁Wood": 4717,
      "▁das": 4718,
      "▁blind": 4719,
      "▁mentioned": 4720,
      "▁walls": 4721,
      "▁music": 4722,
      "▁species,": 4723,
      "▁March": 4724,
      "▁write": 4725,
      "RI": 4726,
      "st,": 4727,
      "▁cook": 4728,
      "alle": 4729,
      "▁Russell": 4730,
      "▁dign": 4731,
      "▁sobre": 4732,
      "▁Law": 4733,
      "▁arrange": 4734,
      "ury": 4735,
      "▁meat": 4736,
      "▁man's": 4737,
      "▁ella": 4738,
      "▁buffalo": 4739,
      "▁[2": 4740,
      "▁promised": 4741,
      "▁officers": 4742,
      "▁motion": 4743,
      "bly": 4744,
      "O.": 4745,
      "oyal": 4746,
      "▁Por": 4747,
      "mond": 4748,
      "lection": 4749,
      "▁head.": 4750,
      "▁equally": 4751,
      "▁effort": 4752,
      "▁works": 4753,
      "▁Cat": 4754,
      "pered": 4755,
      "▁Why": 4756,
      "▁George": 4757,
      "▁health": 4758,
      "▁popular": 4759,
      "▁Comp": 4760,
      "▁region": 4761,
      "ations.": 4762,
      "▁cheer": 4763,
      "▁retreat": 4764,
      "▁Cour": 4765,
      "▁branch": 4766,
      "ique": 4767,
      "▁powerful": 4768,
      "z,": 4769,
      "ian,": 4770,
      "▁191": 4771,
      "▁on.": 4772,
      "▁rocks": 4773,
      "ternal": 4774,
      "▁Jun": 4775,
      "ess.": 4776,
      "▁adopt": 4777,
      "▁more,": 4778,
      "▁splendid": 4779,
      "▁buen": 4780,
      "-C": 4781,
      "▁murd": 4782,
      "ill,": 4783,
      "M.": 4784,
      "▁nice": 4785,
      "akes": 4786,
      "▁v.": 4787,
      "▁I.": 4788,
      "▁DE": 4789,
      "▁Joseph": 4790,
      "▁thin": 4791,
      "▁Long": 4792,
      "ome,": 4793,
      "alled": 4794,
      "▁arg": 4795,
      "▁intended": 4796,
      "▁dwell": 4797,
      "anz": 4798,
      "▁preced": 4799,
      "▁Franc": 4800,
      "▁double": 4801,
      "ise.": 4802,
      "▁seek": 4803,
      "▁experience": 4804,
      "▁ere": 4805,
      "▁mind,": 4806,
      "▁extrem": 4807,
      "A.": 4808,
      "▁_I": 4809,
      "c.,": 4810,
      "▁educ": 4811,
      "als,": 4812,
      "▁Sever": 4813,
      "▁Rep": 4814,
      "ede": 4815,
      "pes": 4816,
      "▁immen": 4817,
      "▁succeeded": 4818,
      "▁celebr": 4819,
      "ieron": 4820,
      "▁accompanied": 4821,
      "tic": 4822,
      "▁But,": 4823,
      "▁pup": 4824,
      "aterpill": 4825,
      "▁building": 4826,
      "ones,": 4827,
      "▁flowers": 4828,
      "▁mur": 4829,
      "▁tired": 4830,
      "▁batt": 4831,
      "▁Vict": 4832,
      "▁forced": 4833,
      "ancy": 4834,
      "▁year,": 4835,
      "▁Sec": 4836,
      "▁closely": 4837,
      "▁Pat": 4838,
      "▁project": 4839,
      "eros": 4840,
      "▁cred": 4841,
      "▁Rio": 4842,
      "▁habits": 4843,
      "▁thank": 4844,
      "ails": 4845,
      "▁sacrif": 4846,
      "orous": 4847,
      "».": 4848,
      "▁Coll": 4849,
      "▁\"How": 4850,
      "lk": 4851,
      "▁face,": 4852,
      "▁obst": 4853,
      "ines,": 4854,
      "▁mí": 4855,
      "ny": 4856,
      "oph": 4857,
      "▁highest": 4858,
      "▁Little": 4859,
      "▁instant": 4860,
      "▁moon": 4861,
      "▁military": 4862,
      "ify": 4863,
      "ym": 4864,
      "ious,": 4865,
      "iding": 4866,
      "▁highly": 4867,
      "▁abandon": 4868,
      "▁engaged": 4869,
      "▁aun": 4870,
      "ars,": 4871,
      "▁altogether": 4872,
      "ilst": 4873,
      "OW": 4874,
      "er;": 4875,
      "ives,": 4876,
      "▁lies": 4877,
      "gel": 4878,
      "▁mighty": 4879,
      "▁Lu": 4880,
      "▁modern": 4881,
      "-in": 4882,
      "▁lod": 4883,
      "chief": 4884,
      "otten": 4885,
      "▁Now,": 4886,
      "hem": 4887,
      "▁holding": 4888,
      "▁thorough": 4889,
      "▁Alexand": 4890,
      "▁stro": 4891,
      "▁exclaimed": 4892,
      "▁son,": 4893,
      "▁occupied": 4894,
      "▁gar": 4895,
      "▁33": 4896,
      "▁avoid": 4897,
      "▁faint": 4898,
      "▁frequent": 4899,
      "▁serious": 4900,
      "._,": 4901,
      "rog": 4902,
      "▁western": 4903,
      "acion": 4904,
      "▁speed": 4905,
      "pon": 4906,
      "▁Sim": 4907,
      "▁Bonapart": 4908,
      "▁vous": 4909,
      "ard.": 4910,
      "▁letters": 4911,
      "▁variety": 4912,
      "▁Prin": 4913,
      "▁polic": 4914,
      "aken": 4915,
      "iento": 4916,
      "aver": 4917,
      "▁ox": 4918,
      "▁seldom": 4919,
      "▁conven": 4920,
      "▁ears": 4921,
      "▁himself.": 4922,
      "▁jaw": 4923,
      "▁desired": 4924,
      "▁pond": 4925,
      "▁waters": 4926,
      "▁isn't": 4927,
      "▁Cook": 4928,
      "e;": 4929,
      "▁join": 4930,
      "▁rabbit": 4931,
      "imate": 4932,
      "▁Sk": 4933,
      "▁_E": 4934,
      "istic": 4935,
      "iform": 4936,
      "▁Jes": 4937,
      "lected": 4938,
      "▁Those": 4939,
      "▁opening": 4940,
      "leep": 4941,
      "▁ble": 4942,
      "▁Before": 4943,
      "les.": 4944,
      "▁things,": 4945,
      "ite,": 4946,
      "▁war,": 4947,
      "▁slightly": 4948,
      "▁minute": 4949,
      "▁dust": 4950,
      "▁unw": 4951,
      "esc": 4952,
      "▁diss": 4953,
      "▁touch": 4954,
      "▁breath": 4955,
      "▁...": 4956,
      "▁rejo": 4957,
      "▁undert": 4958,
      "▁Thy": 4959,
      "▁aquel": 4960,
      "▁Janu": 4961,
      "▁lot": 4962,
      "▁accident": 4963,
      "▁chiefly": 4964,
      "▁famous": 4965,
      "▁suffer": 4966,
      "fast": 4967,
      "▁immense": 4968,
      "▁beauty": 4969,
      "▁vol.": 4970,
      "▁last,": 4971,
      "▁father,": 4972,
      "▁smooth": 4973,
      "--S": 4974,
      "cked": 4975,
      "▁evidently": 4976,
      "▁share": 4977,
      "▁Rome": 4978,
      "ances,": 4979,
      "ages,": 4980,
      "▁inside": 4981,
      "▁Range.--": 4982,
      "▁tip": 4983,
      "▁cool": 4984,
      "hard": 4985,
      "▁swift": 4986,
      "▁European": 4987,
      "▁hand.": 4988,
      "bing": 4989,
      "▁whence": 4990,
      "▁\"that": 4991,
      "▁see,": 4992,
      "▁Chief": 4993,
      "▁mes": 4994,
      "▁room,": 4995,
      "▁Columb": 4996,
      "ational": 4997,
      "▁home.": 4998,
      "▁burst": 4999,
      "▁sen": 5000,
      "▁symp": 5001,
      "▁rising": 5002,
      "▁vers": 5003,
      "▁ring": 5004,
      "amente": 5005,
      "▁cler": 5006,
      "▁establish": 5007,
      "iert": 5008,
      "▁Cam": 5009,
      "ables": 5010,
      "▁183": 5011,
      "▁discuss": 5012,
      "ves.": 5013,
      "▁invent": 5014,
      "▁Fort": 5015,
      "night": 5016,
      "inent": 5017,
      "▁tender": 5018,
      "▁je": 5019,
      "▁refused": 5020,
      "▁Somet": 5021,
      "-B": 5022,
      "ians,": 5023,
      "▁XV": 5024,
      "▁points": 5025,
      "sted": 5026,
      "▁ascend": 5027,
      "▁progress": 5028,
      "inite": 5029,
      "▁refer": 5030,
      "▁wear": 5031,
      "▁\"It's": 5032,
      "▁Green": 5033,
      "do": 5034,
      "▁grat": 5035,
      "▁Colon": 5036,
      "men,": 5037,
      "▁harm": 5038,
      "▁I'd": 5039,
      "field": 5040,
      "▁sour": 5041,
      "▁serve": 5042,
      "▁fo": 5043,
      "▁Sl": 5044,
      "▁Mother": 5045,
      "▁before.": 5046,
      "▁offer": 5047,
      "▁hands,": 5048,
      "▁dé": 5049,
      "▁disg": 5050,
      "▁hasta": 5051,
      "▁duck": 5052,
      "▁fifteen": 5053,
      "▁flew": 5054,
      "▁transp": 5055,
      "ita": 5056,
      "▁Cast": 5057,
      "vert": 5058,
      "▁growing": 5059,
      "▁subs": 5060,
      "▁completely": 5061,
      "▁increas": 5062,
      "OO": 5063,
      "plic": 5064,
      "▁world.": 5065,
      "▁children,": 5066,
      "cia": 5067,
      "▁36": 5068,
      "▁breed": 5069,
      "ory.": 5070,
      "▁divided": 5071,
      "▁cruel": 5072,
      "rap": 5073,
      "emn": 5074,
      "▁vic": 5075,
      "▁leaf": 5076,
      "▁diam": 5077,
      "id,": 5078,
      "▁disapp": 5079,
      "isions": 5080,
      "▁pick": 5081,
      "▁unknown": 5082,
      "verse": 5083,
      "▁affect": 5084,
      "ufact": 5085,
      "err": 5086,
      "▁watched": 5087,
      "▁treas": 5088,
      "▁birds,": 5089,
      "▁married": 5090,
      "▁5.": 5091,
      "umber": 5092,
      "▁resolved": 5093,
      "▁drive": 5094,
      "▁actually": 5095,
      "▁ess": 5096,
      "▁ment": 5097,
      "▁bal": 5098,
      "▁estaba": 5099,
      "▁crim": 5100,
      "just": 5101,
      "▁fue": 5102,
      "ourable": 5103,
      "▁feed": 5104,
      "▁rode": 5105,
      "▁secure": 5106,
      "▁solem": 5107,
      "▁Sat": 5108,
      "▁reven": 5109,
      "il.": 5110,
      "▁&c.": 5111,
      "▁Quijote": 5112,
      "gl": 5113,
      "▁Ac": 5114,
      "▁que,": 5115,
      "▁majest": 5116,
      "▁\"E": 5117,
      "ague": 5118,
      "▁liter": 5119,
      "▁courage": 5120,
      "▁\"I'm": 5121,
      "hens": 5122,
      "over,": 5123,
      "AND": 5124,
      "▁pictures": 5125,
      "▁cup": 5126,
      "▁extend": 5127,
      "▁keeping": 5128,
      "rs": 5129,
      "▁ing": 5130,
      "▁banks": 5131,
      "uls": 5132,
      "▁afterward": 5133,
      "ites": 5134,
      "inet": 5135,
      "▁empt": 5136,
      "ounced": 5137,
      "ste": 5138,
      "aign": 5139,
      "ities,": 5140,
      "▁Sancho,": 5141,
      "▁huge": 5142,
      "▁America,": 5143,
      "▁besides": 5144,
      "irm": 5145,
      "▁proof": 5146,
      "▁llam": 5147,
      "▁Im": 5148,
      "▁price": 5149,
      "▁Hist": 5150,
      "▁group": 5151,
      "▁knowing": 5152,
      "▁familiar": 5153,
      "▁attached": 5154,
      "▁ban": 5155,
      "▁B.": 5156,
      "▁finally": 5157,
      "▁\"My": 5158,
      "ake,": 5159,
      "▁had,": 5160,
      "▁Vol": 5161,
      "▁freed": 5162,
      "▁Another": 5163,
      "▁fire,": 5164,
      "ton,": 5165,
      "ierra": 5166,
      "▁ornament": 5167,
      "▁side.": 5168,
      "▁political": 5169,
      "▁Aunt": 5170,
      "▁Washing": 5171,
      "▁Die": 5172,
      "▁caterpill": 5173,
      "▁hither": 5174,
      "▁branches": 5175,
      "▁$": 5176,
      "▁men.": 5177,
      "▁territ": 5178,
      "20": 5179,
      "▁Med": 5180,
      "--that": 5181,
      "▁Bu": 5182,
      "▁station": 5183,
      "▁door,": 5184,
      "▁_c": 5185,
      "▁extent": 5186,
      "▁useful": 5187,
      "▁meeting": 5188,
      "pelled": 5189,
      "▁etc.": 5190,
      "it.": 5191,
      "▁37": 5192,
      "▁sought": 5193,
      "▁right,": 5194,
      "AB": 5195,
      "mos": 5196,
      "▁provided": 5197,
      "uv": 5198,
      "▁fault": 5199,
      "▁shel": 5200,
      "ishment": 5201,
      "▁reve": 5202,
      "▁otro": 5203,
      "▁settled": 5204,
      "▁witness": 5205,
      "▁solemn": 5206,
      "▁Bra": 5207,
      "▁suggest": 5208,
      "▁worthy": 5209,
      "▁dangerous": 5210,
      "▁eld": 5211,
      "▁Several": 5212,
      "▁gathered": 5213,
      "▁concl": 5214,
      "▁190": 5215,
      "▁Wal": 5216,
      "▁print": 5217,
      "▁eyes.": 5218,
      "▁Bes": 5219,
      "▁authority": 5220,
      "ially": 5221,
      "▁Southern": 5222,
      "▁Father": 5223,
      "▁38": 5224,
      "rence": 5225,
      "▁white,": 5226,
      "▁national": 5227,
      "ter.": 5228,
      "▁block": 5229,
      "ault": 5230,
      "ula": 5231,
      "▁evidence": 5232,
      "-a": 5233,
      "▁advanced": 5234,
      "▁cos": 5235,
      "▁lose": 5236,
      "ín": 5237,
      "igo": 5238,
      "ide.": 5239,
      "▁looks": 5240,
      "▁God,": 5241,
      "▁pound": 5242,
      "▁tax": 5243,
      "▁hide": 5244,
      "adas": 5245,
      "▁brill": 5246,
      "▁also,": 5247,
      "is_": 5248,
      "▁nom": 5249,
      "▁Sam": 5250,
      "▁Mac": 5251,
      "▁Grand": 5252,
      "▁entrance": 5253,
      "▁summ": 5254,
      "▁length,": 5255,
      "▁Philip": 5256,
      "▁Never": 5257,
      "ival": 5258,
      "▁Oh,": 5259,
      "▁complet": 5260,
      "▁instinct": 5261,
      "▁quien": 5262,
      "▁lu": 5263,
      "▁yester": 5264,
      "▁chur": 5265,
      "▁suffered": 5266,
      "▁air,": 5267,
      "▁cheek": 5268,
      "▁Paul": 5269,
      "phe": 5270,
      "▁bend": 5271,
      "▁phys": 5272,
      "▁manufact": 5273,
      "▁om": 5274,
      "iest": 5275,
      "▁centre": 5276,
      "▁bree": 5277,
      "▁mand": 5278,
      "ís": 5279,
      "▁march": 5280,
      "▁personal": 5281,
      "tering": 5282,
      "▁sorry": 5283,
      "▁2,": 5284,
      "▁Portug": 5285,
      "ina,": 5286,
      "▁Jove": 5287,
      "▁noticed": 5288,
      "▁Rev": 5289,
      "▁store": 5290,
      "▁regarded": 5291,
      "itch": 5292,
      "iforn": 5293,
      "▁directed": 5294,
      "▁possessed": 5295,
      "▁language": 5296,
      "▁50": 5297,
      "▁times,": 5298,
      "▁magnific": 5299,
      "▁TH": 5300,
      "▁expression": 5301,
      "▁taught": 5302,
      "ier,": 5303,
      "▁uns": 5304,
      "▁chair": 5305,
      "▁extraordinary": 5306,
      "UT": 5307,
      "▁donde": 5308,
      "▁naturally": 5309,
      "▁qued": 5310,
      "IST": 5311,
      "▁occurred": 5312,
      "which": 5313,
      "▁wret": 5314,
      "▁pill": 5315,
      "ulated": 5316,
      "▁unable": 5317,
      "▁drove": 5318,
      "▁alone,": 5319,
      "▁State": 5320,
      "▁kinds": 5321,
      "▁occasionally": 5322,
      "▁eastern": 5323,
      "▁pos": 5324,
      "▁spo": 5325,
      "▁tears": 5326,
      "ador": 5327,
      "▁Bay": 5328,
      "▁Dor": 5329,
      "▁ol": 5330,
      "▁tum": 5331,
      "rub": 5332,
      "asant": 5333,
      "▁current": 5334,
      "a's": 5335,
      "off": 5336,
      "s._": 5337,
      "▁fer": 5338,
      "▁painted": 5339,
      "itation": 5340,
      "▁commer": 5341,
      "▁dinner": 5342,
      "▁enorm": 5343,
      "III.": 5344,
      "▁Cab": 5345,
      "▁handsome": 5346,
      "nal": 5347,
      "▁Bel": 5348,
      "unn": 5349,
      "▁steep": 5350,
      "ai": 5351,
      "▁horse,": 5352,
      "▁leading": 5353,
      "aches": 5354,
      "▁Cap": 5355,
      "▁entertain": 5356,
      "▁pad": 5357,
      "▁unfortun": 5358,
      "▁visited": 5359,
      "▁feet.": 5360,
      "▁capit": 5361,
      "▁President": 5362,
      "▁Well,": 5363,
      "▁F.": 5364,
      "▁fierce": 5365,
      "embered": 5366,
      "-E": 5367,
      "▁you.\"": 5368,
      "ancing": 5369,
      "▁hacer": 5370,
      "▁Ir": 5371,
      "▁plains": 5372,
      "▁Smith": 5373,
      "▁gift": 5374,
      "▁Arch": 5375,
      "▁Dut": 5376,
      "▁interv": 5377,
      "▁affection": 5378,
      "▁pon": 5379,
      "▁midst": 5380,
      "illed": 5381,
      "▁corner": 5382,
      "▁Then,": 5383,
      "▁'A": 5384,
      "othing": 5385,
      "ches,": 5386,
      "▁scene": 5387,
      "▁judg": 5388,
      "fall": 5389,
      "▁partly": 5390,
      "est.": 5391,
      "▁arrow": 5392,
      "▁teach": 5393,
      "▁sie": 5394,
      "▁death,": 5395,
      "▁pig": 5396,
      "zo": 5397,
      "▁m.": 5398,
      "are,": 5399,
      "▁abundant": 5400,
      "▁Set": 5401,
      "acific": 5402,
      "eping": 5403,
      "▁mother,": 5404,
      "▁llev": 5405,
      "po": 5406,
      "▁ah": 5407,
      "▁gather": 5408,
      "▁kiss": 5409,
      "▁assured": 5410,
      "▁king's": 5411,
      "i_": 5412,
      "▁persu": 5413,
      "▁gradually": 5414,
      "▁Febru": 5415,
      "▁domin": 5416,
      "acious": 5417,
      "▁Bill": 5418,
      "uten": 5419,
      "▁Conf": 5420,
      "▁pp.": 5421,
      "▁specimen": 5422,
      "▁surrounded": 5423,
      "g,": 5424,
      "▁Sand": 5425,
      "▁consequence": 5426,
      "▁over,": 5427,
      "▁throw": 5428,
      "▁situation": 5429,
      "--w": 5430,
      "▁_N": 5431,
      "▁phil": 5432,
      "rim": 5433,
      "▁mamm": 5434,
      "▁back.": 5435,
      "isher": 5436,
      "-five": 5437,
      "▁putting": 5438,
      "▁town,": 5439,
      "▁Though": 5440,
      "▁confess": 5441,
      "▁arrang": 5442,
      "▁luck": 5443,
      "chan": 5444,
      "▁Good": 5445,
      "irds": 5446,
      "▁Brown": 5447,
      "▁showing": 5448,
      "▁bearing": 5449,
      "▁violent": 5450,
      "▁ourselves": 5451,
      "▁leap": 5452,
      "▁conditions": 5453,
      "UM": 5454,
      "▁agreed": 5455,
      "▁animals,": 5456,
      "cer": 5457,
      "▁protection": 5458,
      "▁hosp": 5459,
      "▁Men": 5460,
      "▁otra": 5461,
      "haps,": 5462,
      "▁daily": 5463,
      "▁everywhere": 5464,
      "▁people.": 5465,
      "▁Jer": 5466,
      "▁published": 5467,
      "▁dise": 5468,
      "▁bones": 5469,
      "--s": 5470,
      "▁surround": 5471,
      "ié": 5472,
      "▁tiemp": 5473,
      "▁Jac": 5474,
      "▁iv": 5475,
      "▁page": 5476,
      "▁worship": 5477,
      "▁está": 5478,
      "▁assembl": 5479,
      "▁admin": 5480,
      "▁member": 5481,
      "▁false": 5482,
      "▁Land": 5483,
      "ealand": 5484,
      "amed": 5485,
      "▁salt": 5486,
      "ushing": 5487,
      "b.": 5488,
      "▁talking": 5489,
      "▁esto": 5490,
      "▁themselves,": 5491,
      "▁flying": 5492,
      "itable": 5493,
      "ooking": 5494,
      "▁wounded": 5495,
      "▁remembered": 5496,
      "▁heat": 5497,
      "▁timber": 5498,
      "ette": 5499,
      "▁cord": 5500,
      "▁do.": 5501,
      "▁defend": 5502,
      "▁shows": 5503,
      "▁nose": 5504,
      "▁treated": 5505,
      "ions.": 5506,
      "▁immediate": 5507,
      "el.": 5508,
      "▁house.": 5509,
      "▁feathers": 5510,
      "▁composed": 5511,
      "how": 5512,
      "▁Acc": 5513,
      "▁earl": 5514,
      "▁Prof": 5515,
      "ILL": 5516,
      "▁Soci": 5517,
      "▁steps": 5518,
      "▁habl": 5519,
      "▁heart,": 5520,
      "▁muj": 5521,
      "▁Er": 5522,
      "▁chest": 5523,
      "▁slave": 5524,
      "▁merchant": 5525,
      "▁Wind": 5526,
      "▁name,": 5527,
      "ain.": 5528,
      "▁plenty": 5529,
      "▁afternoon": 5530,
      "standing": 5531,
      "▁correct": 5532,
      "▁Stre": 5533,
      "▁books": 5534,
      "▁ago": 5535,
      "▁However": 5536,
      "▁citiz": 5537,
      "▁working": 5538,
      "▁you're": 5539,
      "▁sovere": 5540,
      "▁arrival": 5541,
      "▁singular": 5542,
      "▁closed": 5543,
      "l.": 5544,
      "▁6.": 5545,
      "▁ham": 5546,
      "▁Res": 5547,
      "▁text": 5548,
      "▁dropped": 5549,
      "10": 5550,
      "ur,": 5551,
      "▁otherwise": 5552,
      "▁fleet": 5553,
      "▁words,": 5554,
      "▁dans": 5555,
      "▁please": 5556,
      "▁stir": 5557,
      "quis": 5558,
      "▁ener": 5559,
      "ée": 5560,
      "▁good,": 5561,
      "oop": 5562,
      "pected": 5563,
      "▁once,": 5564,
      "▁address": 5565,
      "▁increased": 5566,
      "▁done,": 5567,
      "▁whilst": 5568,
      "▁Win": 5569,
      "kin": 5570,
      "u,": 5571,
      "▁sons": 5572,
      "▁Mil": 5573,
      "▁information": 5574,
      "▁tree,": 5575,
      "ATION": 5576,
      "bon": 5577,
      "▁obey": 5578,
      "▁will,": 5579,
      "raw": 5580,
      "▁hence": 5581,
      "▁\"R": 5582,
      "▁(the": 5583,
      "▁earth,": 5584,
      "▁\"Wh": 5585,
      "▁rule": 5586,
      "▁wet": 5587,
      "▁Majesty": 5588,
      "▁associ": 5589,
      "▁\"_": 5590,
      "▁ju": 5591,
      "▁Zealand": 5592,
      "▁dece": 5593,
      "▁Ver": 5594,
      "▁195": 5595,
      "▁+": 5596,
      "▁pred": 5597,
      "▁doct": 5598,
      "▁of.": 5599,
      "hus": 5600,
      "▁y,": 5601,
      "isters": 5602,
      "▁Emp": 5603,
      ":--": 5604,
      "▁more.": 5605,
      "▁breeding": 5606,
      "ve,": 5607,
      "▁plants": 5608,
      "iness,": 5609,
      "▁weeks": 5610,
      "AG": 5611,
      "▁\"s": 5612,
      "▁£": 5613,
      "▁Had": 5614,
      "▁attent": 5615,
      "▁pil": 5616,
      "▁root": 5617,
      "▁Luc": 5618,
      "-col": 5619,
      "ram": 5620,
      "▁nie": 5621,
      "▁moder": 5622,
      "▁circumstances": 5623,
      "▁_m": 5624,
      "▁univers": 5625,
      "▁pier": 5626,
      "terior": 5627,
      "▁rom": 5628,
      "▁Const": 5629,
      "▁wol": 5630,
      "▁amid": 5631,
      "</hw>": 5632,
      "▁represented": 5633,
      "▁<hw>": 5634,
      "▁tent": 5635,
      "▁loft": 5636,
      "e}": 5637,
      "k.": 5638,
      "▁worked": 5639,
      "▁qu'": 5640,
      "▁Madame": 5641,
      "ius,": 5642,
      "▁knock": 5643,
      "{e}": 5644,
      "▁fortune": 5645,
      "ution,": 5646,
      "▁moment,": 5647,
      "house": 5648,
      "otes": 5649,
      "▁wealth": 5650,
      "v.": 5651,
      "enced": 5652,
      "▁mach": 5653,
      "▁applied": 5654,
      "▁Austri": 5655,
      "▁Ben": 5656,
      "▁Jim": 5657,
      ",000": 5658,
      "ipe": 5659,
      "▁mit": 5660,
      "▁hombre": 5661,
      "▁major": 5662,
      "▁(2": 5663,
      "▁expressed": 5664,
      "▁careful": 5665,
      "▁produc": 5666,
      "▁short,": 5667,
      "[2": 5668,
      "▁so.": 5669,
      "E,": 5670,
      "cas": 5671,
      "▁Pol": 5672,
      "▁ric": 5673,
      "▁worse": 5674,
      "ist,": 5675,
      "▁spect": 5676,
      "▁father's": 5677,
      "▁listen": 5678,
      "▁series": 5679,
      "iese": 5680,
      "aud": 5681,
      "ates.": 5682,
      "▁recon": 5683,
      "▁Spani": 5684,
      "▁Flore": 5685,
      "▁nearer": 5686,
      "▁poison": 5687,
      "incoln": 5688,
      "▁IV": 5689,
      "▁removed": 5690,
      "ding": 5691,
      "▁hes": 5692,
      "▁lake": 5693,
      "▁Having": 5694,
      "▁Reg": 5695,
      "▁walking": 5696,
      "▁species.": 5697,
      "rend": 5698,
      "▁city,": 5699,
      "▁troop": 5700,
      "▁begun": 5701,
      "▁fold": 5702,
      "ima": 5703,
      "▁100": 5704,
      "▁surprised": 5705,
      "▁rendered": 5706,
      "▁dare": 5707,
      "▁zu": 5708,
      "▁sky": 5709,
      "▁arms,": 5710,
      "▁watching": 5711,
      "▁coat": 5712,
      "ua": 5713,
      "▁to,": 5714,
      "▁stern": 5715,
      "▁thee,": 5716,
      "teenth": 5717,
      "ano": 5718,
      "▁family,": 5719,
      "▁dir": 5720,
      "▁Troj": 5721,
      "▁age,": 5722,
      "▁friend,": 5723,
      "▁honor": 5724,
      "▁Californ": 5725,
      "ing,\"": 5726,
      "▁palace": 5727,
      "▁desper": 5728,
      "▁figures": 5729,
      "nowled": 5730,
      "fect": 5731,
      "▁shook": 5732,
      "herd": 5733,
      "▁separate": 5734,
      "▁neighbourhood": 5735,
      "jos": 5736,
      "rown": 5737,
      "▁appointed": 5738,
      "AY": 5739,
      "▁servant": 5740,
      "▁he's": 5741,
      "▁elect": 5742,
      "▁calm": 5743,
      "▁non": 5744,
      "▁ax": 5745,
      "▁loose": 5746,
      "▁Far": 5747,
      "stone": 5748,
      "▁Sy": 5749,
      "ids": 5750,
      "▁directly": 5751,
      "▁served": 5752,
      "pent": 5753,
      "▁High": 5754,
      "▁smile": 5755,
      "ishes": 5756,
      "▁Ang": 5757,
      "▁\"w": 5758,
      "usc": 5759,
      "▁outer": 5760,
      "▁insects": 5761,
      "40": 5762,
      "▁chamber": 5763,
      "▁_O": 5764,
      "▁manif": 5765,
      "▁perhaps,": 5766,
      "irrel": 5767,
      "ola": 5768,
      "▁lack": 5769,
      "ustomed": 5770,
      "sue": 5771,
      "▁reck": 5772,
      "▁þ": 5773,
      "▁asleep": 5774,
      "▁dull": 5775,
      "▁work.": 5776,
      "▁sex": 5777,
      "▁alarm": 5778,
      "▁previous": 5779,
      "▁assert": 5780,
      "▁gloom": 5781,
      "uestra": 5782,
      "ién": 5783,
      "▁Santa": 5784,
      "▁aim": 5785,
      "▁Bob": 5786,
      "▁fate": 5787,
      "▁disposition": 5788,
      "____": 5789,
      "▁me;": 5790,
      "▁honest": 5791,
      "ented": 5792,
      "▁spl": 5793,
      "▁wife,": 5794,
      "▁disappoint": 5795,
      "▁\"t": 5796,
      "▁shadow": 5797,
      "▁require": 5798,
      "</hw>,": 5799,
      "▁or,": 5800,
      "▁aud": 5801,
      "▁fow": 5802,
      "ly;": 5803,
      "▁depth": 5804,
      "▁fert": 5805,
      "▁Lincoln": 5806,
      "▁falling": 5807,
      "iring": 5808,
      "▁Among": 5809,
      "▁owing": 5810,
      "ied.": 5811,
      "sy": 5812,
      "▁inch": 5813,
      "red,": 5814,
      "▁scattered": 5815,
      "▁bait": 5816,
      "▁fought": 5817,
      "▁Mid": 5818,
      "▁Lake": 5819,
      "ition,": 5820,
      "▁Uncle": 5821,
      "▁suspic": 5822,
      "asons": 5823,
      "▁Tra": 5824,
      "▁render": 5825,
      "▁absolutely": 5826,
      "▁instr": 5827,
      "▁importance": 5828,
      "astic": 5829,
      "▁Mic": 5830,
      "▁Mars": 5831,
      "▁alive": 5832,
      "▁39": 5833,
      "▁defe": 5834,
      "▁withd": 5835,
      "▁rif": 5836,
      "▁emer": 5837,
      "▁Saint": 5838,
      "ification": 5839,
      "▁\"They": 5840,
      "▁cous": 5841,
      "-2": 5842,
      "haust": 5843,
      "lla": 5844,
      "▁part,": 5845,
      "▁contro": 5846,
      "▁noise": 5847,
      "▁constant": 5848,
      "▁years.": 5849,
      "▁Which": 5850,
      "▁grief": 5851,
      "▁bon": 5852,
      "▁seat": 5853,
      "▁T.": 5854,
      "▁kit": 5855,
      "▁Under": 5856,
      "▁bodies": 5857,
      "▁Northern": 5858,
      "▁freedom": 5859,
      "▁promise": 5860,
      "▁G.": 5861,
      "▁Os": 5862,
      "▁off.": 5863,
      "▁continue": 5864,
      "▁high,": 5865,
      "▁Mo": 5866,
      "▁rad": 5867,
      "▁spend": 5868,
      "▁likewise": 5869,
      "▁margin": 5870,
      "▁possibly": 5871,
      "▁silence": 5872,
      "▁fairly": 5873,
      "▁_Wlk": 5874,
      "▁birth": 5875,
      "unch": 5876,
      "▁valuable": 5877,
      "▁inferior": 5878,
      "▁dressed": 5879,
      "▁decir": 5880,
      "▁aquella": 5881,
      "▁office": 5882,
      "▁rapidly": 5883,
      "vin": 5884,
      "▁Lo": 5885,
      "▁horiz": 5886,
      "▁anch": 5887,
      "▁regret": 5888,
      "▁me.\"": 5889,
      "▁Each": 5890,
      "▁sino": 5891,
      "osen": 5892,
      "▁Isab": 5893,
      "▁patient": 5894,
      "encia": 5895,
      "father": 5896,
      "▁that.": 5897,
      "▁Thr": 5898,
      "▁Mc": 5899,
      "ANT": 5900,
      "▁movement": 5901,
      "▁touched": 5902,
      "dijo": 5903,
      "▁manner,": 5904,
      "IM": 5905,
      "▁islands": 5906,
      "▁sympath": 5907,
      "iments": 5908,
      "▁Scro": 5909,
      "▁mission": 5910,
      "▁wasn't": 5911,
      "▁true,": 5912,
      "▁hurt": 5913,
      "▁Paris,": 5914,
      "s'": 5915,
      "▁bent": 5916,
      "▁feast": 5917,
      "▁drawing": 5918,
      "oso": 5919,
      "▁swim": 5920,
      "▁lovely": 5921,
      "▁dic": 5922,
      "ulous": 5923,
      "▁proposed": 5924,
      "--_": 5925,
      "▁hearing": 5926,
      "▁hone": 5927,
      "▁it,\"": 5928,
      "--T": 5929,
      "▁lean": 5930,
      "▁Lady": 5931,
      "▁bed,": 5932,
      "▁speaking": 5933,
      "▁nests": 5934,
      "▁formerly": 5935,
      "▁religious": 5936,
      "▁Him": 5937,
      "▁flag": 5938,
      "▁collected": 5939,
      "▁fix": 5940,
      "▁black,": 5941,
      "▁map": 5942,
      "▁rene": 5943,
      "▁liked": 5944,
      "▁SE": 5945,
      "▁sufficiently": 5946,
      "▁twice": 5947,
      "▁destruction": 5948,
      "acc": 5949,
      "ney": 5950,
      "▁constantly": 5951,
      "▁Che": 5952,
      "▁experien": 5953,
      "▁pounds": 5954,
      "omin": 5955,
      "umer": 5956,
      "▁hunters": 5957,
      "▁sem": 5958,
      "▁now.": 5959,
      "re.": 5960,
      "ulgar": 5961,
      "▁attended": 5962,
      "▁faithful": 5963,
      "▁ice": 5964,
      "▁soil": 5965,
      "▁Rock": 5966,
      "▁neighbor": 5967,
      "-be": 5968,
      "▁vist": 5969,
      "▁friends,": 5970,
      "▁steam": 5971,
      "▁wore": 5972,
      "▁depos": 5973,
      "▁stead": 5974,
      "▁memory": 5975,
      "▁judge": 5976,
      "mir": 5977,
      "▁powers": 5978,
      "▁\"'": 5979,
      "▁wholly": 5980,
      "▁willing": 5981,
      "▁indign": 5982,
      "ation;": 5983,
      "▁behold": 5984,
      "ta": 5985,
      "▁uniform": 5986,
      "▁intention": 5987,
      "▁thoughts": 5988,
      "iance": 5989,
      "▁dozen": 5990,
      "iction": 5991,
      "▁efforts": 5992,
      "-he": 5993,
      "happ": 5994,
      "▁oce": 5995,
      "▁hal": 5996,
      "empl": 5997,
      "▁enemies": 5998,
      "▁advance": 5999,
      "▁case,": 6000,
      "▁connected": 6001,
      "▁seen,": 6002,
      "▁exposed": 6003,
      "vant": 6004,
      "riot": 6005,
      "▁skull": 6006,
      "▁sixty": 6007,
      "uit": 6008,
      "▁7.": 6009,
      "▁fet": 6010,
      "▁viv": 6011,
      "▁exchan": 6012,
      "▁shield": 6013,
      "cks": 6014,
      "▁sport": 6015,
      "▁:": 6016,
      "▁evening,": 6017,
      "▁philos": 6018,
      "▁au": 6019,
      "▁\"Do": 6020,
      "▁increase": 6021,
      "▁WH": 6022,
      "▁(S": 6023,
      "▁explain": 6024,
      "........": 6025,
      "▁row": 6026,
      "▁moving": 6027,
      "-,": 6028,
      "ERS": 6029,
      "omed": 6030,
      "▁central": 6031,
      "▁capable": 6032,
      "▁cere": 6033,
      "▁subm": 6034,
      "-morrow": 6035,
      "ne,": 6036,
      "▁usted": 6037,
      "▁raise": 6038,
      "ved,": 6039,
      "▁Ber": 6040,
      "▁go,": 6041,
      "▁you'll": 6042,
      "▁down.": 6043,
      "▁interrupt": 6044,
      "▁when,": 6045,
      "▁brief": 6046,
      "▁confidence": 6047,
      "iel": 6048,
      "▁one's": 6049,
      "▁guess": 6050,
      "▁speech": 6051,
      "▁victim": 6052,
      "▁gentlemen": 6053,
      "▁saying,": 6054,
      "ris": 6055,
      "▁crew": 6056,
      "▁readily": 6057,
      "-3": 6058,
      "▁bringing": 6059,
      "▁pan": 6060,
      "ass.": 6061,
      "itor": 6062,
      "▁gods": 6063,
      "long": 6064,
      "▁tea": 6065,
      "▁there's": 6066,
      "▁setting": 6067,
      "ground": 6068,
      "▁commanded": 6069,
      "▁striking": 6070,
      "ens,": 6071,
      "iller": 6072,
      "▁weap": 6073,
      "▁tenía": 6074,
      "▁breakfast": 6075,
      "io.": 6076,
      "▁II": 6077,
      "▁_s": 6078,
      "▁reduced": 6079,
      "▁friendly": 6080,
      "▁sacred": 6081,
      "▁Sax": 6082,
      "▁strongly": 6083,
      "▁Virgin": 6084,
      "▁hunter": 6085,
      "▁active": 6086,
      "▁ped": 6087,
      "imp": 6088,
      "ie.": 6089,
      "▁recomm": 6090,
      "▁writing": 6091,
      "▁sovereign": 6092,
      "itect": 6093,
      "▁41": 6094,
      "▁approached": 6095,
      "▁buy": 6096,
      "▁earnest": 6097,
      "▁busy": 6098,
      "▁improve": 6099,
      "-M": 6100,
      "▁nur": 6101,
      "ivered": 6102,
      "▁42": 6103,
      "▁stones": 6104,
      "▁Norm": 6105,
      "ire.": 6106,
      "▁Bonaparte": 6107,
      "rill": 6108,
      "▁relations": 6109,
      "▁voice,": 6110,
      "▁merc": 6111,
      "▁come,": 6112,
      "▁relief": 6113,
      "chill": 6114,
      "ability": 6115,
      "D.": 6116,
      "ison,": 6117,
      "▁Pap": 6118,
      "▁strict": 6119,
      "▁sooner": 6120,
      "▁rat": 6121,
      "▁Sus": 6122,
      "▁falls": 6123,
      "hr": 6124,
      "▁\"This": 6125,
      "▁light,": 6126,
      "▁encamp": 6127,
      "▁sust": 6128,
      "▁45": 6129,
      "▁largest": 6130,
      "▁itself,": 6131,
      "▁brother,": 6132,
      "▁street": 6133,
      "▁moral": 6134,
      "▁resp": 6135,
      "▁drop": 6136,
      "▁played": 6137,
      "▁libert": 6138,
      "▁[3": 6139,
      "▁larva": 6140,
      "▁property": 6141,
      "▁existence": 6142,
      "icip": 6143,
      "▁aspect": 6144,
      "▁(C": 6145,
      "▁creatures": 6146,
      "▁hopes": 6147,
      "▁\"In": 6148,
      "▁scen": 6149,
      "olic": 6150,
      "▁well-": 6151,
      "▁description": 6152,
      "▁well.": 6153,
      "▁dich": 6154,
      "▁rust": 6155,
      "▁justice": 6156,
      "-T": 6157,
      "▁aunt": 6158,
      "▁century": 6159,
      "▁roll": 6160,
      "▁India": 6161,
      "▁Cent": 6162,
      "a_,": 6163,
      "▁silent": 6164,
      "then": 6165,
      "ards,": 6166,
      "▁belonging": 6167,
      "ined,": 6168,
      "ver,": 6169,
      "ño": 6170,
      "cles": 6171,
      "▁contained": 6172,
      "omen": 6173,
      "▁Val": 6174,
      "▁guide": 6175,
      "ecause": 6176,
      "▁prompt": 6177,
      "▁gate": 6178,
      "▁/": 6179,
      "▁not.": 6180,
      "========": 6181,
      "ye": 6182,
      "▁horses,": 6183,
      "ades": 6184,
      "▁vir": 6185,
      "▁kitchen": 6186,
      "etr": 6187,
      "▁Lew": 6188,
      "▁rushed": 6189,
      "EST": 6190,
      "-A": 6191,
      "▁fra": 6192,
      "▁Arg": 6193,
      "▁England.": 6194,
      "tre": 6195,
      "▁together.": 6196,
      "▁Eliz": 6197,
      "lyss": 6198,
      "▁[Cl": 6199,
      "/4": 6200,
      "▁sym": 6201,
      "▁sake": 6202,
      "▁Cur": 6203,
      "▁ladies": 6204,
      "▁tub": 6205,
      "▁procl": 6206,
      "▁lands": 6207,
      "▁minister": 6208,
      "lar": 6209,
      "▁ib": 6210,
      "▁fourth": 6211,
      "▁matters": 6212,
      "▁situated": 6213,
      "withstanding": 6214,
      "▁fields": 6215,
      "▁fighting": 6216,
      "acle": 6217,
      "▁Three": 6218,
      "▁[M": 6219,
      "▁to-day": 6220,
      "▁glory": 6221,
      "▁made,": 6222,
      "▁conversation": 6223,
      "▁\"She": 6224,
      "▁stair": 6225,
      "▁floor": 6226,
      "-G": 6227,
      "▁incident": 6228,
      "▁However,": 6229,
      "▁(F": 6230,
      "▁poco": 6231,
      "▁Prot": 6232,
      "▁task": 6233,
      "agues": 6234,
      "elle": 6235,
      "▁pulled": 6236,
      "▁[Clark,": 6237,
      "ibility": 6238,
      "▁truly": 6239,
      "cknowled": 6240,
      "▁possible,": 6241,
      "▁ident": 6242,
      "▁example": 6243,
      "▁gained": 6244,
      "▁state,": 6245,
      "▁angry": 6246,
      "▁hol": 6247,
      "▁accustomed": 6248,
      "▁calling": 6249,
      "▁commonly": 6250,
      "ér": 6251,
      "▁Cath": 6252,
      "uments": 6253,
      "▁duke": 6254,
      "▁Sunday": 6255,
      "ouri": 6256,
      "▁Cong": 6257,
      "▁Like": 6258,
      "▁'H": 6259,
      "▁myself,": 6260,
      "▁RE": 6261,
      "▁river.": 6262,
      "▁von": 6263,
      "▁emper": 6264,
      "▁crit": 6265,
      "▁exhaust": 6266,
      "▁disappeared": 6267,
      "▁gain": 6268,
      "▁Bet": 6269,
      "▁telling": 6270,
      "▁clearly": 6271,
      "ino,": 6272,
      "ata,": 6273,
      "▁transl": 6274,
      "▁sang": 6275,
      "é,": 6276,
      "▁_p": 6277,
      "▁castle": 6278,
      "▁spoken": 6279,
      "▁hut": 6280,
      "▁escaped": 6281,
      "▁bears": 6282,
      "▁buried": 6283,
      "▁daugh": 6284,
      "aux": 6285,
      "ona": 6286,
      "-r": 6287,
      "day,": 6288,
      "▁43": 6289,
      "▁boy,": 6290,
      "▁thought,": 6291,
      "▁curios": 6292,
      "▁yesterday": 6293,
      "umin": 6294,
      "▁load": 6295,
      "▁\"Then": 6296,
      "ois": 6297,
      "▁Dios": 6298,
      "▁princes": 6299,
      "▁excited": 6300,
      "OP": 6301,
      "▁hoped": 6302,
      "lic": 6303,
      "▁old,": 6304,
      "▁acknowled": 6305,
      "▁Gra": 6306,
      "ción": 6307,
      "▁enormous": 6308,
      "atch": 6309,
      "▁instance,": 6310,
      "▁surprise": 6311,
      "▁saved": 6312,
      "▁Both": 6313,
      "ourse": 6314,
      "▁Ob": 6315,
      "▁rod": 6316,
      "▁flour": 6317,
      "▁doesn't": 6318,
      "-P": 6319,
      "pe,": 6320,
      "rey": 6321,
      "ama": 6322,
      "▁prospect": 6323,
      "▁fil": 6324,
      "▁Other": 6325,
      "▁counten": 6326,
      "▁extended": 6327,
      "▁savage": 6328,
      "--M": 6329,
      "elic": 6330,
      "▁province": 6331,
      "',": 6332,
      "▁shed": 6333,
      "ructed": 6334,
      "▁varieties": 6335,
      "omer": 6336,
      "▁recoll": 6337,
      "▁here.": 6338,
      "▁aunque": 6339,
      "▁dreadful": 6340,
      "▁Jud": 6341,
      "▁worn": 6342,
      "▁murm": 6343,
      "▁sea.": 6344,
      "▁And,": 6345,
      "ges,": 6346,
      "▁about,": 6347,
      "Qué": 6348,
      "iana": 6349,
      "▁hurried": 6350,
      "ological": 6351,
      "pherd": 6352,
      "held": 6353,
      "▁bul": 6354,
      "▁Creek": 6355,
      "▁encl": 6356,
      "▁Hall": 6357,
      "▁os": 6358,
      "▁dur": 6359,
      "▁Inde": 6360,
      "▁necessity": 6361,
      "▁January": 6362,
      ";\"": 6363,
      "nut": 6364,
      "▁Heav": 6365,
      "▁torn": 6366,
      "▁aro": 6367,
      "▁thence": 6368,
      "▁Ten": 6369,
      "▁landed": 6370,
      "▁<i>n": 6371,
      "▁doctor": 6372,
      "▁thousands": 6373,
      "nto": 6374,
      "▁woman,": 6375,
      "▁\"J": 6376,
      "▁Step": 6377,
      "▁mounted": 6378,
      "▁sailed": 6379,
      "▁pron": 6380,
      "▁purchas": 6381,
      "hend": 6382,
      "▁friendship": 6383,
      "▁_Wlk_.": 6384,
      "oms": 6385,
      "cience": 6386,
      "▁Frank": 6387,
      "host": 6388,
      "▁seed": 6389,
      "▁belief": 6390,
      "▁dil": 6391,
      "▁pues": 6392,
      "▁end,": 6393,
      "▁food,": 6394,
      "atively": 6395,
      "ealous": 6396,
      "▁waited": 6397,
      "▁retired": 6398,
      "▁enterpr": 6399,
      "▁absence": 6400,
      "▁cotton": 6401,
      "▁tiene": 6402,
      "▁Sil": 6403,
      "▁Sol": 6404,
      "▁Part": 6405,
      "▁quer": 6406,
      "▁column": 6407,
      "▁others.": 6408,
      "-house": 6409,
      "IA": 6410,
      "ga": 6411,
      "▁Vill": 6412,
      "▁visible": 6413,
      "▁Perhaps": 6414,
      "▁terms": 6415,
      "▁fired": 6416,
      "iere": 6417,
      "car": 6418,
      "brid": 6419,
      "▁remaining": 6420,
      "▁dors": 6421,
      "▁enthus": 6422,
      "▁sprang": 6423,
      "▁concerning": 6424,
      "▁utmost": 6425,
      "son,": 6426,
      "▁gle": 6427,
      "▁Richard": 6428,
      "b,": 6429,
      "▁Ulyss": 6430,
      "▁interior": 6431,
      "ela": 6432,
      "▁solid": 6433,
      "-y": 6434,
      "▁containing": 6435,
      "▁Thomas": 6436,
      "ker": 6437,
      "▁ber": 6438,
      "▁Cy": 6439,
      "▁obsc": 6440,
      "▁wood,": 6441,
      "▁exception": 6442,
      "▁_d": 6443,
      "▁'N": 6444,
      "▁quit": 6445,
      "▁School": 6446,
      "▁unhapp": 6447,
      "izing": 6448,
      "▁despair": 6449,
      "ST": 6450,
      "▁Coun": 6451,
      "▁así": 6452,
      "▁Pacific": 6453,
      "▁fuer": 6454,
      "bro": 6455,
      "▁ways": 6456,
      "▁morning.": 6457,
      "▁face.": 6458,
      "▁you?\"": 6459,
      "▁reward": 6460,
      "otion": 6461,
      "▁etc.,": 6462,
      "▁successful": 6463,
      "utes": 6464,
      "eter": 6465,
      "▁observe": 6466,
      "▁style": 6467,
      "▁Dutch": 6468,
      "▁Pero": 6469,
      "▁liberty": 6470,
      "▁II.": 6471,
      "▁Fore": 6472,
      "led,": 6473,
      "illing": 6474,
      "▁nature,": 6475,
      "▁devoted": 6476,
      "elf": 6477,
      "▁Your": 6478,
      "-room": 6479,
      "ak,": 6480,
      "▁decor": 6481,
      "▁death.": 6482,
      "▁Inst": 6483,
      "▁hidden": 6484,
      "▁lux": 6485,
      "▁coff": 6486,
      "▁hesit": 6487,
      "▁Act": 6488,
      "▁articles": 6489,
      "hing,": 6490,
      "-tre": 6491,
      "▁(*": 6492,
      "overy": 6493,
      "ashed": 6494,
      "▁returning": 6495,
      "--C": 6496,
      "▁vessels": 6497,
      "▁Corn": 6498,
      "▁meaning": 6499,
      "imo": 6500,
      "▁manage": 6501,
      "▁instit": 6502,
      "▁introduced": 6503,
      "▁Tre": 6504,
      "aunt": 6505,
      "▁power,": 6506,
      "▁forming": 6507,
      "iting": 6508,
      "▁nobody": 6509,
      "▁feeding": 6510,
      "▁Wor": 6511,
      "▁convent": 6512,
      "▁Earl": 6513,
      "▁above,": 6514,
      "▁deg.": 6515,
      "▁market": 6516,
      "▁engage": 6517,
      "gend": 6518,
      "icks": 6519,
      "▁stands": 6520,
      "▁architect": 6521,
      "▁fashion": 6522,
      "▁Side": 6523,
      "▁becoming": 6524,
      "▁sell": 6525,
      "▁mej": 6526,
      "▁signs": 6527,
      "-se": 6528,
      "alog": 6529,
      "utions": 6530,
      "-four": 6531,
      "▁killing": 6532,
      "▁volunt": 6533,
      "▁came,": 6534,
      "ente": 6535,
      "▁Els": 6536,
      "▁bat": 6537,
      "▁pine": 6538,
      "▁sole": 6539,
      "▁warri": 6540,
      "▁awful": 6541,
      "▁satisfied": 6542,
      "ido,": 6543,
      "▁lic": 6544,
      "ifull": 6545,
      "▁think,": 6546,
      "or's": 6547,
      "erte": 6548,
      "▁respond": 6549,
      "ray": 6550,
      "▁wire": 6551,
      "▁reported": 6552,
      "▁small,": 6553,
      "▁relie": 6554,
      "▁passion": 6555,
      "▁tempt": 6556,
      "▁blank": 6557,
      "▁joint": 6558,
      "▁burning": 6559,
      "▁Fa": 6560,
      "▁Although": 6561,
      "uth,": 6562,
      "▁forces": 6563,
      "▁thoroughly": 6564,
      "▁sink": 6565,
      "▁179": 6566,
      "▁size,": 6567,
      "▁bought": 6568,
      "inging": 6569,
      "▁population": 6570,
      "▁London,": 6571,
      "a:": 6572,
      "inction": 6573,
      "▁hij": 6574,
      "▁structure": 6575,
      "ili": 6576,
      "▁properly": 6577,
      "▁Nature": 6578,
      "▁these,": 6579,
      "▁trail": 6580,
      "uese": 6581,
      "oubt": 6582,
      "▁0": 6583,
      "▁wicked": 6584,
      "60": 6585,
      "▁dischar": 6586,
      "▁Park": 6587,
      "lin": 6588,
      "▁hen": 6589,
      "els,": 6590,
      "▁brilliant": 6591,
      "▁dw": 6592,
      "▁unus": 6593,
      "while": 6594,
      "▁About": 6595,
      "▁tone": 6596,
      "▁thunder": 6597,
      "▁attacked": 6598,
      "▁clothes": 6599,
      "oring": 6600,
      "▁nut": 6601,
      "i._": 6602,
      "▁smell": 6603,
      "▁facts": 6604,
      "▁Britain": 6605,
      "▁including": 6606,
      "-bl": 6607,
      ".--The": 6608,
      "▁surely": 6609,
      "isl": 6610,
      "ers;": 6611,
      "▁talked": 6612,
      "ale,": 6613,
      "▁milk": 6614,
      "▁Hy": 6615,
      "▁child,": 6616,
      "▁it?\"": 6617,
      "▁Tex": 6618,
      "aming": 6619,
      "▁whenever": 6620,
      "arrison": 6621,
      "▁imagine": 6622,
      "▁marry": 6623,
      "▁giant": 6624,
      "▁myster": 6625,
      "▁iii.": 6626,
      "_;": 6627,
      "▁dog,": 6628,
      "ares": 6629,
      "iden": 6630,
      "acity": 6631,
      "▁_V": 6632,
      "▁two,": 6633,
      "▁Russian": 6634,
      "▁to-morrow": 6635,
      "▁Hect": 6636,
      "▁Spain": 6637,
      "▁Govern": 6638,
      "▁renew": 6639,
      "▁form,": 6640,
      "ck,": 6641,
      "▁caval": 6642,
      "rd": 6643,
      "▁compelled": 6644,
      "▁official": 6645,
      "▁Juan": 6646,
      "▁delicate": 6647,
      "uman": 6648,
      "▁servants": 6649,
      "rm": 6650,
      "▁moth": 6651,
      "▁mix": 6652,
      "▁han": 6653,
      "▁armed": 6654,
      "▁drag": 6655,
      "▁Rod": 6656,
      "▁skill": 6657,
      "▁admit": 6658,
      "▁shop": 6659,
      "▁ago,": 6660,
      "▁tongue": 6661,
      "▁compared": 6662,
      "umph": 6663,
      "▁dawn": 6664,
      "ighed": 6665,
      "▁remed": 6666,
      "▁dit": 6667,
      "▁word,": 6668,
      "ule": 6669,
      "▁ave": 6670,
      "itz": 6671,
      "▁pity": 6672,
      "▁Off": 6673,
      "▁quarrel": 6674,
      "▁Anton": 6675,
      "gen": 6676,
      "esar": 6677,
      "▁181": 6678,
      "].": 6679,
      "▁Are": 6680,
      "ías": 6681,
      "oof": 6682,
      "▁182": 6683,
      "▁tail,": 6684,
      "▁furnished": 6685,
      "▁8.": 6686,
      "▁yell": 6687,
      "▁excess": 6688,
      "▁taste": 6689,
      "rons": 6690,
      "▁voyage": 6691,
      "▁\"d": 6692,
      "ART": 6693,
      "▁Next": 6694,
      "-le": 6695,
      "▁whist": 6696,
      "▁confined": 6697,
      "ués": 6698,
      "III": 6699,
      "▁invol": 6700,
      "▁suggested": 6701,
      "ips": 6702,
      "▁reading": 6703,
      "ered,": 6704,
      "onstr": 6705,
      "▁bask": 6706,
      "▁Ped": 6707,
      "una": 6708,
      "▁worst": 6709,
      "▁adult": 6710,
      "▁nations": 6711,
      "▁Mark": 6712,
      "▁too.": 6713,
      "▁whispered": 6714,
      "▁Princess": 6715,
      "▁magnificent": 6716,
      "▁smoke": 6717,
      "-sh": 6718,
      "▁lest": 6719,
      "▁jun": 6720,
      "▁casa": 6721,
      "▁s'": 6722,
      "riend": 6723,
      "▁amaz": 6724,
      "▁Sea": 6725,
      "▁arranged": 6726,
      "ety,": 6727,
      "▁countries": 6728,
      "▁Ow": 6729,
      "▁clos": 6730,
      "▁distrib": 6731,
      "▁officer": 6732,
      "▁wine": 6733,
      "▁enough,": 6734,
      "▁secured": 6735,
      "▁Fe": 6736,
      "▁Spe": 6737,
      "▁forgotten": 6738,
      "▁ard": 6739,
      "▁thread": 6740,
      "kind": 6741,
      "▁cher": 6742,
      "cel": 6743,
      "▁practice": 6744,
      "arted": 6745,
      "▁rest,": 6746,
      "▁mund": 6747,
      "▁Francis": 6748,
      "[3": 6749,
      "sal": 6750,
      "▁teng": 6751,
      "▁instruct": 6752,
      "▁couple": 6753,
      "▁Profess": 6754,
      "atus": 6755,
      "using": 6756,
      "▁extensive": 6757,
      "▁inclined": 6758,
      "▁Squ": 6759,
      "▁nearest": 6760,
      "IF": 6761,
      "▁year.": 6762,
      "▁ends": 6763,
      "▁schol": 6764,
      "▁total": 6765,
      "▁holy": 6766,
      "▁Cle": 6767,
      "▁celebrated": 6768,
      "anqu": 6769,
      "imos": 6770,
      "▁noche": 6771,
      "▁Royal": 6772,
      "▁sports": 6773,
      "▁'S": 6774,
      "▁grande": 6775,
      "▁Fin": 6776,
      "▁instance": 6777,
      "▁probable": 6778,
      "▁Edward": 6779,
      "enz": 6780,
      "-cl": 6781,
      "▁Ba": 6782,
      "▁FOR": 6783,
      "▁rav": 6784,
      "▁marched": 6785,
      "▁affairs": 6786,
      "▁stretched": 6787,
      "▁remind": 6788,
      "▁presents": 6789,
      "▁dimin": 6790,
      "▁throat": 6791,
      "igned": 6792,
      "▁swall": 6793,
      "▁straw": 6794,
      "▁notes": 6795,
      "▁wooden": 6796,
      "▁eleven": 6797,
      "▁haven": 6798,
      "▁says,": 6799,
      "▁intent": 6800,
      "▁invest": 6801,
      "▁Water": 6802,
      "▁overt": 6803,
      "grim": 6804,
      "▁Sometimes": 6805,
      "▁tort": 6806,
      "ress.": 6807,
      "▁chosen": 6808,
      "▁bay": 6809,
      "rived": 6810,
      "▁44": 6811,
      "▁traps": 6812,
      "▁chann": 6813,
      "▁slept": 6814,
      "opter": 6815,
      "▁changes": 6816,
      "▁conceal": 6817,
      "▁wretched": 6818,
      "ban": 6819,
      "▁Fam": 6820,
      "▁exert": 6821,
      "ley,": 6822,
      "▁(19": 6823,
      "▁unfortunate": 6824,
      "ache": 6825,
      "▁ride": 6826,
      "▁did,": 6827,
      "▁crossing": 6828,
      "▁won": 6829,
      "▁3,": 6830,
      "ocr": 6831,
      "▁Atl": 6832,
      "▁separated": 6833,
      "hall": 6834,
      "▁vest": 6835,
      "▁Well": 6836,
      "▁imit": 6837,
      "back": 6838,
      "▁blaz": 6839,
      "▁imagin": 6840,
      "▁innoc": 6841,
      "▁'Y": 6842,
      "▁'em": 6843,
      "▁aquí": 6844,
      "▁priest": 6845,
      "▁neverthe": 6846,
      "▁teacher": 6847,
      "▁land.": 6848,
      "▁contrary": 6849,
      "▁Page": 6850,
      "▁Del": 6851,
      "▁fatal": 6852,
      "▁sigh": 6853,
      "▁lately": 6854,
      "atched": 6855,
      "▁chain": 6856,
      "▁convey": 6857,
      "▁characteristic": 6858,
      "▁February": 6859,
      "▁cann": 6860,
      "▁Spir": 6861,
      "▁title": 6862,
      "▁outl": 6863,
      "▁Soon": 6864,
      "▁darkness": 6865,
      "▁According": 6866,
      "▁\"Why": 6867,
      "▁tied": 6868,
      "--but": 6869,
      "▁ré": 6870,
      "▁strike": 6871,
      "▁subjects": 6872,
      "▁fancy": 6873,
      "▁Trans": 6874,
      "nces": 6875,
      "ulg": 6876,
      "▁'O": 6877,
      "IX": 6878,
      "uge": 6879,
      "▁spots": 6880,
      "▁\"I'll": 6881,
      "▁brothers": 6882,
      "a_)": 6883,
      "▁Chan": 6884,
      "▁Pan": 6885,
      "▁vez": 6886,
      "vol": 6887,
      "▁wha": 6888,
      "▁1:": 6889,
      "ities.": 6890,
      "ba": 6891,
      "ister,": 6892,
      "▁final": 6893,
      "▁product": 6894,
      "▁army,": 6895,
      "▁surv": 6896,
      "▁Scroo": 6897,
      "▁mol": 6898,
      "▁picked": 6899,
      "▁uno": 6900,
      "olland": 6901,
      "▁glorious": 6902,
      "iner": 6903,
      "▁nerv": 6904,
      "▁alar": 6905,
      "▁still,": 6906,
      "▁heap": 6907,
      "▁cliff": 6908,
      "▁fled": 6909,
      "▁money,": 6910,
      "▁Fox": 6911,
      "▁spear": 6912,
      "▁contain": 6913,
      "▁contract": 6914,
      "▁shock": 6915,
      "▁Rob": 6916,
      "▁allí": 6917,
      "▁consult": 6918,
      "-looking": 6919,
      "atures": 6920,
      "▁companions": 6921,
      "▁assistance": 6922,
      "▁lips": 6923,
      "▁yet,": 6924,
      "uego": 6925,
      "▁flood": 6926,
      "▁monarch": 6927,
      "▁feelings": 6928,
      "▁precious": 6929,
      "▁round,": 6930,
      "▁Ill": 6931,
      "▁plate": 6932,
      "▁failed": 6933,
      "▁narr": 6934,
      "▁distance,": 6935,
      "▁doub": 6936,
      "▁acquired": 6937,
      "▁Achill": 6938,
      "▁Fred": 6939,
      "emale": 6940,
      "▁aware": 6941,
      "▁frag": 6942,
      "▁ft.": 6943,
      "▁inner": 6944,
      "▁this.": 6945,
      "▁eleg": 6946,
      "▁butterf": 6947,
      "▁struggle": 6948,
      "▁lofty": 6949,
      "▁vel": 6950,
      "atory": 6951,
      "▁47": 6952,
      "oman": 6953,
      "▁quietly": 6954,
      "▁ton": 6955,
      "▁pressed": 6956,
      "ulc": 6957,
      "▁Down": 6958,
      "▁consum": 6959,
      "▁campaign": 6960,
      "▁indiff": 6961,
      "▁keen": 6962,
      "▁door.": 6963,
      "▁thing,": 6964,
      "▁stage": 6965,
      "▁by,": 6966,
      "▁lifted": 6967,
      "▁listened": 6968,
      "▁Bear": 6969,
      "C.": 6970,
      "▁Sar": 6971,
      "▁repro": 6972,
      "▁prosper": 6973,
      "▁tamb": 6974,
      "▁ming": 6975,
      "erent": 6976,
      "▁present,": 6977,
      "semble": 6978,
      "▁instantly": 6979,
      "▁runs": 6980,
      "▁\"Don't": 6981,
      "80": 6982,
      "▁tres": 6983,
      "▁crack": 6984,
      "o:": 6985,
      "▁shore,": 6986,
      "▁privile": 6987,
      "▁dead,": 6988,
      "▁perd": 6989,
      "▁addressed": 6990,
      "▁Carol": 6991,
      "▁Hel": 6992,
      "▁David": 6993,
      "▁mortal": 6994,
      "▁pard": 6995,
      "▁desir": 6996,
      "itions": 6997,
      "▁Only": 6998,
      "▁Jew": 6999,
      "▁Missouri": 7000,
      "▁\"Let": 7001,
      "▁enjoyed": 7002,
      "▁adventure": 7003,
      "▁sed": 7004,
      "▁san": 7005,
      "ries,": 7006,
      "▁Los": 7007,
      "▁shr": 7008,
      "▁mars": 7009,
      "▁\"you": 7010,
      "▁<i>n</i>.": 7011,
      "rem": 7012,
      "ques": 7013,
      "▁road,": 7014,
      "▁everybody": 7015,
      "ception": 7016,
      "yer": 7017,
      "▁section": 7018,
      "▁Ste": 7019,
      "▁eaten": 7020,
      "abled": 7021,
      "▁shining": 7022,
      "emed": 7023,
      "▁streets": 7024,
      "res,": 7025,
      "▁wed": 7026,
      "rait": 7027,
      "▁Europe,": 7028,
      "▁type": 7029,
      "▁Buff": 7030,
      "▁Charl": 7031,
      "▁toler": 7032,
      "na,": 7033,
      "▁days.": 7034,
      "land.": 7035,
      "▁vary": 7036,
      "▁amuse": 7037,
      "▁another.": 7038,
      "▁tap": 7039,
      "▁prud": 7040,
      "▁parties": 7041,
      "▁perpet": 7042,
      "▁gor": 7043,
      "0,000": 7044,
      "ization": 7045,
      "▁experiment": 7046,
      "▁thrust": 7047,
      "▁buck": 7048,
      "▁burrow": 7049,
      "▁Bour": 7050,
      "iger": 7051,
      "▁flow": 7052,
      "▁verdad": 7053,
      "-+": 7054,
      "▁table,": 7055,
      "▁shepherd": 7056,
      "▁long.": 7057,
      "▁usel": 7058,
      "▁mul": 7059,
      "▁roots": 7060,
      "▁cosa": 7061,
      "▁deeply": 7062,
      "▁eating": 7063,
      "▁no,": 7064,
      "▁found,": 7065,
      "▁hanging": 7066,
      "EM": 7067,
      "▁barbar": 7068,
      "▁division": 7069,
      "▁anxiet": 7070,
      "▁(A": 7071,
      "▁destroyed": 7072,
      "▁perceived": 7073,
      "▁hub": 7074,
      "▁Si": 7075,
      "▁Ell": 7076,
      "▁large,": 7077,
      "▁kind,": 7078,
      "▁laying": 7079,
      "▁welcome": 7080,
      "inate": 7081,
      "▁right.": 7082,
      "▁negro": 7083,
      "▁Mean": 7084,
      "▁navig": 7085,
      "inced": 7086,
      "▁was.": 7087,
      "▁Common": 7088,
      "▁it?": 7089,
      "▁todas": 7090,
      "▁Prov": 7091,
      "gs": 7092,
      "▁stories": 7093,
      "▁contains": 7094,
      "▁calcul": 7095,
      "▁wisdom": 7096,
      "CK": 7097,
      "way,": 7098,
      "▁adapt": 7099,
      "▁preserved": 7100,
      "▁policy": 7101,
      "▁Tem": 7102,
      "▁CON": 7103,
      "▁war.": 7104,
      "-the": 7105,
      "eth,": 7106,
      "▁victory": 7107,
      "▁tiempo": 7108,
      "ELL": 7109,
      "25": 7110,
      "keep": 7111,
      "ant.": 7112,
      "▁preserv": 7113,
      "▁recent": 7114,
      "▁room.": 7115,
      "▁ON": 7116,
      "▁master,": 7117,
      "▁bos": 7118,
      "▁remarked": 7119,
      "▁sir,": 7120,
      "▁parec": 7121,
      "iness.": 7122,
      "chie": 7123,
      "▁_m.": 7124,
      "▁needed": 7125,
      "has": 7126,
      "ue.": 7127,
      "▁ó": 7128,
      "▁pant": 7129,
      "ators": 7130,
      "▁be.": 7131,
      "▁wants": 7132,
      "▁playing": 7133,
      "▁Card": 7134,
      "▁Four": 7135,
      "▁_t": 7136,
      "▁hands.": 7137,
      "▁expense": 7138,
      "▁circle": 7139,
      "▁empty": 7140,
      "as;": 7141,
      "▁'M": 7142,
      "ora,": 7143,
      "▁stated": 7144,
      "▁explained": 7145,
      "▁frightened": 7146,
      "▁stiff": 7147,
      "▁pocket": 7148,
      "▁Jul": 7149,
      "▁chapter": 7150,
      "▁sun,": 7151,
      "burg": 7152,
      "▁sé": 7153,
      "ised,": 7154,
      "▁hit": 7155,
      "▁delivered": 7156,
      "▁V.": 7157,
      "▁attempted": 7158,
      "▁reaching": 7159,
      "▁Jem": 7160,
      "after": 7161,
      "▁tiny": 7162,
      "▁Since": 7163,
      "▁rarely": 7164,
      "▁»": 7165,
      "▁fest": 7166,
      "lying": 7167,
      "▁mucho": 7168,
      "▁admitted": 7169,
      "▁hair,": 7170,
      "▁development": 7171,
      "▁calls": 7172,
      "▁9.": 7173,
      "bol": 7174,
      "▁bone": 7175,
      "▁fund": 7176,
      "ach,": 7177,
      "▁growth": 7178,
      "▁miserable": 7179,
      "▁doth": 7180,
      "▁provisions": 7181,
      "▁connection": 7182,
      "▁autumn": 7183,
      "ida,": 7184,
      "tle": 7185,
      "▁lion": 7186,
      "▁you,\"": 7187,
      "▁Most": 7188,
      "▁him.\"": 7189,
      "▁mead": 7190,
      "▁wishes": 7191,
      "▁bew": 7192,
      "▁Wil": 7193,
      "▁precip": 7194,
      "▁pel": 7195,
      "▁lamp": 7196,
      "▁advice": 7197,
      "eyl": 7198,
      "▁toda": 7199,
      "éné": 7200,
      "▁pride": 7201,
      "▁clo": 7202,
      "▁\"Now": 7203,
      "IES": 7204,
      "▁supported": 7205,
      "▁ruin": 7206,
      "▁nun": 7207,
      "▁Gold": 7208,
      "▁shelter": 7209,
      "▁Sn": 7210,
      "▁consists": 7211,
      "▁demanded": 7212,
      "ible,": 7213,
      "ulp": 7214,
      "aks": 7215,
      "▁camp,": 7216,
      "je": 7217,
      "had": 7218,
      "ility,": 7219,
      "▁prem": 7220,
      "▁reader": 7221,
      "▁illustr": 7222,
      "ivity": 7223,
      "▁society": 7224,
      "▁events": 7225,
      "▁descended": 7226,
      "▁unex": 7227,
      "▁bird,": 7228,
      "▁opposition": 7229,
      "haw": 7230,
      "▁suffering": 7231,
      "▁impression": 7232,
      "▁tight": 7233,
      "aro": 7234,
      "▁borne": 7235,
      "▁elsewhere": 7236,
      "▁1/2": 7237,
      "▁governor": 7238,
      "rov": 7239,
      "▁collection": 7240,
      "regular": 7241,
      "▁ta": 7242,
      "erves": 7243,
      "▁4,": 7244,
      "'s.": 7245,
      "-pl": 7246,
      "icial": 7247,
      "▁sho": 7248,
      "▁disturb": 7249,
      "▁Lewis": 7250,
      "▁Ire": 7251,
      "aved": 7252,
      "▁little,": 7253,
      "▁_m._,": 7254,
      "▁wheel": 7255,
      "▁consent": 7256,
      "▁tempor": 7257,
      "▁rate": 7258,
      "▁Ear": 7259,
      "▁musk": 7260,
      "▁kindly": 7261,
      "▁America.": 7262,
      "ience,": 7263,
      "ago": 7264,
      "▁interp": 7265,
      "urg": 7266,
      "▁vac": 7267,
      "▁choose": 7268,
      "▁animal,": 7269,
      "utation": 7270,
      "▁BY": 7271,
      "▁avail": 7272,
      "▁Victoria": 7273,
      "▁Muse": 7274,
      "▁Wolf": 7275,
      "cial": 7276,
      "▁summit": 7277,
      "▁Tw": 7278,
      "▁stout": 7279,
      "▁disci": 7280,
      "▁esper": 7281,
      "▁marriage": 7282,
      "▁ep": 7283,
      "▁slaughter": 7284,
      "▁Mountain": 7285,
      "▁average": 7286,
      "_:": 7287,
      "cing": 7288,
      "▁48": 7289,
      "▁appreci": 7290,
      "▁concluded": 7291,
      "▁Sen": 7292,
      "▁caut": 7293,
      "▁fastened": 7294,
      "rot": 7295,
      "rible": 7296,
      "um.": 7297,
      "_).": 7298,
      "▁\"V": 7299,
      "▁anterior": 7300,
      "▁bush": 7301,
      "▁explan": 7302,
      "▁lone": 7303,
      "idos": 7304,
      "antes": 7305,
      "▁impl": 7306,
      "▁warn": 7307,
      "▁maintain": 7308,
      "▁mixed": 7309,
      "ado.": 7310,
      "▁own,": 7311,
      "▁artist": 7312,
      "▁raz": 7313,
      "▁left,": 7314,
      "▁interf": 7315,
      "▁accomplished": 7316,
      "▁Don't": 7317,
      "▁mismo": 7318,
      "▁examined": 7319,
      "vest": 7320,
      "▁line,": 7321,
      "atives": 7322,
      "▁BE": 7323,
      "▁estim": 7324,
      "▁mind.": 7325,
      "▁counsel": 7326,
      "ces.": 7327,
      "▁mart": 7328,
      "▁virtue": 7329,
      "ante,": 7330,
      "▁Alice": 7331,
      "▁nue": 7332,
      "▁stom": 7333,
      "ential": 7334,
      "▁\"That's": 7335,
      "▁causes": 7336,
      "AV": 7337,
      "go,": 7338,
      "ty,": 7339,
      "▁shaft": 7340,
      "▁46": 7341,
      "▁related": 7342,
      "▁60": 7343,
      "▁convenient": 7344,
      "rier": 7345,
      "▁much,": 7346,
      "ily.": 7347,
      "gging": 7348,
      "▁actual": 7349,
      "▁terror": 7350,
      "▁mistake": 7351,
      "[1]": 7352,
      "▁auf": 7353,
      "▁uncle": 7354,
      "S,": 7355,
      "▁scream": 7356,
      "▁Chapter": 7357,
      "▁rein": 7358,
      "▁pursued": 7359,
      "itude,": 7360,
      "▁united": 7361,
      "ward.": 7362,
      "aws": 7363,
      "▁Elizab": 7364,
      "▁ram": 7365,
      "▁date": 7366,
      "▁Cu": 7367,
      "▁Braz": 7368,
      "▁Palmer": 7369,
      "▁rele": 7370,
      "▁Bull": 7371,
      "anks": 7372,
      ".--T": 7373,
      "▁ascertain": 7374,
      "▁interested": 7375,
      "▁Mat": 7376,
      "▁presently": 7377,
      "n,": 7378,
      "▁dol": 7379,
      "ick,": 7380,
      "▁pud": 7381,
      "▁lament": 7382,
      "▁stuff": 7383,
      "ish.": 7384,
      "erer": 7385,
      "▁limit": 7386,
      "▁respons": 7387,
      "ero,": 7388,
      "▁Dem": 7389,
      "agon": 7390,
      "▁accur": 7391,
      "ath,": 7392,
      "▁end.": 7393,
      "▁neck,": 7394,
      "▁AR": 7395,
      "▁impat": 7396,
      "▁credit": 7397,
      "arc": 7398,
      "▁King,": 7399,
      "ALL": 7400,
      "▁delighted": 7401,
      "▁Mas": 7402,
      "allel": 7403,
      "▁rivers": 7404,
      "▁happiness": 7405,
      "ana,": 7406,
      "▁Upon": 7407,
      "R.": 7408,
      "▁she,": 7409,
      "▁accord": 7410,
      "▁magic": 7411,
      "CE": 7412,
      "ille": 7413,
      "▁Roc": 7414,
      "▁rush": 7415,
      "▁anyth": 7416,
      "eless": 7417,
      "▁177": 7418,
      "-k": 7419,
      "▁bid": 7420,
      "ices,": 7421,
      "▁Gil": 7422,
      "▁differ": 7423,
      "▁\"Why,": 7424,
      "▁Ros": 7425,
      "18": 7426,
      "ran": 7427,
      "inoc": 7428,
      "agn": 7429,
      "▁silk": 7430,
      "▁odd": 7431,
      "▁propos": 7432,
      "▁latitude": 7433,
      "▁lin": 7434,
      "▁seated": 7435,
      "------": 7436,
      "▁acquainted": 7437,
      "▁[S": 7438,
      "▁council": 7439,
      "ada.": 7440,
      "▁MCT": 7441,
      "▁religion": 7442,
      "▁provin": 7443,
      "▁effects": 7444,
      "▁pige": 7445,
      "▁rude": 7446,
      "▁Pruss": 7447,
      "▁\"Not": 7448,
      "unning": 7449,
      "arer": 7450,
      "-D": 7451,
      "▁beheld": 7452,
      "▁n'": 7453,
      "▁faces": 7454,
      "▁Fortun": 7455,
      "fully.": 7456,
      "▁rocky": 7457,
      "▁palab": 7458,
      "ère": 7459,
      "▁disposed": 7460,
      "uk": 7461,
      "▁card": 7462,
      "▁parte": 7463,
      "▁using": 7464,
      "▁encoura": 7465,
      "▁cutting": 7466,
      "lers": 7467,
      "▁wool": 7468,
      "▁d.": 7469,
      "▁Hill": 7470,
      "▁mother's": 7471,
      "▁haven't": 7472,
      "▁wo": 7473,
      "▁\"c": 7474,
      "▁Gard": 7475,
      "▁Confeder": 7476,
      "▁penetr": 7477,
      "▁Holland": 7478,
      "▁individuals": 7479,
      "▁Mus": 7480,
      "▁bees": 7481,
      "▁plus": 7482,
      "▁Bishop": 7483,
      "▁preserve": 7484,
      "▁woods,": 7485,
      "ors.": 7486,
      "▁Jos": 7487,
      "▁truth,": 7488,
      "▁conscious": 7489,
      "▁Child": 7490,
      "▁tanto": 7491,
      "ario": 7492,
      "zy": 7493,
      "▁swell": 7494,
      "▁King's": 7495,
      "▁marks": 7496,
      "▁Consul": 7497,
      "ce.": 7498,
      "▁Sav": 7499,
      "oti": 7500,
      "opher": 7501,
      "fully,": 7502,
      "▁majority": 7503,
      "▁valle": 7504,
      "peck": 7505,
      "ARD": 7506,
      "▁ast": 7507,
      "▁permit": 7508,
      "▁1962,": 7509,
      "▁irregular": 7510,
      "▁prair": 7511,
      "▁Turk": 7512,
      "▁exceedingly": 7513,
      "pical": 7514,
      "▁Once": 7515,
      "▁helped": 7516,
      "▁herself,": 7517,
      "oral": 7518,
      "ive.": 7519,
      "ittee": 7520,
      "▁SP": 7521,
      "▁trunk": 7522,
      "▁canoe": 7523,
      "▁harbour": 7524,
      "▁approaching": 7525,
      "▁quart": 7526,
      "▁goods": 7527,
      "▁towns": 7528,
      "▁administr": 7529,
      "▁#": 7530,
      "▁Court": 7531,
      "▁selection": 7532,
      "▁err": 7533,
      "▁captured": 7534,
      "EW": 7535,
      "▁aside": 7536,
      "quar": 7537,
      "▁slop": 7538,
      "▁breeds": 7539,
      "▁Admir": 7540,
      "▁Jane": 7541,
      "▁point,": 7542,
      "▁things.": 7543,
      "▁rent": 7544,
      "▁compet": 7545,
      "▁heart.": 7546,
      "▁measures": 7547,
      "▁tyr": 7548,
      "▁añ": 7549,
      "ote:": 7550,
      "-sha": 7551,
      "▁excitement": 7552,
      "▁deliver": 7553,
      "▁limbs": 7554,
      "▁troubles": 7555,
      "▁altern": 7556,
      "▁Professor": 7557,
      "kelet": 7558,
      "▁arrest": 7559,
      "▁fed": 7560,
      "▁impr": 7561,
      "▁insert": 7562,
      "▁stranger": 7563,
      "ime,": 7564,
      "▁doubt,": 7565,
      "15": 7566,
      "amor": 7567,
      "es,\"": 7568,
      "▁plent": 7569,
      "▁satisfaction": 7570,
      "ters,": 7571,
      "▁Mur": 7572,
      "▁Mass": 7573,
      "▁thinks": 7574,
      "▁previously": 7575,
      "▁sear": 7576,
      "▁Hal": 7577,
      "▁permitted": 7578,
      "▁chick": 7579,
      "▁flies": 7580,
      "▁shame": 7581,
      "▁'B": 7582,
      "▁questions": 7583,
      "▁ét": 7584,
      "▁tard": 7585,
      "--P": 7586,
      "▁feared": 7587,
      "ia;": 7588,
      "▁ceas": 7589,
      "▁nod": 7590,
      "ESS": 7591,
      "▁Melbour": 7592,
      "▁proble": 7593,
      "▁\"Is": 7594,
      "▁South,": 7595,
      "▁genus": 7596,
      "▁gig": 7597,
      "ade,": 7598,
      "▁rear": 7599,
      "▁vot": 7600,
      "OU": 7601,
      "▁Sara": 7602,
      "▁restored": 7603,
      "ged,": 7604,
      "▁Bell": 7605,
      "aus": 7606,
      "▁Oh": 7607,
      "--t": 7608,
      "90": 7609,
      "▁Italian": 7610,
      "▁Haw": 7611,
      "▁\"No": 7612,
      "▁pin": 7613,
      "ode": 7614,
      "▁summon": 7615,
      "anny": 7616,
      "▁mountains,": 7617,
      "▁answered,": 7618,
      "▁Colonel": 7619,
      "▁inquir": 7620,
      "▁jealous": 7621,
      "▁delightful": 7622,
      "▁external": 7623,
      "uches": 7624,
      "▁order,": 7625,
      "▁girl,": 7626,
      "▁observations": 7627,
      "):": 7628,
      "-4": 7629,
      "▁Whe": 7630,
      "▁Lad": 7631,
      "▁fee": 7632,
      "▁done.": 7633,
      "▁squirrel": 7634,
      "▁cel": 7635,
      "▁Gen": 7636,
      "▁insult": 7637,
      "▁themselves.": 7638,
      "▁hate": 7639,
      "ems": 7640,
      "▁fire.": 7641,
      "▁belonged": 7642,
      "itan": 7643,
      "acing": 7644,
      "▁Nothing": 7645,
      "▁Still": 7646,
      "▁passes": 7647,
      "▁favourite": 7648,
      "▁utterly": 7649,
      "oming": 7650,
      "illa,": 7651,
      "▁tant": 7652,
      "▁oc": 7653,
      "▁divers": 7654,
      "70": 7655,
      "▁Gw": 7656,
      "▁siemp": 7657,
      "▁you've": 7658,
      "ajo": 7659,
      "ITH": 7660,
      "▁sounds": 7661,
      "▁shouted": 7662,
      "bs,": 7663,
      "▁puert": 7664,
      "▁-dijo": 7665,
      "pri": 7666,
      "ía.": 7667,
      "▁sorts": 7668,
      "▁popul": 7669,
      "▁scient": 7670,
      "▁shade": 7671,
      "▁hitherto": 7672,
      "▁restra": 7673,
      "▁social": 7674,
      "▁ingen": 7675,
      "q.": 7676,
      "▁examine": 7677,
      "▁[Male": 7678,
      "▁ash": 7679,
      "conom": 7680,
      "▁bee": 7681,
      "▁Come": 7682,
      "ail,": 7683,
      "▁hearts": 7684,
      "▁ideas": 7685,
      "▁slaves": 7686,
      "▁affected": 7687,
      "ricult": 7688,
      "▁merced": 7689,
      "▁regions": 7690,
      "▁hed": 7691,
      "▁France.": 7692,
      "▁cub": 7693,
      "ading": 7694,
      "▁defence": 7695,
      "▁guns": 7696,
      "▁(M": 7697,
      "▁skins": 7698,
      "▁Florence": 7699,
      "▁Did": 7700,
      "ja": 7701,
      "▁haber": 7702,
      "▁Bab": 7703,
      "bert,": 7704,
      "▁extending": 7705,
      "▁o'er": 7706,
      "▁reflect": 7707,
      "▁erect": 7708,
      "▁III.": 7709,
      "▁ros": 7710,
      "▁intelligence": 7711,
      "cest": 7712,
      "▁Wall": 7713,
      "▁rig": 7714,
      "▁cold,": 7715,
      "gn": 7716,
      "▁condemn": 7717,
      "▁clouds": 7718,
      "▁earlier": 7719,
      "▁ben": 7720,
      "▁PR": 7721,
      "▁area": 7722,
      "▁brush": 7723,
      "▁5,": 7724,
      "▁males": 7725,
      "rie": 7726,
      "▁ate": 7727,
      "▁Str": 7728,
      "▁horns": 7729,
      "-H": 7730,
      "▁reckon": 7731,
      "liest": 7732,
      "▁uncertain": 7733,
      "acles": 7734,
      "▁\"Th": 7735,
      "▁air.": 7736,
      "oked": 7737,
      "▁Ceyl": 7738,
      "▁parliament": 7739,
      "▁Island,": 7740,
      "▁temperature": 7741,
      "inity": 7742,
      "▁Holy": 7743,
      "▁bridge": 7744,
      "▁surrounding": 7745,
      "▁um": 7746,
      "▁forgot": 7747,
      "▁wolves": 7748,
      "▁compre": 7749,
      "▁redd": 7750,
      "▁absurd": 7751,
      "▁chat": 7752,
      "▁200": 7753,
      "▁matter,": 7754,
      "▁favourable": 7755,
      "ology": 7756,
      "▁holes": 7757,
      "▁Mos": 7758,
      "▁rolled": 7759,
      "▁divine": 7760,
      "▁companion": 7761,
      "▁families": 7762,
      "aria": 7763,
      "icht": 7764,
      "▁labor": 7765,
      "▁choice": 7766,
      "▁pushed": 7767,
      "▁conspic": 7768,
      "▁palm": 7769,
      "rust": 7770,
      "▁gust": 7771,
      "▁III": 7772,
      "▁obed": 7773,
      "▁org": 7774,
      "ble,": 7775,
      "No": 7776,
      "▁\"All": 7777,
      "▁deliber": 7778,
      "▁finds": 7779,
      "▁Flor": 7780,
      "▁Penn": 7781,
      "▁recovered": 7782,
      "▁places,": 7783,
      "▁falt": 7784,
      "▁her;": 7785,
      "▁dying": 7786,
      "aling": 7787,
      "ments.": 7788,
      "▁ceased": 7789,
      "5;": 7790,
      "▁grass,": 7791,
      "▁coco": 7792,
      "ork,": 7793,
      "▁purple": 7794,
      "▁coloured": 7795,
      "▁trif": 7796,
      "iones": 7797,
      "▁stup": 7798,
      "▁white.": 7799,
      "▁ahead": 7800,
      "▁lan": 7801,
      "▁gay": 7802,
      "▁Emily": 7803,
      "utenant": 7804,
      "▁Av": 7805,
      "-wh": 7806,
      "▁island,": 7807,
      "▁objects": 7808,
      "▁plainly": 7809,
      "▁mourn": 7810,
      "▁Arm": 7811,
      "▁least,": 7812,
      "-head": 7813,
      "▁parents": 7814,
      "▁Republic": 7815,
      "▁triumph": 7816,
      "-R": 7817,
      "▁weary": 7818,
      "▁Out": 7819,
      "▁contrib": 7820,
      "▁tells": 7821,
      "▁accepted": 7822,
      "▁dus": 7823,
      "▁we'll": 7824,
      "▁later,": 7825,
      "▁unl": 7826,
      "▁(B": 7827,
      "▁condu": 7828,
      "▁posterior": 7829,
      "▁convinced": 7830,
      "ya": 7831,
      "oused": 7832,
      "▁commission": 7833,
      "ville": 7834,
      "▁vuestra": 7835,
      "▁me,\"": 7836,
      "ded": 7837,
      "▁net": 7838,
      "▁brood": 7839,
      "▁yard": 7840,
      "--B": 7841,
      "▁adorn": 7842,
      "ribed": 7843,
      "▁breaking": 7844,
      "▁display": 7845,
      "▁Ulysses": 7846,
      "▁sich": 7847,
      "▁thither": 7848,
      "▁minds": 7849,
      "AIN": 7850,
      "lor": 7851,
      "▁meal": 7852,
      "▁unlike": 7853,
      "-de": 7854,
      "▁spirits": 7855,
      "▁Saturd": 7856,
      "▁Rose": 7857,
      "▁rum": 7858,
      "▁shoulder": 7859,
      "▁River,": 7860,
      "▁má": 7861,
      "▁Po": 7862,
      "▁Pri": 7863,
      "▁alone.": 7864,
      "▁relation": 7865,
      "▁dark,": 7866,
      "▁inher": 7867,
      "▁body.": 7868,
      "▁waste": 7869,
      "ads": 7870,
      "▁with,": 7871,
      "▁glance": 7872,
      "▁volv": 7873,
      "▁swept": 7874,
      "▁ded": 7875,
      "▁pus": 7876,
      "asion": 7877,
      "illy": 7878,
      "▁know.": 7879,
      "-gr": 7880,
      "▁No,": 7881,
      "▁cock": 7882,
      "▁dear,": 7883,
      "▁infant": 7884,
      "▁family.": 7885,
      "▁Day": 7886,
      "▁subsequ": 7887,
      "▁vert": 7888,
      "▁Quixote,": 7889,
      "▁Jesus": 7890,
      "ii": 7891,
      "▁vie": 7892,
      "▁cried,": 7893,
      "▁outs": 7894,
      "▁States,": 7895,
      "▁legs,": 7896,
      "▁haunt": 7897,
      "ity;": 7898,
      "▁reply": 7899,
      "▁discovery": 7900,
      "▁disgust": 7901,
      "▁arose": 7902,
      "▁fres": 7903,
      "▁managed": 7904,
      "▁grate": 7905,
      "▁shoulders": 7906,
      "▁access": 7907,
      "▁adopted": 7908,
      "▁instrument": 7909,
      "▁Isabel": 7910,
      "ham,": 7911,
      "ution.": 7912,
      "▁wind,": 7913,
      "▁Irish": 7914,
      "▁Through": 7915,
      "▁pink": 7916,
      "▁derived": 7917,
      "eenth": 7918,
      "▁have,": 7919,
      "▁desde": 7920,
      "▁verry": 7921,
      "▁migr": 7922,
      "▁needs": 7923,
      "▁duties": 7924,
      "▁developed": 7925,
      "ica,": 7926,
      "velled": 7927,
      "▁Cas": 7928,
      "▁tranqu": 7929,
      "▁article": 7930,
      "▁Ing": 7931,
      "▁attach": 7932,
      "▁household": 7933,
      "▁mast": 7934,
      "▁Ham": 7935,
      "alth,": 7936,
      "▁\"it": 7937,
      "▁10.": 7938,
      "▁168": 7939,
      "▁brown,": 7940,
      "▁treaty": 7941,
      "▁contrary,": 7942,
      "▁fingers": 7943,
      "▁lit": 7944,
      "▁them.\"": 7945,
      "▁trees.": 7946,
      "▁asking": 7947,
      "tes": 7948,
      "▁oft": 7949,
      "▁(P": 7950,
      "▁colour,": 7951,
      "▁covering": 7952,
      "▁granted": 7953,
      "▁mant": 7954,
      "▁notwithstanding": 7955,
      "▁\"Who": 7956,
      "▁purcha": 7957,
      "▁otros": 7958,
      "▁\"b": 7959,
      "▁sees": 7960,
      "▁anyone": 7961,
      "▁party,": 7962,
      "▁characters": 7963,
      "▁circumstance": 7964,
      "olo": 7965,
      "▁tus": 7966,
      "▁(f": 7967,
      "▁younger": 7968,
      "▁seen.": 7969,
      "[4": 7970,
      "▁Field": 7971,
      "more": 7972,
      "ómo": 7973,
      "ad.": 7974,
      "▁women,": 7975,
      "▁abundance": 7976,
      "▁aus": 7977,
      "▁select": 7978,
      "▁recover": 7979,
      "▁snake": 7980,
      "▁Rome,": 7981,
      "OG": 7982,
      "ubl": 7983,
      "▁tale": 7984,
      "▁resc": 7985,
      "▁mild": 7986,
      "▁Pre": 7987,
      "▁novel": 7988,
      "▁pref": 7989,
      "▁'D": 7990,
      "▁government,": 7991,
      "'er": 7992,
      "▁invari": 7993,
      "▁food.": 7994,
      "▁dorsal": 7995,
      "▁AL": 7996,
      "▁request": 7997,
      "▁tout": 7998,
      "▁Sur": 7999,
      "ock,": 8000,
      "▁prevented": 8001,
      "▁begged": 8002,
      "UST": 8003,
      "eza": 8004,
      "▁Size": 8005,
      "iast": 8006,
      "quet": 8007,
      "▁memor": 8008,
      "▁atm": 8009,
      "▁gets": 8010,
      "oir": 8011,
      "▁disord": 8012,
      "▁avec": 8013,
      "rous": 8014,
      "▁bol": 8015,
      "▁Mond": 8016,
      "▁where,": 8017,
      "▁decre": 8018,
      "▁hospital": 8019,
      "▁National": 8020,
      "▁wherever": 8021,
      "aur": 8022,
      "▁below,": 8023,
      "▁constitution": 8024,
      "▁luxur": 8025,
      "▁kings": 8026,
      "▁chap": 8027,
      "▁charged": 8028,
      "respondió": 8029,
      "▁XXX": 8030,
      "▁Dist": 8031,
      "▁Again": 8032,
      "▁supplied": 8033,
      "▁preceding": 8034,
      "▁[Siden": 8035,
      "ha,": 8036,
      "▁disag": 8037,
      "▁Therefore": 8038,
      "▁\"So": 8039,
      "▁Greeks": 8040,
      "▁singing": 8041,
      "inged": 8042,
      "▁eye,": 8043,
      "bb": 8044,
      "▁cort": 8045,
      "ures,": 8046,
      "▁contempt": 8047,
      "▁hour,": 8048,
      "ege": 8049,
      "▁Sher": 8050,
      "▁uttered": 8051,
      "mith": 8052,
      "▁Gall": 8053,
      "▁turns": 8054,
      "4:": 8055,
      "ement,": 8056,
      "▁safety": 8057,
      "▁Zool": 8058,
      "▁después": 8059,
      "▁intellect": 8060,
      "st.": 8061,
      "asted": 8062,
      "▁recall": 8063,
      "▁century,": 8064,
      "▁mos": 8065,
      "▁perman": 8066,
      "▁6,": 8067,
      "▁coast,": 8068,
      "▁wra": 8069,
      "▁reasons": 8070,
      "aine": 8071,
      "▁bushes": 8072,
      "▁Indians,": 8073,
      "▁slender": 8074,
      "▁mejor": 8075,
      "8;": 8076,
      "adel": 8077,
      "▁(as": 8078,
      "▁older": 8079,
      "▁urged": 8080,
      "▁vio": 8081,
      "12": 8082,
      "▁washed": 8083,
      "▁May,": 8084,
      "▁Bro": 8085,
      "▁supre": 8086,
      "▁Pass": 8087,
      "▁humble": 8088,
      "▁\"p": 8089,
      "▁passeng": 8090,
      "▁treatment": 8091,
      "▁baby": 8092,
      "▁source": 8093,
      "PT": 8094,
      "▁fever": 8095,
      "▁menos": 8096,
      "▁eag": 8097,
      "ulate": 8098,
      "▁entreat": 8099,
      "▁Young": 8100,
      "▁smok": 8101,
      "▁own.": 8102,
      "▁independent": 8103,
      "▁exter": 8104,
      "▁merry": 8105,
      "met": 8106,
      "▁pool": 8107,
      "om,": 8108,
      "▁spark": 8109,
      "▁Yellow": 8110,
      "▁founded": 8111,
      "▁clever": 8112,
      "▁benefit": 8113,
      "bra": 8114,
      "▁trace": 8115,
      "▁foot,": 8116,
      "jud": 8117,
      "ite.": 8118,
      "▁delay": 8119,
      "▁ended": 8120,
      "▁Blue": 8121,
      "▁Finn": 8122,
      "▁ojos": 8123,
      "▁horrible": 8124,
      "▁greet": 8125,
      "▁nuest": 8126,
      "▁spare": 8127,
      "mente": 8128,
      "▁dogs,": 8129,
      "▁cosas": 8130,
      "▁judgment": 8131,
      "▁\"a": 8132,
      "ulpt": 8133,
      "▁drift": 8134,
      "ándose": 8135,
      "riet": 8136,
      "▁only,": 8137,
      "▁views": 8138,
      "▁safely": 8139,
      "--in": 8140,
      "▁twig": 8141,
      "▁results": 8142,
      "erson": 8143,
      "▁committed": 8144,
      "▁swamp": 8145,
      "▁profit": 8146,
      "▁Lab": 8147,
      "▁extens": 8148,
      "▁52": 8149,
      "1:": 8150,
      "hant": 8151,
      "▁comrad": 8152,
      "▁Yes,": 8153,
      "▁farmer": 8154,
      "▁charm": 8155,
      "▁terr": 8156,
      "▁cuent": 8157,
      "▁enemy,": 8158,
      "▁Catholic": 8159,
      "▁apt": 8160,
      "▁cities": 8161,
      "▁Cord": 8162,
      "▁feature": 8163,
      "▁gold,": 8164,
      "▁sou": 8165,
      "▁Ent": 8166,
      "▁enf": 8167,
      "▁Ke": 8168,
      "▁Scott": 8169,
      "▁pretend": 8170,
      "▁Society": 8171,
      "x,": 8172,
      "▁sí": 8173,
      "▁cave": 8174,
      "▁enabled": 8175,
      "▁repair": 8176,
      "-1/2": 8177,
      "▁Protest": 8178,
      "▁butterfl": 8179,
      "▁plat": 8180,
      "ORY": 8181,
      "oqu": 8182,
      "ase,": 8183,
      "iday": 8184,
      "▁Western": 8185,
      "▁Life": 8186,
      "_.--": 8187,
      "▁az": 8188,
      "▁Lar": 8189,
      "edly": 8190,
      "▁het": 8191,
      "uebl": 8192,
      "▁pued": 8193,
      "▁-respondió": 8194,
      "N.": 8195,
      "▁continually": 8196,
      "▁Commission": 8197,
      "▁Spaniards": 8198,
      "6;": 8199,
      "▁cir": 8200,
      "▁Sub": 8201,
      "9;": 8202,
      "▁miles,": 8203,
      "▁invited": 8204,
      "▁craw": 8205,
      "▁siempre": 8206,
      "▁fish,": 8207,
      "▁atmosp": 8208,
      "▁thanks": 8209,
      "ios,": 8210,
      "▁hundreds": 8211,
      "▁\"Good": 8212,
      "-N": 8213,
      "▁patter": 8214,
      "▁vida": 8215,
      "▁(L": 8216,
      "▁Albert": 8217,
      "▁windows": 8218,
      "stair": 8219,
      "ctic": 8220,
      "▁subd": 8221,
      "us_,": 8222,
      "▁agu": 8223,
      "▁remove": 8224,
      "ét": 8225,
      "▁waves": 8226,
      "lands": 8227,
      "▁§": 8228,
      "▁neat": 8229,
      "aces,": 8230,
      "▁extremity": 8231,
      "énéral": 8232,
      "▁haw": 8233,
      "▁Dog": 8234,
      "▁whereas": 8235,
      "▁\"Here": 8236,
      "▁temp": 8237,
      "▁Town": 8238,
      "▁irrit": 8239,
      "▁sight,": 8240,
      "3:": 8241,
      "o!": 8242,
      "▁día": 8243,
      "othe": 8244,
      "▁Son": 8245,
      "our.": 8246,
      "-bre": 8247,
      "▁once.": 8248,
      "reen": 8249,
      "▁Ty": 8250,
      "▁\"for": 8251,
      "▁over.": 8252,
      "▁birds.": 8253,
      "▁negoti": 8254,
      "▁assembled": 8255,
      "▁tint": 8256,
      "▁gently": 8257,
      "▁doors": 8258,
      "▁scent": 8259,
      "▁wall,": 8260,
      "▁match": 8261,
      "▁también": 8262,
      "ious.": 8263,
      "▁hook": 8264,
      "▁honey": 8265,
      "▁poll": 8266,
      "▁hound": 8267,
      "▁Rou": 8268,
      "▁consisted": 8269,
      "▁winds": 8270,
      "▁\"f": 8271,
      "▁annoy": 8272,
      "▁abdom": 8273,
      "▁(p.": 8274,
      "IGH": 8275,
      "▁manifest": 8276,
      "▁haz": 8277,
      "▁Kans": 8278,
      "7;": 8279,
      "arts": 8280,
      "▁mouth,": 8281,
      "▁Id": 8282,
      "hank": 8283,
      "▁'The": 8284,
      "▁prophe": 8285,
      "▁houses,": 8286,
      "▁principle": 8287,
      "▁tú": 8288,
      "▁sunsh": 8289,
      "▁volume": 8290,
      "▁hadn't": 8291,
      "ailing": 8292,
      "▁acts": 8293,
      "PH": 8294,
      "▁rights": 8295,
      "▁necessarily": 8296,
      "▁purpose,": 8297,
      "▁bishop": 8298,
      "ists,": 8299,
      "▁character,": 8300,
      "▁statement": 8301,
      "▁law,": 8302,
      "▁precise": 8303,
      "▁Washington": 8304,
      "▁App": 8305,
      "▁debt": 8306,
      "▁wave": 8307,
      "▁xx": 8308,
      "▁aur": 8309,
      "in's": 8310,
      "▁chose": 8311,
      "▁Elk": 8312,
      "▁mujer": 8313,
      "--H": 8314,
      "▁added,": 8315,
      "▁agreeable": 8316,
      "▁Governor": 8317,
      "▁quis": 8318,
      "▁Les": 8319,
      "▁declar": 8320,
      "▁bast": 8321,
      "▁cant": 8322,
      "▁Hor": 8323,
      "▁Di": 8324,
      "▁anywhere": 8325,
      "▁recognized": 8326,
      "au,": 8327,
      "▁incon": 8328,
      "▁applic": 8329,
      "vas": 8330,
      "▁interests": 8331,
      "▁[Sidenote:": 8332,
      "▁max": 8333,
      "ow.": 8334,
      "--it": 8335,
      "▁voc": 8336,
      "▁boats": 8337,
      "▁replied,": 8338,
      "▁tribes": 8339,
      "inth": 8340,
      "endo": 8341,
      "▁parallel": 8342,
      "an's": 8343,
      "▁conoc": 8344,
      "▁follows:": 8345,
      "▁exercise": 8346,
      "▁Elsie": 8347,
      "▁Gray": 8348,
      "in't": 8349,
      "▁grows": 8350,
      "ary.": 8351,
      "who": 8352,
      "aves,": 8353,
      "▁attitude": 8354,
      "▁drown": 8355,
      "▁stayed": 8356,
      "OUN": 8357,
      "▁throne": 8358,
      "izo": 8359,
      "▁suspect": 8360,
      "▁violence": 8361,
      "ó,": 8362,
      "▁dese": 8363,
      "▁boot": 8364,
      "▁reference": 8365,
      "▁brook": 8366,
      "ront": 8367,
      "▁\"When": 8368,
      "▁opposed": 8369,
      "ounce": 8370,
      "▁Scrooge": 8371,
      "rec": 8372,
      "asped": 8373,
      "▁African": 8374,
      "▁unhappy": 8375,
      "▁wax": 8376,
      "▁retain": 8377,
      "▁believe,": 8378,
      "▁conquer": 8379,
      "▁consequently": 8380,
      "▁plain,": 8381,
      "▁puede": 8382,
      "▁suitable": 8383,
      "▁seventy": 8384,
      "▁Ce": 8385,
      "▁Pope": 8386,
      "'d.": 8387,
      "▁winter,": 8388,
      "▁habían": 8389,
      "OUR": 8390,
      "iable": 8391,
      "▁sending": 8392,
      "▁referred": 8393,
      "▁purchased": 8394,
      "▁fanci": 8395,
      "▁unp": 8396,
      "▁shalt": 8397,
      "--D": 8398,
      "▁medic": 8399,
      "▁carriage": 8400,
      "▁open,": 8401,
      "9:": 8402,
      "▁ancest": 8403,
      "▁(see": 8404,
      "▁tree.": 8405,
      "▁suspend": 8406,
      "▁club": 8407,
      "▁comfortable": 8408,
      "▁forbid": 8409,
      "▁interview": 8410,
      "▁Buffal": 8411,
      "▁AT": 8412,
      "▁LE": 8413,
      "▁Lie": 8414,
      "ives.": 8415,
      "iente": 8416,
      "▁annual": 8417,
      "▁wings,": 8418,
      "▁fare": 8419,
      "ilities": 8420,
      "▁EN": 8421,
      "▁Near": 8422,
      "▁curt": 8423,
      "▁love,": 8424,
      "-F": 8425,
      "▁[4": 8426,
      "▁begins": 8427,
      "▁eighteen": 8428,
      "▁herds": 8429,
      "▁church,": 8430,
      "bod": 8431,
      "born": 8432,
      "▁saint": 8433,
      "▁Mess": 8434,
      "▁plung": 8435,
      "▁recently": 8436,
      "▁trial": 8437,
      "▁driving": 8438,
      "▁Why,": 8439,
      "▁anybody": 8440,
      "▁earth.": 8441,
      "ages.": 8442,
      "iénd": 8443,
      "▁dared": 8444,
      "▁sale": 8445,
      "▁amig": 8446,
      "▁refus": 8447,
      "▁triump": 8448,
      "▁bade": 8449,
      "▁Nav": 8450,
      "▁junt": 8451,
      "-L": 8452,
      "1;": 8453,
      "▁aven": 8454,
      "▁Islands": 8455,
      "3;": 8456,
      "dy": 8457,
      "ril,": 8458,
      "▁\"To": 8459,
      "ifying": 8460,
      "▁estas": 8461,
      "▁blood,": 8462,
      "▁termin": 8463,
      "▁oil": 8464,
      "▁Bat": 8465,
      "▁_n": 8466,
      "▁secur": 8467,
      "▁itself.": 8468,
      "▁Melbourne": 8469,
      "▁alike": 8470,
      "▁Ele": 8471,
      "ture": 8472,
      "▁ren": 8473,
      "▁70": 8474,
      "▁refuse": 8475,
      "▁lug": 8476,
      "▁Have": 8477,
      "▁rises": 8478,
      "▁West.": 8479,
      "▁phot": 8480,
      "eps": 8481,
      "▁foolish": 8482,
      "GE": 8483,
      "▁_b": 8484,
      "sembly": 8485,
      "ished,": 8486,
      "▁10,": 8487,
      "▁_f._,": 8488,
      "▁tab": 8489,
      "▁raising": 8490,
      "▁naked": 8491,
      "▁fulf": 8492,
      "▁--¡": 8493,
      "▁hungry": 8494,
      "▁Gulf": 8495,
      "▁clay": 8496,
      "--------------------------------": 8497,
      "▁beak": 8498,
      "▁FRO": 8499,
      "▁bond": 8500,
      "que,": 8501,
      "▁jack": 8502,
      "▁contempl": 8503,
      "▁everyth": 8504,
      "▁tribe": 8505,
      "▁Africa": 8506,
      "▁ciert": 8507,
      "▁smil": 8508,
      "▁burned": 8509,
      "▁dijo:": 8510,
      "▁desperate": 8511,
      "▁dish": 8512,
      "▁194": 8513,
      "▁subject,": 8514,
      "▁terrif": 8515,
      "forth": 8516,
      "▁Short": 8517,
      "-West": 8518,
      "ute,": 8519,
      "▁Arab": 8520,
      "▁intense": 8521,
      "▁(which": 8522,
      "▁ahora": 8523,
      "▁Dar": 8524,
      "▁Rem": 8525,
      "▁features": 8526,
      "▁goat": 8527,
      "▁Marilla": 8528,
      "-up": 8529,
      "OUS": 8530,
      "▁ug": 8531,
      "▁MAR": 8532,
      "▁Bru": 8533,
      "▁you'd": 8534,
      "▁insp": 8535,
      "on;": 8536,
      "▁jur": 8537,
      "▁loaded": 8538,
      "▁distinction": 8539,
      "▁unusual": 8540,
      "▁reddish": 8541,
      "icated": 8542,
      "▁Turn": 8543,
      "▁rud": 8544,
      "▁liqu": 8545,
      "▁trick": 8546,
      "▁frame": 8547,
      "▁[Female": 8548,
      "▁difficulties": 8549,
      "▁forests": 8550,
      "▁riding": 8551,
      "verted": 8552,
      "▁sugar": 8553,
      "lets": 8554,
      "▁risk": 8555,
      "▁tierra": 8556,
      "▁som": 8557,
      "utt": 8558,
      "▁Matt": 8559,
      "▁prey": 8560,
      "aries,": 8561,
      "▁World": 8562,
      "▁name.": 8563,
      "▁Anne,": 8564,
      "▁arrangement": 8565,
      "esp": 8566,
      "▁muert": 8567,
      "▁legisl": 8568,
      "▁laughing": 8569,
      "▁departure": 8570,
      "▁border": 8571,
      "▁TR": 8572,
      "--for": 8573,
      "▁econom": 8574,
      "▁wash": 8575,
      "▁intim": 8576,
      "▁(for": 8577,
      "ression": 8578,
      "-hand": 8579,
      "--to": 8580,
      "▁sculpt": 8581,
      "▁young,": 8582,
      "▁sore": 8583,
      "▁issued": 8584,
      "▁Cru": 8585,
      "▁ignorant": 8586,
      "▁fitted": 8587,
      "▁noted": 8588,
      "▁chas": 8589,
      "▁season,": 8590,
      "▁intend": 8591,
      "▁kindness": 8592,
      "▁profound": 8593,
      "▁antes": 8594,
      "▁dies": 8595,
      "▁\"to": 8596,
      "olution": 8597,
      "ella": 8598,
      "▁forehead": 8599,
      "▁7,": 8600,
      "▁acted": 8601,
      "▁moist": 8602,
      "▁investig": 8603,
      "7:": 8604,
      "▁fame": 8605,
      "▁Mem": 8606,
      "▁OR": 8607,
      "▁animals.": 8608,
      "▁tales": 8609,
      "▁injur": 8610,
      "bird": 8611,
      "▁aug": 8612,
      "▁Bir": 8613,
      "▁grac": 8614,
      "▁Van": 8615,
      "▁foli": 8616,
      "▁Atlantic": 8617,
      "▁Sum": 8618,
      "▁anim": 8619,
      "▁Ev": 8620,
      "▁doña": 8621,
      "ed,\"": 8622,
      "▁supper": 8623,
      "▁writer": 8624,
      "▁exclus": 8625,
      "▁firmly": 8626,
      "▁trapp": 8627,
      "▁mov": 8628,
      "▁(_P": 8629,
      "▁immort": 8630,
      "▁jumped": 8631,
      "▁fath": 8632,
      "atro": 8633,
      "▁good.": 8634,
      "DS": 8635,
      "▁indust": 8636,
      "▁Lyons": 8637,
      "▁reprod": 8638,
      "▁rock,": 8639,
      "▁shooting": 8640,
      "▁conclusion": 8641,
      "▁Mir": 8642,
      "▁unm": 8643,
      "▁Arth": 8644,
      "▁sket": 8645,
      "▁dollars": 8646,
      "▁creek": 8647,
      "▁th'": 8648,
      "▁Dep": 8649,
      "▁commenced": 8650,
      "▁Union": 8651,
      "▁punish": 8652,
      "▁elevation": 8653,
      "ense,": 8654,
      "▁rival": 8655,
      "▁streams": 8656,
      "▁manner.": 8657,
      "▁princess": 8658,
      "▁climb": 8659,
      "▁prepare": 8660,
      "m.,": 8661,
      "▁same,": 8662,
      "▁mont": 8663,
      "▁gest": 8664,
      "▁compass": 8665,
      "▁consideration": 8666,
      "▁_See": 8667,
      "anim": 8668,
      "▁alter": 8669,
      ".....": 8670,
      "▁flung": 8671,
      "▁remov": 8672,
      "▁provide": 8673,
      "'n": 8674,
      "▁Hence": 8675,
      "▁Dec": 8676,
      "▁person,": 8677,
      "ghter": 8678,
      "▁stamp": 8679,
      "▁children.": 8680,
      "▁connect": 8681,
      "▁knights": 8682,
      "▁Neverthe": 8683,
      "▁distress": 8684,
      "▁concealed": 8685,
      "▁UN": 8686,
      "▁colony": 8687,
      "▁badly": 8688,
      "▁roads": 8689,
      "▁ridge": 8690,
      "▁prisoners": 8691,
      "▁dense": 8692,
      "inea": 8693,
      "▁signal": 8694,
      "▁finger": 8695,
      "-I": 8696,
      "▁aux": 8697,
      "▁bud": 8698,
      "▁ons": 8699,
      "ura,": 8700,
      "▁sup": 8701,
      "▁finest": 8702,
      "ommon": 8703,
      "▁trip": 8704,
      "▁sack": 8705,
      "eral": 8706,
      "ouch": 8707,
      "▁modest": 8708,
      "▁capture": 8709,
      "▁gallop": 8710,
      "▁bi": 8711,
      "▁Ter": 8712,
      "▁contact": 8713,
      "▁11.": 8714,
      "▁va": 8715,
      "▁Ot": 8716,
      "▁experienced": 8717,
      "2:": 8718,
      "▁leather": 8719,
      "▁commence": 8720,
      "▁dragged": 8721,
      "▁created": 8722,
      "▁forest,": 8723,
      "rans": 8724,
      "▁Bal": 8725,
      "▁artific": 8726,
      "▁blew": 8727,
      "-bird": 8728,
      "ustrious": 8729,
      "▁oak": 8730,
      "▁principles": 8731,
      "-coloured": 8732,
      "▁Rab": 8733,
      "▁(s": 8734,
      "▁Kitt": 8735,
      "▁possible.": 8736,
      "▁Second": 8737,
      "▁caterpillar": 8738,
      "▁Pedro": 8739,
      "▁Il": 8740,
      "--he": 8741,
      "▁nothing,": 8742,
      "▁quad": 8743,
      "▁Any": 8744,
      "▁provision": 8745,
      "▁Secret": 8746,
      "▁conducted": 8747,
      "▁tin": 8748,
      "llen": 8749,
      "▁throwing": 8750,
      "▁stomach": 8751,
      "illo": 8752,
      "▁preg": 8753,
      "▁uneas": 8754,
      "4;": 8755,
      "▁\"Where": 8756,
      "▁puest": 8757,
      "ans.": 8758,
      "▁nous": 8759,
      "▁gone,": 8760,
      "▁hem": 8761,
      "idence,": 8762,
      "▁Wild": 8763,
      "▁cano": 8764,
      "▁services": 8765,
      "▁señora": 8766,
      "▁Majesty's": 8767,
      "zar": 8768,
      "▁leaves,": 8769,
      "pass": 8770,
      "▁puebl": 8771,
      "orter": 8772,
      "onder": 8773,
      "▁agg": 8774,
      "▁sentiment": 8775,
      "▁complaint": 8776,
      "ons.": 8777,
      "adem": 8778,
      "▁Dulc": 8779,
      "▁\"Well": 8780,
      "▁rocks,": 8781,
      "▁crowded": 8782,
      "▁transport": 8783,
      "▁conspicuous": 8784,
      "ólo": 8785,
      "▁cries": 8786,
      "▁80": 8787,
      "▁deep,": 8788,
      "▁practical": 8789,
      "▁Fern": 8790,
      "▁scientific": 8791,
      "ived,": 8792,
      "a,\"": 8793,
      "▁wide,": 8794,
      "▁enable": 8795,
      "▁await": 8796,
      "▁melanch": 8797,
      "▁aged": 8798,
      "▁fourteen": 8799,
      "▁messeng": 8800,
      "▁cultivated": 8801,
      "▁damp": 8802,
      "▁\"m": 8803,
      "▁stuck": 8804,
      "▁Hon": 8805,
      "-\"": 8806,
      "8:": 8807,
      "ka": 8808,
      "aba,": 8809,
      "serv": 8810,
      "▁females": 8811,
      "spap": 8812,
      "▁city.": 8813,
      "▁fid": 8814,
      "▁contra": 8815,
      "enos": 8816,
      "▁dead.": 8817,
      "▁village,": 8818,
      "▁beds": 8819,
      "▁rope": 8820,
      "▁persec": 8821,
      "-to": 8822,
      "▁mode": 8823,
      "-East": 8824,
      "▁poured": 8825,
      "▁great,": 8826,
      "▁assault": 8827,
      "▁faire": 8828,
      "▁Italy": 8829,
      "▁lady,": 8830,
      "▁ning": 8831,
      "rane": 8832,
      "ism,": 8833,
      "▁Sun": 8834,
      "▁Point": 8835,
      "ances.": 8836,
      "▁Portuguese": 8837,
      "▁re-": 8838,
      "▁Lower": 8839,
      "▁induced": 8840,
      "▁cleared": 8841,
      "▁ships,": 8842,
      "▁Ned": 8843,
      "▁consol": 8844,
      "▁window,": 8845,
      "hor": 8846,
      "▁eran": 8847,
      "▁--¿": 8848,
      "▁somewhere": 8849,
      "▁mucha": 8850,
      "▁useless": 8851,
      "▁Aqu": 8852,
      "▁Bird": 8853,
      "▁quier": 8854,
      "▁Girl": 8855,
      "▁hours,": 8856,
      "och": 8857,
      "▁stone,": 8858,
      "▁Book": 8859,
      "ful.": 8860,
      "cent": 8861,
      "▁\"I've": 8862,
      "▁detail": 8863,
      "▁otras": 8864,
      "ing:": 8865,
      "▁Gi": 8866,
      "▁guil": 8867,
      "▁Capt.": 8868,
      "▁maintained": 8869,
      "6:": 8870,
      "▁49": 8871,
      "▁receiving": 8872,
      "▁reject": 8873,
      "▁contest": 8874,
      "-5": 8875,
      "ieg": 8876,
      "▁chim": 8877,
      "▁crest": 8878,
      "▁slightest": 8879,
      "ford,": 8880,
      "▁cada": 8881,
      "atr": 8882,
      "--L": 8883,
      "▁entering": 8884,
      "▁ship,": 8885,
      "▁papers": 8886,
      "▁Central": 8887,
      "▁disagree": 8888,
      "13": 8889,
      "▁aloud": 8890,
      "▁Ship": 8891,
      "▁universal": 8892,
      "▁atmosphere": 8893,
      "▁ich": 8894,
      "▁colored": 8895,
      "▁blessed": 8896,
      "hew": 8897,
      "▁mink": 8898,
      "ores,": 8899,
      "▁scale": 8900,
      "ition.": 8901,
      "▁peace,": 8902,
      "rant": 8903,
      "uelt": 8904,
      "▁hint": 8905,
      "▁doubtless": 8906,
      "ón,": 8907,
      "aciones": 8908,
      "▁IV.": 8909,
      "-ey": 8910,
      "isk": 8911,
      "▁dried": 8912,
      "▁come.": 8913,
      "ling,": 8914,
      "mouth": 8915,
      "▁batter": 8916,
      "ened,": 8917,
      "▁blame": 8918,
      "▁considering": 8919,
      "▁lonely": 8920,
      "e's": 8921,
      "▁Bulgar": 8922,
      "ció": 8923,
      "▁embr": 8924,
      "attle,": 8925,
      "-brown": 8926,
      "▁folk": 8927,
      "co,": 8928,
      "head,": 8929,
      "▁orange": 8930,
      "▁FIG": 8931,
      "▁touching": 8932,
      "▁AD": 8933,
      "▁story,": 8934,
      "▁butterflies": 8935,
      "▁oí": 8936,
      "▁widely": 8937,
      "▁neighbouring": 8938,
      "IP": 8939,
      "LY": 8940,
      "▁achie": 8941,
      "▁garrison": 8942,
      "▁railway": 8943,
      "▁June,": 8944,
      "▁field,": 8945,
      "▁check": 8946,
      "▁is.": 8947,
      "▁unse": 8948,
      "▁smiled": 8949,
      "▁sides,": 8950,
      "▁hills,": 8951,
      "▁squad": 8952,
      "▁godd": 8953,
      "▁Indeed,": 8954,
      "rs.": 8955,
      "▁upright": 8956,
      "▁rage": 8957,
      "▁slain": 8958,
      "▁volcan": 8959,
      "▁ocean": 8960,
      "agger": 8961,
      "bles,": 8962,
      "▁Kn": 8963,
      "▁lighted": 8964,
      "▁snow,": 8965,
      "ane,": 8966,
      "▁largely": 8967,
      "▁inquired": 8968,
      "▁execution": 8969,
      "a!": 8970,
      "bres": 8971,
      "▁lust": 8972,
      "▁ecc": 8973,
      "▁178": 8974,
      "IAN": 8975,
      "▁stars": 8976,
      "umes": 8977,
      "▁Rh": 8978,
      "▁cheap": 8979,
      "▁considerably": 8980,
      "▁purpose.": 8981,
      "▁Constant": 8982,
      "ashing": 8983,
      "▁Dur": 8984,
      "▁West,": 8985,
      "▁comparatively": 8986,
      "▁l.": 8987,
      "▁distinguish": 8988,
      "▁Latin": 8989,
      "▁Heaven": 8990,
      "icul": 8991,
      "▁Buck": 8992,
      "▁enlar": 8993,
      "▁craft": 8994,
      "▁shill": 8995,
      "▁enchant": 8996,
      "pless": 8997,
      "▁town.": 8998,
      "▁'G": 8999,
      "▁Spain,": 9000,
      "▁8,": 9001,
      "▁forward,": 9002,
      "▁sensible": 9003,
      "▁iv.": 9004,
      "▁notic": 9005,
      "▁been,": 9006,
      "▁would,": 9007,
      "▁mostly": 9008,
      "▁enthusias": 9009,
      "ifully": 9010,
      "RY": 9011,
      "▁resemble": 9012,
      "ete": 9013,
      "upon": 9014,
      "▁leader": 9015,
      "▁position,": 9016,
      "▁invariably": 9017,
      "▁remote": 9018,
      "man.": 9019,
      "-six": 9020,
      "▁climate": 9021,
      "▁Minister": 9022,
      "▁pursuit": 9023,
      "2;": 9024,
      "nat": 9025,
      "▁Cro": 9026,
      "▁History": 9027,
      "▁bough": 9028,
      "art,": 9029,
      "▁Yo": 9030,
      "--W": 9031,
      "▁did.": 9032,
      "▁sla": 9033,
      "-law": 9034,
      "▁arrive": 9035,
      "▁understanding": 9036,
      "▁abandoned": 9037,
      "▁12.": 9038,
      "▁burden": 9039,
      "▁twenty-five": 9040,
      "▁sir,\"": 9041,
      "▁abroad": 9042,
      "▁(3": 9043,
      "▁spec": 9044,
      "▁confus": 9045,
      "▁sacrifice": 9046,
      "▁tengo": 9047,
      "▁deck": 9048,
      "▁iba": 9049,
      "ben": 9050,
      "ala": 9051,
      "▁Manc": 9052,
      "▁Bas": 9053,
      "▁fortunate": 9054,
      "5:": 9055,
      "[5": 9056,
      "ès": 9057,
      "▁example,": 9058,
      "▁Rog": 9059,
      "▁fisher": 9060,
      "▁game,": 9061,
      "agg": 9062,
      "▁could,": 9063,
      "▁daughter,": 9064,
      "▁foss": 9065,
      "itu": 9066,
      "ames,": 9067,
      "▁descript": 9068,
      "▁\"Come": 9069,
      "▁Australian": 9070,
      "▁Cross": 9071,
      "▁prolong": 9072,
      "▁seeking": 9073,
      "▁general,": 9074,
      "▁interval": 9075,
      "▁describe": 9076,
      "▁endeavour": 9077,
      "itute": 9078,
      "▁neglect": 9079,
      "os;": 9080,
      "▁Dr": 9081,
      "▁relative": 9082,
      "idae": 9083,
      "▁to.": 9084,
      "▁wondered": 9085,
      "▁eighty": 9086,
      "▁resembles": 9087,
      "▁unexpected": 9088,
      "▁angel": 9089,
      "▁mayor": 9090,
      "▁transform": 9091,
      "▁soul,": 9092,
      "▁copy": 9093,
      "▁reason,": 9094,
      "▁knife": 9095,
      "▁trun": 9096,
      "▁newspap": 9097,
      "▁punishment": 9098,
      "▁communication": 9099,
      "▁threatened": 9100,
      "-v": 9101,
      "▁foll": 9102,
      "wards,": 9103,
      "▁Tor": 9104,
      "qué": 9105,
      "▁ster": 9106,
      "▁she's": 9107,
      ".--A": 9108,
      "▁continent": 9109,
      "▁contrast": 9110,
      "▁nada": 9111,
      "▁Snow": 9112,
      "▁issue": 9113,
      "▁_note": 9114,
      "▁(in": 9115,
      "▁confident": 9116,
      "▁mischief": 9117,
      "▁eggs,": 9118,
      "▁sheep,": 9119,
      "▁low,": 9120,
      "ist.": 9121,
      "▁infinite": 9122,
      "chard": 9123,
      "▁Council": 9124,
      "▁Au": 9125,
      "▁protected": 9126,
      "▁griev": 9127,
      "ano,": 9128,
      "▁scorn": 9129,
      "▁purchase": 9130,
      "▁ej": 9131,
      "ctions": 9132,
      "issipp": 9133,
      "▁54": 9134,
      "ados,": 9135,
      "▁school,": 9136,
      "▁movements": 9137,
      "▁solitary": 9138,
      "▁respecting": 9139,
      "▁comparison": 9140,
      "▁moderate": 9141,
      "ria": 9142,
      "▁Ass": 9143,
      "▁spot,": 9144,
      "▁million": 9145,
      "OOK": 9146,
      "▁assumed": 9147,
      "▁voice.": 9148,
      "▁People": 9149,
      "rob": 9150,
      "▁algo": 9151,
      "▁entend": 9152,
      "▁groups": 9153,
      "▁beasts": 9154,
      "▁ain't": 9155,
      "onge": 9156,
      "as!": 9157,
      "▁mano": 9158,
      "son's": 9159,
      "▁quarters": 9160,
      "▁argument": 9161,
      "▁thre": 9162,
      "▁300": 9163,
      "▁Canada": 9164,
      "▁belongs": 9165,
      "▁oath": 9166,
      "▁Meg": 9167,
      "ilian": 9168,
      "per,": 9169,
      "▁millions": 9170,
      "▁citizens": 9171,
      "OD": 9172,
      "▁Tod": 9173,
      "▁fear,": 9174,
      "▁key": 9175,
      "▁instances": 9176,
      "▁yellowish": 9177,
      "▁stupid": 9178,
      "14": 9179,
      "▁luego": 9180,
      "▁Saw": 9181,
      "▁Bern": 9182,
      "▁priz": 9183,
      "VER": 9184,
      "▁·": 9185,
      "▁hecho": 9186,
      "▁jew": 9187,
      "man's": 9188,
      "▁53": 9189,
      "▁internal": 9190,
      "▁view,": 9191,
      "▁prohib": 9192,
      "▁while,": 9193,
      "▁resembling": 9194,
      "▁battle,": 9195,
      "▁dorm": 9196,
      "▁ult": 9197,
      "▁Ol": 9198,
      "▁toss": 9199,
      "▁Ivan": 9200,
      "▁poem": 9201,
      "▁entit": 9202,
      "▁keeps": 9203,
      "▁9,": 9204,
      "▁excuse": 9205,
      "▁undoubt": 9206,
      "enny": 9207,
      "▁masses": 9208,
      "▁beaver": 9209,
      "▁tener": 9210,
      "achel": 9211,
      "▁protest": 9212,
      "▁fifth": 9213,
      "▁performed": 9214,
      "uer": 9215,
      "▁Six": 9216,
      "▁Burg": 9217,
      "aired": 9218,
      "▁bed.": 9219,
      "▁thing.": 9220,
      "▁mankind": 9221,
      "▁resour": 9222,
      "▁encourage": 9223,
      "▁shores": 9224,
      "▁venture": 9225,
      "▁manufacture": 9226,
      "▁discipl": 9227,
      "--d": 9228,
      "this": 9229,
      "▁Look": 9230,
      "▁parts,": 9231,
      "▁eso": 9232,
      "▁inches.": 9233,
      "▁handed": 9234,
      "▁differences": 9235,
      "▁message": 9236,
      "16": 9237,
      "i;": 9238,
      "▁seize": 9239,
      "▁COM": 9240,
      "▁leis": 9241,
      "▁brings": 9242,
      "▁peasant": 9243,
      "▁gallant": 9244,
      "▁treasure": 9245,
      "▁Ref": 9246,
      "▁buena": 9247,
      "▁hill,": 9248,
      "▁Max": 9249,
      "ption": 9250,
      "▁Jack,": 9251,
      "▁Elizabeth": 9252,
      "▁evening.": 9253,
      "▁grain": 9254,
      "▁d'A": 9255,
      "▁tremend": 9256,
      "▁Admiral": 9257,
      "▁state.": 9258,
      "▁south,": 9259,
      "▁vigorous": 9260,
      "▁pregunt": 9261,
      "▁gates": 9262,
      "▁Call": 9263,
      "▁appet": 9264,
      "▁mingled": 9265,
      "▁residence": 9266,
      "lessly": 9267,
      "▁resolution": 9268,
      "▁XXV": 9269,
      "ota": 9270,
      "▁voices": 9271,
      "IV.": 9272,
      "75": 9273,
      "oration": 9274,
      "▁hoof": 9275,
      "▁Dou": 9276,
      "▁DES": 9277,
      "udal": 9278,
      "▁nothing.": 9279,
      "▁composition": 9280,
      "▁trab": 9281,
      "▁moment.": 9282,
      "▁signific": 9283,
      "▁asked.": 9284,
      "▁Europe.": 9285,
      "▁×": 9286,
      "▁fires": 9287,
      "eds,": 9288,
      "▁go.": 9289,
      "and,": 9290,
      "us;": 9291,
      "▁generous": 9292,
      "▁dilig": 9293,
      "ipt": 9294,
      "▁ay": 9295,
      "▁\"Oh": 9296,
      "▁varied": 9297,
      "▁dat": 9298,
      "▁dance": 9299,
      "arf": 9300,
      "▁ga": 9301,
      "pell": 9302,
      "▁Pur": 9303,
      "▁retire": 9304,
      "▁limited": 9305,
      "▁recollect": 9306,
      "▁attempts": 9307,
      "force": 9308,
      "▁geograph": 9309,
      "oh": 9310,
      "ira": 9311,
      "▁Soc": 9312,
      "▁definite": 9313,
      "▁Apoll": 9314,
      "▁fertile": 9315,
      "▁Bert": 9316,
      "▁150": 9317,
      "▁fatig": 9318,
      "▁Year": 9319,
      "▁Caesar": 9320,
      "▁genius": 9321,
      "ic.": 9322,
      "▁Doctor": 9323,
      "▁territory": 9324,
      "▁overl": 9325,
      "▁rest.": 9326,
      "▁sleeping": 9327,
      "▁accompany": 9328,
      "SE": 9329,
      "▁lamb": 9330,
      "▁weep": 9331,
      "acy,": 9332,
      "ies;": 9333,
      "▁day's": 9334,
      "qual": 9335,
      "▁Dun": 9336,
      "▁times.": 9337,
      "▁sixteen": 9338,
      "▁temple": 9339,
      "THER": 9340,
      "▁Ori": 9341,
      "ber,": 9342,
      "▁strong,": 9343,
      "▁clergy": 9344,
      "▁ses": 9345,
      "▁Las": 9346,
      "icket": 9347,
      "▁charming": 9348,
      "▁superst": 9349,
      "▁Spirit": 9350,
      "▁attain": 9351,
      "▁swarm": 9352,
      "▁engine": 9353,
      "▁ov": 9354,
      "▁obv": 9355,
      "▁refuge": 9356,
      "▁stopp": 9357,
      "▁podía": 9358,
      "▁proclaim": 9359,
      "[6": 9360,
      "▁selected": 9361,
      "ibr": 9362,
      "▁angle": 9363,
      "▁elder": 9364,
      "▁dicho": 9365,
      "▁thine": 9366,
      "▁Hud": 9367,
      "▁chry": 9368,
      "▁learning": 9369,
      "▁Scotland": 9370,
      "▁skelet": 9371,
      "▁Dis": 9372,
      "▁corps": 9373,
      "▁along,": 9374,
      "▁bagg": 9375,
      "osed,": 9376,
      "▁Ox": 9377,
      "▁Señ": 9378,
      "▁flowers,": 9379,
      "▁Take": 9380,
      "▁grub": 9381,
      "▁instruction": 9382,
      "▁reform": 9383,
      "▁verte": 9384,
      "-tree": 9385,
      "▁succession": 9386,
      "ISH": 9387,
      "19": 9388,
      "▁fount": 9389,
      "▁brass": 9390,
      "▁Palmerston": 9391,
      "ulating": 9392,
      "▁observation": 9393,
      "▁Shall": 9394,
      "▁coach": 9395,
      "▁That's": 9396,
      "quer": 9397,
      "▁PL": 9398,
      "ured,": 9399,
      "▁period,": 9400,
      "ipping": 9401,
      "▁Hector": 9402,
      "▁guilty": 9403,
      "▁blanc": 9404,
      "▁extract": 9405,
      "▁untill": 9406,
      "▁practically": 9407,
      "▁resemblance": 9408,
      "▁essential": 9409,
      "irmed": 9410,
      "▁trembling": 9411,
      "▁plumage": 9412,
      "kerchief": 9413,
      "▁Achilles": 9414,
      "inos": 9415,
      "▁bind": 9416,
      "onn": 9417,
      "▁pag": 9418,
      "▁formid": 9419,
      "▁heavily": 9420,
      "▁observed,": 9421,
      "▁Alexander": 9422,
      "▁Pen": 9423,
      "▁art,": 9424,
      "▁spring,": 9425,
      "[2]": 9426,
      "▁after,": 9427,
      "▁white;": 9428,
      "▁English,": 9429,
      "ylvan": 9430,
      "▁wandering": 9431,
      "-in-law": 9432,
      "▁crying": 9433,
      "s,'": 9434,
      "▁rolling": 9435,
      "ical,": 9436,
      "▁route": 9437,
      "rt": 9438,
      "▁jam": 9439,
      "▁chase": 9440,
      "▁puzz": 9441,
      "▁north,": 9442,
      "▁preparing": 9443,
      "▁chestnut": 9444,
      "den,": 9445,
      "▁ghost": 9446,
      "▁concert": 9447,
      "AST": 9448,
      "ot.": 9449,
      "▁Birds": 9450,
      "▁Dam": 9451,
      "▁Neg": 9452,
      "▁stepped": 9453,
      "▁burnt": 9454,
      "▁furnish": 9455,
      "▁fowl": 9456,
      "▁Gilbert": 9457,
      "-fe": 9458,
      "▁namely,": 9459,
      "▁appearance,": 9460,
      "▁appropri": 9461,
[...]
